{"!": 55, "!!": 2281, "!!!": 8558, "!\"": 2674, "!'": 17977, "!\u2014": 20626, "!\u2019": 10031, "!\u201d": 1840, "!\u300d": 12931, "\"": 84, "\"(": 5916, "\")": 9093, "\">": 6543, "#": 4348, "$": 1103, "%": 1487, "%1$": 30217, "&": 1063, "'": 123, "'(": 14279, "(": 28, "(...)": 28445, "(0)": 31233, "(1": 7146, "(1)": 12131, "(10": 10762, "(102)": 30899, "(11": 18800, "(12": 17873, "(14": 20946, "(16": 21145, "(18": 13130, "(19": 6502, "(2": 7978, "(2)": 19793, "(20": 19755, "(3": 8158, "(4": 11476, "(5": 12939, "(6": 15518, "(?)": 15855, "([": 20801, "(_": 13944, "(\u201c": 17887, ")": 13, ")\"": 5230, ")'": 6046, "):": 4103, ");": 11485, ")\u2019": 4604, ")\u201d": 7216, "*": 1020, "**": 21712, "*1": 11667, "*10": 28225, "*2": 17234, "+": 959, "++": 12022, "+00:00": 30141, "+1": 23806, "+]": 15529, ",": 4, ",000,000": 14826, "-": 56, "--": 6675, "---": 19412, "-----": 28912, "-0": 8261, "-00": 9730, "-01": 6716, "-02": 8984, "-03": 10578, "-04": 10791, "-05": 10451, "-06": 10558, "-07": 10002, "-08": 10566, "-09": 10629, "-1": 1925, "-10": 2721, "-100": 11888, "-1000": 26129, "-11": 4360, "-12": 3575, "-120": 27727, "-13": 6527, "-14": 7119, "-15": 4861, "-150": 24911, "-16": 6739, "-17": 7066, "-18": 6574, "-19": 5255, "-2": 2671, "-20": 3892, "-200": 15602, "-2000": 25851, "-2019": 24710, "-21": 8176, "-22": 9400, "-23": 9224, "-24": 9403, "-240": 26556, "-25": 8634, "-26": 11042, "-27": 11589, "-28": 12294, "-29": 14823, "-3": 3322, "-30": 6510, "-300": 21051, "-31": 16244, "-32": 16725, "-33": 19421, "-34": 15414, "-35": 14418, "-36": 21127, "-38": 25348, "-39": 25379, "-4": 3071, "-40": 11825, "-400": 26546, "-42": 25553, "-45": 17167, "-47": 24555, "-48": 25326, "-5": 2896, "-50": 12943, "-500": 24428, "-6": 3344, "-60": 12211, "-7": 4226, "-70": 20291, "-8": 3532, "-80": 17839, "-800": 23041, "-86": 23846, "-9": 5054, "-90": 21267, "-_-": 30307, ".": 3, ".\"": 221, ".*": 9123, ".+": 9527, "...": 126, "...\"": 16872, "......": 8813, "................": 21074, ".02.20": 30566, ".03.20": 30810, ".4)": 18536, ".5+": 11075, ".[1": 19127, ".[1]": 8516, ".[2": 30293, ".[2]": 15621, ".]\u201d": 17319, ".]\u201d\u2014": 27256, ".\u2014": 1086, ".\u2019\u201d": 25499, ".\u201d": 110, ".\u201d(": 13919, ".\u201d\u2014": 2561, ".\u201d\u2014\u300c": 27897, "/": 88, "/0": 15747, "/05/": 30246, "/1": 4973, "/10": 9672, "/100": 26527, "/11": 15086, "/12": 16471, "/15": 9345, "/16": 21709, "/2": 8698, "/20": 16793, "/22": 22217, "/24": 24836, "/3": 10496, "/30": 25906, "/4": 11383, "/5": 11190, "/50": 23447, "/6": 15778, "/7": 21346, "/8": 8483, "0": 1871, "0%": 8319, "0-": 17482, "0-1": 24127, "0.0": 8732, "0.00": 16749, "0.000": 22490, "0.1": 13711, "0.10": 29506, "0.2": 18031, "0.3": 17829, "0.4": 23333, "0.5": 13284, "0.6": 25283, "0.7": 27534, "0.8": 24286, "0.9": 23032, "00": 4747, "00,000": 10286, "000": 5587, "0000": 9030, "00000": 29109, "000000": 31139, "001": 9682, "002": 21764, "003": 26028, "004": 28356, "005": 28297, "006": 29470, "007": 20382, "008": 26914, "009": 31044, "00:00": 28195, "01": 2747, "010": 20244, "02": 3640, "02)": 19635, "020": 21745, "03": 3982, "030": 22110, "04": 3328, "040": 25078, "04:59": 23516, "05": 3159, "050": 20002, "05:06": 30569, "06": 3891, "060": 25051, "06:10": 22839, "07": 3350, "070": 22370, "07:01": 20125, "08": 4144, "080": 21751, "09": 3476, "0:14": 21807, "0:21": 27424, "0\u00b0": 4391, "1": 226, "1%": 8758, "1)": 2932, "1,000": 19463, "1-1": 23459, "1-2": 25859, "1-3": 15810, "1-4": 20414, "1-5": 23253, "1-6": 21531, "1.0": 16225, "1.00": 24933, "1.1": 13825, "1.2": 14768, "1.3": 19237, "1.4": 19136, "1.5": 9314, "1.6": 21254, "1.7": 24718, "1.8": 23897, "1.9": 30103, "1/2": 27147, "10": 773, "10)": 10609, "10,000": 30715, "100": 2499, "100%": 28016, "1000": 9601, "101": 12181, "102": 18719, "103": 17864, "104": 19670, "105": 17989, "106": 17291, "107": 19872, "108": 20151, "1080": 29094, "109": 19071, "11": 1322, "11)": 15711, "110": 10078, "111": 16565, "112": 21452, "114": 23559, "115": 23027, "116": 25385, "117": 19918, "118": 20007, "119": 23456, "12": 1143, "12)": 13697, "120": 8696, "1200": 21300, "123": 16431, "12345": 29690, "124": 22720, "125": 13531, "126": 22039, "127": 22835, "128": 16834, "129": 19564, "13": 1459, "130": 11351, "134": 19475, "135": 20929, "136": 25662, "137": 24110, "138": 22758, "139": 23907, "14": 1619, "14)": 14091, "140": 14506, "14001": 27704, "141": 23129, "144": 25587, "145": 23172, "149": 23700, "15": 1250, "150": 7061, "1500": 28585, "155": 21667, "156": 20126, "157": 22911, "158": 22992, "159": 23970, "16": 1502, "16)": 13976, "160": 9622, "164": 21768, "165": 24270, "168": 20744, "169": 22900, "17": 1489, "170": 14363, "175": 22228, "176": 26751, "177": 23094, "178": 21439, "179": 25027, "18": 1420, "180": 11900, "1800": 29495, "185": 22015, "186": 23821, "187": 23962, "188": 20341, "189": 23419, "19": 1629, "190": 21180, "194": 24447, "195": 20653, "196": 24490, "197": 22721, "198": 19526, "199": 20232, "1998": 29204, "1:14": 16219, "1:21": 19771, "2": 162, "2%": 6485, "2)": 2731, "2,000": 16128, "2-": 10733, "2-4": 23715, "2.0": 13943, "2.00": 30390, "2.1": 12346, "2.2": 17595, "2.3": 19394, "2.4": 19425, "2.5": 8793, "2.6": 23539, "2.7": 23319, "2.8": 23458, "2.9": 28523, "2/": 15393, "20": 1472, "20)": 14934, "200": 3483, "2000": 9493, "2001": 29446, "2002": 27865, "2003": 24346, "2004": 22138, "2005": 23212, "2006": 25124, "2007": 21855, "2008": 15034, "2009": 19264, "201": 24265, "2010": 16428, "2011": 14326, "2012": 14182, "2013": 16465, "2014": 12961, "2015": 9243, "2016": 8420, "2017": 7545, "2018": 7052, "2019": 8247, "202": 21605, "2020": 15190, "204": 22167, "205": 19282, "208": 24680, "21": 1289, "210": 16294, "213": 20961, "22": 2074, "22)": 13334, "220": 9746, "222": 20408, "225": 20841, "23": 2654, "23)": 14351, "230": 20174, "232": 13778, "235": 17156, "24": 1510, "240": 16859, "25": 1314, "250": 8734, "255": 24826, "256": 24139, "26": 2392, "26)": 15651, "260": 17820, "264": 13488, "265": 16387, "268": 25703, "269": 25099, "27": 2210, "270": 20032, "275": 24050, "277": 22379, "28": 1971, "280": 17882, "288": 26974, "289": 26767, "29": 2164, "290": 22127, "296": 27082, "2:14": 16221, "2:21": 19185, "2:9": 17077, "2\u00b0": 29694, "3": 203, "3%": 7484, "3)": 2690, "3,000": 21050, "3-": 9983, "3-5": 25931, "3.0": 18391, "3.1": 16317, "3.2": 20146, "3.3": 17539, "3.4": 18462, "3.5": 13215, "3.6": 21093, "3.7": 26335, "3.8": 17993, "3.9": 18597, "3/": 13366, "30": 1824, "30)": 16236, "300": 3983, "3000": 15505, "301": 18673, "303": 24844, "304": 10754, "305": 21294, "306": 25380, "308": 26861, "31": 2324, "310": 16211, "316": 15641, "32": 2051, "320": 14580, "33": 2464, "330": 19130, "34": 2958, "34)": 18999, "340": 20145, "345": 22034, "35": 2186, "350": 10529, "355": 26325, "36": 3033, "36)": 20190, "360": 14976, "365": 22928, "37": 3140, "37)": 19822, "370": 21032, "375": 23153, "377": 28744, "378": 29120, "38": 3058, "38)": 16769, "380": 15631, "386": 26978, "39": 3260, "39)": 19806, "3:14": 18133, "4": 320, "4%": 7812, "4)": 4442, "4,": 10797, "4,000": 17184, "4.0": 24622, "4.00": 30997, "4.1": 21682, "4.2": 21388, "4.3": 26072, "4.4": 23521, "4.5": 15799, "4.6": 19109, "4.7": 29380, "4.8": 16673, "40": 1861, "40,000": 23602, "400": 4448, "4000": 22012, "401": 23614, "41": 3790, "41)": 19950, "410": 23315, "42": 3478, "420": 26316, "43": 3305, "430": 21577, "44": 3184, "44)": 20931, "440": 16963, "445": 26582, "45": 2683, "450": 14074, "46": 2712, "460": 18082, "47": 3551, "47)": 23101, "470": 25346, "477": 29347, "48": 2667, "480": 22118, "485": 16503, "488": 30812, "49": 2923, "4:14": 22692, "4:2": 22182, "5": 403, "5%": 4807, "5)": 3488, "5*": 16923, "5,000": 9105, "5-": 9891, "5-7": 21107, "5-8": 26439, "5.0": 24151, "5.00": 25231, "5.1": 28029, "5.3": 21085, "5.4": 19823, "5.5": 21335, "5.6": 18266, "5.7": 23640, "5.8": 21131, "5.9": 28320, "50": 1712, "50%": 29497, "50,000": 16956, "500": 2362, "500,000": 31076, "5000": 15887, "501": 23965, "51": 3399, "510": 22231, "512": 23896, "52": 4165, "52)": 20564, "520": 23352, "53": 3588, "54": 3385, "54)": 21451, "540": 24910, "55": 3296, "550": 15826, "555": 23747, "56": 3670, "56)": 19694, "560": 21837, "57": 3421, "570": 22830, "58": 3515, "580": 22404, "588": 28734, "59": 3404, "5:21": 20721, "5:9": 26269, "5\u00b0": 11858, "6": 570, "6%": 7508, "6)": 4656, "6,000": 20502, "6-7": 31092, "6-8": 23626, "6.0": 30819, "6.1": 19565, "6.2": 18817, "6.3": 19965, "6.4": 21802, "6.5": 20663, "6.6": 21856, "6.7": 22481, "6.8": 24084, "6.9": 27305, "60": 2400, "60,000": 28098, "600": 3693, "6000": 21322, "601": 21975, "606": 24730, "608": 29774, "60\u00b0": 22387, "61": 3576, "61)": 22439, "62": 4072, "62)": 23087, "620": 21063, "63": 3302, "630": 21176, "64": 2670, "640": 21533, "65": 2265, "650": 16358, "66": 2968, "66)": 23008, "660": 20798, "668": 29896, "67": 2887, "67)": 21443, "670": 24552, "678": 29670, "68": 3497, "680": 22128, "688": 29168, "69": 4136, "69)": 23944, "690": 29000, "696": 29281, "6:14": 22480, "6:2": 25132, "6:3": 21909, "6:9": 26773, "7": 714, "7%": 6678, "7)": 4425, "7,000": 15878, "7-8": 26841, "7-9": 25538, "7.0": 29785, "7.1": 15610, "7.2": 19738, "7.3": 21809, "7.4": 17862, "7.5": 16806, "7.6": 19384, "7.7": 24415, "7.8": 20793, "7.9": 26197, "70": 3409, "700": 6147, "7000": 30730, "701": 27910, "706": 31318, "708": 29911, "71": 3491, "72": 3747, "72)": 21583, "720": 21136, "73": 4379, "73)": 22315, "730": 24875, "74": 4153, "74)": 19947, "75": 2757, "750": 14800, "755": 24389, "76": 4263, "76)": 23630, "760": 24696, "768": 24150, "769": 30201, "77": 5134, "77)": 25391, "770": 27218, "776": 30089, "777": 21403, "778": 30543, "78": 5282, "780": 24503, "787": 30825, "789": 28682, "79": 3655, "790": 27708, "798": 29262, "7:14": 19879, "7:21": 23652, "7:9": 20204, "8": 604, "8%": 7091, "8)": 3843, "8,000": 13381, "8-9": 30211, "8.0": 28719, "8.1": 27018, "8.2": 18492, "8.3": 20702, "8.4": 31313, "8.5": 22151, "8.6": 21519, "8.7": 23504, "8.8": 21383, "80": 3379, "80*": 30565, "80,000": 30067, "800": 5048, "8000": 26772, "801": 28928, "803": 28086, "808": 24744, "81": 4204, "81)": 21549, "82": 4336, "82)": 22293, "83": 4511, "84": 3734, "840": 20921, "85": 3221, "850": 17587, "855": 28836, "86": 3574, "860": 26884, "866": 29609, "868": 28924, "87": 4057, "870": 23317, "876": 29300, "878": 30262, "88": 4956, "88)": 24628, "880": 22201, "886": 27960, "888": 16227, "889": 27921, "89": 4356, "8:14": 23981, "8:2": 28821, "8:21": 27393, "8:9": 28608, "9": 732, "9%": 8807, "9)": 4079, "9,000": 19218, "9.1": 30095, "9.2": 19632, "9.3": 23378, "9.4": 24759, "9.5": 18442, "9.6": 23211, "9.7": 24443, "9.8": 26541, "9.9": 29706, "9.99": 22785, "90": 2394, "900": 7186, "9000": 20709, "9001": 11019, "905": 28147, "909": 28406, "91": 4779, "91)": 24887, "92": 3996, "92)": 22614, "93": 4711, "93)": 24589, "930": 28801, "94": 4458, "94)": 23386, "945": 30729, "95": 2895, "95)": 20888, "950": 18359, "96": 3973, "96)": 22492, "960": 17329, "97": 3741, "970": 30087, "977": 31243, "98": 3949, "980": 24790, "99": 2665, "99)": 21558, "990": 29289, "999": 14647, "9:14": 25828, "9:21": 30167, "9:6": 31167, "9:9": 29903, "9]": 17082, ":": 22, ":%": 23650, "://": 5783, ":00": 1937, ":01": 3687, ":02": 5578, ":03": 6518, ":04": 5478, ":05": 5293, ":06": 5357, ":07": 4803, ":08": 6022, ":09": 6374, ":1": 3584, ":10": 1867, ":11": 1906, ":12": 2115, ":13": 2375, ":15": 2174, ":16": 2473, ":17": 2181, ":18": 2446, ":19": 2283, ":20": 2173, ":22": 2600, ":23": 2997, ":24": 2821, ":25": 3173, ":26": 3388, ":27": 3294, ":28": 2842, ":29": 3475, ":30": 2263, ":31": 3712, ":32": 4673, ":33": 4573, ":34": 4389, ":35": 4575, ":36": 4925, ":37": 4593, ":38": 4962, ":39": 4721, ":4": 2869, ":4.0.30319": 27654, ":40": 4418, ":41": 5858, ":42": 5525, ":43": 5423, ":44": 5037, ":45": 4577, ":46": 5908, ":47": 5498, ":48": 5847, ":49": 5482, ":5": 2901, ":50": 5464, ":51": 6558, ":52": 6788, ":53": 6453, ":54": 6316, ":55": 5913, ":56": 5280, ":57": 5181, ":58": 5312, ":59": 4907, ":6": 3564, ":7": 3120, ":8": 3550, ";": 175, ";;": 10751, ";;;": 22639, "<": 8481, "</": 7523, "</s>": 2, "<s>": 1, "<unk>": 0, "=": 3325, "=\"": 4193, "=\"%(": 27665, "===": 30673, ">": 662, "><": 25145, "?": 17, "?\"": 1074, "?'": 8887, "??": 5128, "???": 11482, "?\u2014": 18306, "?\u2019": 3531, "?\u201d": 735, "@": 2699, "A": 260, "AA": 10230, "AC": 6053, "ACE": 19568, "ACK": 20713, "ACT": 24729, "AD": 7549, "ADA": 29385, "AE": 20050, "AF": 14935, "AG": 13883, "AGE": 25731, "AH": 20363, "AI": 9193, "AL": 4395, "ALE": 31073, "ALL": 12666, "AM": 5532, "AN": 6020, "ANA": 28168, "AND": 18051, "ANG": 19070, "ANKO": 23955, "ANO": 30397, "AP": 6992, "API": 24391, "AR": 4772, "ARE": 24545, "ART": 12731, "AS": 5754, "ASH": 30894, "ASX": 30653, "AT": 5321, "ATA": 23892, "ATE": 18579, "ATION": 25243, "AU": 15863, "AUD": 17067, "AVE": 27914, "AWG": 27105, "AX": 16729, "AZ": 22294, "Ad": 16905, "Adapt": 30195, "Add": 28933, "After": 23296, "Ah": 25137, "Air": 26234, "Al": 10010, "All": 18649, "Am": 22624, "American": 23002, "An": 7707, "And": 18269, "App": 13927, "Ar": 15361, "Art": 24914, "Arthur": 29641, "As": 18185, "Australian": 31141, "B": 257, "BA": 8551, "BAR": 30275, "BASE": 29665, "BB": 15553, "BC": 7156, "BE": 18459, "BER": 28802, "BET": 28920, "BI": 12203, "BL": 18581, "BN": 18880, "BO": 9365, "BOX": 30900, "BP": 18087, "BR": 11717, "BRL": 28423, "BS": 4811, "BT": 12646, "BTC": 29582, "BU": 23221, "Babe": 16676, "Back": 27426, "Bar": 20047, "Base": 28677, "Be": 12491, "Bedroom": 31228, "Best": 26249, "Big": 28216, "Black": 28537, "Blue": 27208, "Bo": 15069, "Boobs": 14442, "Book": 18293, "Box": 14099, "Br": 14112, "Break": 28020, "British": 27136, "Build": 21500, "C": 215, "CA": 4963, "CAD": 18309, "CAP": 26995, "CC": 5688, "CD": 12649, "CDMA": 31319, "CE": 8509, "CH": 8217, "CHA": 28521, "CHE": 27230, "CHF": 20549, "CHI": 29799, "CI": 10724, "CIS": 21243, "CK": 12845, "CL": 13184, "CM": 9722, "CNY": 19799, "CO": 6533, "COM": 15845, "CON": 23023, "CP": 12141, "CR": 12398, "CS": 8357, "CT": 10408, "CZK": 25269, "Cafe": 7948, "Cam": 26545, "Can": 23876, "Car": 15507, "Ch": 7236, "Char": 30478, "Check": 24653, "Chem": 30193, "Cl": 11364, "Click": 19725, "Clips": 5988, "Cloud": 26473, "Co": 8606, "Coin": 27802, "Com": 12314, "Comment": 18112, "Communi": 29469, "Comp": 26461, "Component": 30600, "Con": 9322, "Consumer": 30435, "Count": 21536, "Cr": 16682, "Create": 22906, "Custom": 22651, "D": 247, "DA": 7120, "DATA": 31168, "DAY": 22705, "DB": 14433, "DC": 8108, "DE": 11117, "DER": 25491, "DI": 9003, "DKK": 28478, "DL": 15565, "DM": 10979, "DN": 17035, "DO": 15073, "DOS": 28494, "DP": 8974, "DR": 10280, "DS": 5829, "DU": 26505, "DVD": 24739, "DY": 25739, "Dan": 3549, "Data": 19017, "David": 24508, "Day": 26284, "De": 8352, "Delete": 28198, "Department": 28656, "Di": 19952, "Dis": 23697, "Do": 13893, "Doc": 26162, "Don": 22051, "Donald": 24386, "Dr": 23822, "Drive": 26053, "Drop": 29498, "Dupe": 26314, "Dynamic": 26601, "E": 719, "EA": 7933, "EAN": 24521, "EC": 4993, "ED": 9140, "EE": 9872, "EG": 15671, "EI": 18299, "EK": 19559, "EL": 6970, "ELE": 25293, "ELL": 20872, "EM": 10945, "EMA": 26110, "EMS": 31158, "EN": 4922, "ENG": 26592, "ENT": 16732, "EO": 16203, "EP": 10143, "ER": 4444, "ES": 5601, "ESS": 21018, "EST": 15289, "ET": 7656, "ETA": 26907, "EU": 10445, "EUR": 22913, "EX": 6957, "Easy": 23616, "Ed": 24038, "Edit": 27575, "El": 19647, "Electronic": 30967, "Elizabeth": 28939, "En": 15647, "Environment": 26411, "Error": 27889, "European": 26149, "Ex": 10234, "F": 379, "FA": 8332, "FC": 9475, "FD": 16025, "FE": 12227, "FF": 12421, "FI": 11491, "FL": 16155, "FM": 20042, "FO": 14640, "FP": 11362, "FR": 15567, "FS": 10828, "FT": 9443, "FX": 19973, "Federal": 27772, "Fi": 3198, "File": 27084, "Fire": 29789, "First": 27634, "Flix": 6365, "Follow": 30798, "For": 9380, "Form": 26360, "Fox": 16260, "Frankfurt": 30738, "Free": 18197, "Full": 30163, "G": 345, "GA": 10161, "GB": 4406, "GBP": 28337, "GE": 15693, "GH": 18212, "GHz": 16512, "GI": 13046, "GL": 25865, "GM": 18407, "GN": 20192, "GO": 11980, "GP": 15155, "GR": 22425, "GS": 11939, "GbE": 31356, "Gbps": 28952, "Gem": 20411, "Georg": 20385, "Get": 14679, "Global": 26476, "Go": 16579, "Gold": 29352, "Good": 27427, "Google": 26366, "Great": 30312, "Green": 31150, "Gu": 20182, "Guard": 23202, "H": 537, "HA": 12644, "HAN": 26488, "HC": 19570, "HD": 8104, "HER": 25864, "HI": 18460, "HKD": 24322, "HL": 20734, "HO": 11065, "HOW": 27173, "HP": 15717, "HR": 14601, "HS": 10502, "HT": 18991, "HTML": 18736, "HU": 21170, "HZ": 10400, "Ha": 22472, "Hamster": 5985, "Har": 27234, "He": 12447, "High": 26119, "Hit": 13894, "Ho": 20965, "Host": 28962, "Hotel": 23902, "House": 29915, "How": 12063, "Hub": 932, "Hz": 6047, "I": 966, "IA": 6437, "IAN": 29500, "IC": 4849, "ICE": 13115, "ICO": 28627, "ID": 6137, "IDE": 29459, "IE": 14900, "IEC": 25440, "IF": 9274, "IG": 11268, "IGHT": 26564, "II": 12161, "III": 24934, "IKE": 25428, "IL": 8032, "ILL": 26649, "IM": 9109, "IMO": 31160, "IN": 3934, "INA": 20104, "INE": 12984, "ING": 6920, "INT": 24515, "IO": 13426, "ION": 27692, "IP": 4976, "IR": 9864, "IS": 4498, "ISA": 26782, "ISE": 30982, "ISH": 31080, "ISO": 18746, "ISS": 24923, "IST": 15800, "IT": 6905, "ITE": 23709, "ITY": 28355, "IVE": 16665, "IX": 14390, "If": 16110, "In": 3857, "Install": 29834, "Institut": 30897, "Inter": 27328, "International": 18456, "It": 13373, "J": 1022, "JI": 23192, "JO": 26729, "JPY": 16485, "James": 31057, "Jo": 18809, "John": 16936, "Joseph": 26337, "K": 506, "KA": 17061, "KB": 9913, "KG": 10916, "KI": 18506, "KO": 23025, "KR": 22912, "KRW": 28539, "KU": 28129, "KVA": 29566, "KW": 8278, "Key": 26889, "Kg": 21632, "Korea": 28149, "Kw": 30394, "L": 526, "LA": 6939, "LAN": 17000, "LAS": 27622, "LC": 8395, "LD": 14225, "LE": 7593, "LED": 20242, "LI": 12274, "LL": 13887, "LM": 10144, "LO": 8925, "LP": 12781, "LS": 6651, "LT": 12856, "LU": 22790, "LY": 19785, "La": 10978, "Lab": 27829, "Le": 11376, "Learn": 26962, "Let": 28027, "Li": 17743, "Lib": 13611, "Life": 24921, "Link": 19924, "Linux": 30774, "Lock": 29216, "Log": 26265, "Love": 26870, "Lu": 22825, "Lust": 5894, "M": 401, "MA": 4659, "MAN": 21688, "MAX": 17719, "MB": 6809, "MC": 8919, "MD": 17755, "ME": 9805, "MENT": 31248, "MER": 31082, "MHz": 9946, "MI": 6555, "ML": 10019, "MM": 7527, "MO": 7097, "MP": 5606, "MPa": 24257, "MS": 5455, "MT": 13889, "MU": 18155, "Ma": 11871, "Mac": 17233, "Man": 19406, "Manage": 25050, "Mar": 14252, "Mark": 25740, "Master": 29261, "Material": 20907, "Max": 30711, "Mbps": 23670, "Me": 5051, "Message": 27667, "Mi": 15694, "Michael": 30773, "Michel": 26684, "Microsoft": 30973, "Mo": 6771, "Mont": 29988, "More": 23546, "Movs": 21072, "Mpa": 18717, "My": 16176, "N": 660, "NA": 7518, "NAME": 29902, "NC": 9925, "ND": 12740, "NE": 12904, "NES": 28045, "NET": 7003, "NG": 15662, "NI": 14090, "NIC": 30374, "NK": 19601, "NN": 24741, "NO": 9277, "NOK": 26769, "NP": 16944, "NS": 9195, "NT": 12388, "NU": 22486, "NV": 13623, "NX": 27407, "NY": 20769, "NZ": 26282, "NZD": 23284, "Name": 7796, "National": 16392, "Net": 18090, "New": 10347, "Next": 29510, "Ni": 25465, "No": 9633, "North": 29387, "Not": 26985, "Now": 28053, "NuVid": 11154, "O": 801, "OC": 12423, "OD": 11883, "ODM": 22475, "OEM": 31244, "OFF": 21376, "OH": 28100, "OL": 8441, "OLE": 28622, "OM": 11785, "OME": 28541, "ON": 9471, "ONE": 20154, "ONG": 22691, "OO": 13975, "OOK": 25651, "OP": 8678, "OR": 7387, "ORY": 31002, "OS": 5319, "OST": 24190, "OT": 11271, "OUR": 27498, "OUT": 25136, "OWN": 29254, "Object": 22987, "Official": 24274, "Old": 30462, "On": 11877, "Once": 30582, "One": 12334, "Open": 25217, "Operation": 27487, "Option": 20853, "Or": 20591, "Out": 27227, "P": 489, "PA": 5526, "PAN": 30577, "PC": 4393, "PCS": 18714, "PD": 13175, "PDF": 8576, "PE": 7205, "PER": 24256, "PH": 17048, "PI": 8118, "PL": 10695, "PM": 9811, "PO": 8280, "PORT": 25746, "PP": 8092, "PR": 10267, "PRO": 25710, "PS": 4282, "PT": 12457, "PU": 16678, "PVC": 27650, "Pa": 9253, "Pack": 30572, "Pad": 21689, "Part": 29999, "Paul": 29484, "Pay": 30304, "Per": 23200, "Ph": 17268, "Philip": 29095, "Pi": 24634, "Place": 20034, "Play": 19512, "Please": 23736, "Plus": 24312, "Po": 16218, "Pod": 24252, "Point": 25341, "Porn": 3283, "Porno": 4466, "Port": 23519, "Power": 25112, "Pre": 21440, "Press": 30808, "Preview": 29283, "Pri": 18699, "Print": 23132, "Pro": 7515, "Product": 29246, "Protect": 27721, "Provide": 28049, "Psych": 26330, "Q": 1686, "Qua": 31166, "Query": 31070, "R": 641, "RA": 6328, "RAM": 23089, "RC": 9227, "RD": 12752, "RE": 5830, "RED": 28785, "RES": 29182, "RF": 18930, "RI": 5593, "RL": 20086, "RM": 11597, "RO": 8811, "ROM": 20003, "RON": 24859, "RP": 7969, "RR": 26232, "RS": 7407, "RT": 11674, "RU": 23913, "RUB": 21942, "RY": 20016, "Ra": 23261, "Ray": 29574, "Re": 4255, "Read": 26482, "Red": 25335, "Ro": 9568, "Robert": 30875, "S": 214, "SA": 4524, "SAR": 20617, "SC": 7269, "SCO": 22169, "SD": 8271, "SDI": 29906, "SE": 6216, "SEK": 23927, "SER": 22878, "SET": 29685, "SF": 18911, "SGD": 25833, "SH": 13193, "SI": 5507, "SION": 30189, "SK": 15569, "SL": 14095, "SM": 9815, "SO": 14151, "SON": 27317, "SP": 5868, "SQL": 28239, "SR": 15070, "SS": 7238, "SSC": 29959, "ST": 5941, "STA": 20405, "STAR": 23451, "SU": 16776, "Sa": 16981, "Safe": 21295, "Sc": 22523, "Script": 25168, "Sec": 23556, "Select": 31227, "Service": 30110, "Sha": 22346, "Shaft": 16149, "Shame": 28793, "Sharing": 20829, "She": 26973, "Shemale": 6376, "Shift": 23716, "Short": 23418, "Shrine": 16756, "Si": 17972, "Singapore": 29017, "So": 15479, "Soft": 25631, "South": 29021, "Sp": 16346, "St": 5263, "Stack": 27327, "Star": 18009, "Steve": 25154, "Str": 27980, "Strategy": 31006, "Stream": 27683, "Studio": 30214, "Su": 22108, "Super": 30779, "Supp": 27490, "Sync": 24606, "System": 30617, "T": 381, "TA": 6003, "TB": 11043, "TC": 9088, "TE": 10688, "TEC": 24518, "TECH": 27150, "TED": 29782, "TEL": 29921, "TER": 10698, "TEX": 28837, "TF": 12577, "TH": 8828, "THE": 27720, "TI": 8800, "TION": 22230, "TL": 13486, "TM": 3132, "TN": 20390, "TO": 5864, "TON": 29493, "TOP": 30579, "TOR": 22712, "TP": 7672, "TR": 12721, "TRA": 13791, "TRI": 30265, "TRO": 27639, "TRY": 23443, "TS": 5155, "TT": 9410, "TU": 16614, "TV": 5823, "TX": 15363, "TY": 18729, "TZ": 25151, "Talk": 30974, "Tech": 23219, "Th": 6576, "The": 1040, "There": 26984, "This": 11414, "Ti": 25614, "Time": 16958, "To": 7233, "Trade": 30710, "Trans": 25009, "Tube": 821, "Tuber": 5142, "Tumblr": 27117, "Type": 30433, "U": 1270, "UAH": 28347, "UB": 16690, "UC": 18114, "UE": 13463, "UI": 18863, "UK": 21644, "UL": 11335, "UM": 12125, "UN": 6756, "UP": 18479, "UR": 9833, "US": 4302, "USB": 25458, "USD": 13579, "UT": 13797, "UX": 27504, "Un": 17176, "United": 30874, "Universal": 26792, "University": 26047, "Up": 23557, "User": 31308, "V": 344, "VA": 10369, "VAC": 16409, "VC": 16022, "VDC": 23598, "VE": 16174, "VER": 15607, "VI": 10806, "VIEW": 29635, "VM": 22932, "VO": 18583, "VPN": 14658, "VR": 14160, "Vi": 16532, "View": 17979, "Virgin": 30313, "W": 364, "WA": 12595, "WEB": 21501, "WI": 25237, "WP": 23141, "WS": 17564, "We": 11792, "Web": 23662, "What": 13140, "When": 22099, "White": 17362, "Why": 28543, "Wi": 23243, "William": 31146, "Windows": 18582, "With": 24827, "Work": 24217, "World": 17645, "Write": 30994, "X": 722, "XL": 25342, "XT": 19439, "XVideos": 21820, "XX": 14764, "Y": 971, "YA": 26711, "You": 8598, "Z": 1477, "ZAR": 25532, "Zilla": 4554, "Zog": 22989, "[": 753, "[10]": 23147, "[11]": 19604, "[12]": 22509, "[13]": 27051, "[14]": 27461, "[15]": 27259, "[16]": 26623, "[17]": 27258, "[18]": 29612, "[19]": 28784, "[1]": 15160, "[24]": 30363, "[26]": 30248, "[2]": 18703, "[3]": 13067, "[4]": 16241, "[5]": 19216, "[6]": 21231, "[7]": 23609, "[8]": 26150, "[\u201c": 18827, "\\": 6685, "\\\\": 27617, "]": 202, "].\u201d": 18268, "].\u201d\u2014": 27223, "^": 14984, "^2": 27221, "^^": 5060, "_": 721, "____": 26821, "`": 6891, "a": 347, "aaS": 29983, "ab": 3894, "aba": 19802, "abb": 26061, "abi": 20699, "ability": 12616, "able": 3201, "ac": 3391, "aca": 25501, "acc": 18763, "ace": 9816, "ach": 5513, "ache": 17245, "aci": 24972, "ack": 12056, "act": 6481, "action": 16933, "active": 22371, "ad": 2818, "ada": 7544, "add": 18876, "ade": 9941, "adi": 14008, "admin": 22413, "ado": 11442, "ador": 26018, "ae": 13495, "af": 9558, "aff": 12469, "ag": 5618, "aga": 18058, "agan": 29567, "age": 3056, "ager": 23754, "agg": 26509, "aging": 22396, "ago": 21096, "agon": 23932, "ague": 30818, "ah": 3985, "ai": 4076, "ail": 9631, "ain": 11355, "air": 8183, "aire": 26901, "aj": 14178, "ak": 4111, "aka": 13000, "ake": 6513, "aker": 16369, "aki": 15075, "aku": 25095, "al": 678, "ala": 8803, "ald": 16477, "aldin": 1604, "ale": 7426, "ales": 20068, "ali": 10547, "alia": 24511, "ality": 19796, "alized": 30098, "all": 3897, "allow": 20217, "ally": 9836, "am": 2589, "ama": 6557, "ambo": 26989, "ame": 10175, "ami": 12852, "amine": 27002, "amo": 19682, "amp": 7759, "an": 1407, "ana": 4301, "anca": 31091, "ance": 4476, "ancy": 24413, "and": 2879, "anda": 14195, "ander": 14301, "andra": 28034, "ane": 9979, "ang": 3002, "anger": 18781, "ani": 11225, "ania": 27709, "ank": 9880, "ann": 17311, "anna": 14454, "anny": 27686, "ano": 8097, "ans": 8417, "ant": 3692, "anta": 19931, "ante": 22566, "ants": 19330, "any": 16844, "ao": 12206, "ap": 3031, "ape": 21016, "api": 27821, "app": 7451, "ar": 1290, "ara": 5712, "arch": 22685, "ard": 3309, "are": 8017, "ari": 8300, "aria": 22782, "ario": 26689, "ark": 13028, "arm": 16498, "arrow": 28822, "art": 6327, "article": 22897, "ary": 4983, "as": 2557, "asa": 24732, "ase": 6817, "ash": 5781, "ashi": 26462, "asi": 23787, "ask": 11820, "ass": 6734, "asse": 18594, "asso": 27353, "ast": 6024, "aster": 24149, "astic": 25181, "astro": 31121, "at": 1515, "ata": 9912, "atch": 11171, "ate": 2658, "ated": 6751, "ates": 15283, "ath": 6112, "ather": 10142, "ati": 10444, "atic": 27998, "ating": 9404, "ation": 1961, "ational": 25665, "ations": 12324, "ative": 8926, "ato": 14162, "ator": 6010, "ats": 16307, "att": 7088, "atter": 17278, "ature": 11944, "au": 3757, "audi": 20561, "aught": 23915, "ault": 19535, "av": 8054, "ava": 9765, "ave": 6383, "avi": 13440, "aw": 8511, "awa": 12178, "ax": 11790, "ay": 4234, "aya": 11927, "az": 5885, "azar": 29688, "b": 712, "ba": 4154, "bach": 30393, "back": 12774, "bad": 25644, "bag": 21445, "bai": 31069, "bal": 18144, "ball": 12241, "ban": 17953, "band": 26368, "bang": 21271, "bank": 22955, "bar": 8739, "base": 8647, "bat": 21092, "bb": 11933, "bc": 21224, "be": 3855, "bed": 15697, "bel": 11696, "bell": 25075, "ben": 25860, "ber": 4188, "berg": 11308, "berry": 20456, "bert": 16271, "bet": 19179, "bi": 8491, "bian": 27838, "bil": 14167, "bin": 11193, "bio": 19484, "bird": 19305, "bis": 21220, "bit": 5905, "biz": 31169, "bl": 7425, "ble": 11014, "block": 21842, "bo": 4967, "board": 14779, "body": 20658, "bol": 15304, "bon": 11286, "book": 11357, "boot": 29085, "bor": 14051, "born": 27542, "bot": 17301, "box": 10072, "boy": 15719, "br": 8063, "bra": 8757, "brand": 9984, "bre": 11865, "bri": 21303, "bridge": 24417, "bro": 19962, "bs": 13283, "bu": 8798, "bug": 27500, "build": 24263, "building": 29455, "bul": 25402, "burg": 11008, "burn": 26572, "bury": 22679, "bus": 13476, "but": 23778, "by": 7650, "c": 756, "ca": 3589, "cade": 25738, "cal": 6240, "cam": 12397, "can": 9874, "cap": 26233, "car": 10075, "card": 17071, "care": 17132, "cas": 15738, "cast": 14865, "cat": 14127, "cc": 8086, "cd": 18124, "ce": 3340, "cel": 19531, "cell": 15682, "cent": 9964, "center": 27758, "cept": 16910, "ception": 26257, "cer": 12304, "ces": 13720, "ch": 4180, "cha": 11576, "chain": 28415, "chan": 15276, "chang": 30996, "change": 27391, "char": 21841, "chat": 27481, "che": 8254, "chel": 27294, "chen": 17850, "cheng": 29291, "cher": 11274, "ches": 18945, "chi": 5502, "chie": 27628, "chin": 24525, "cho": 10000, "cht": 20952, "chu": 19782, "ci": 3733, "cia": 13336, "cial": 17101, "cid": 25918, "cient": 30182, "cin": 23264, "cing": 15905, "cio": 24106, "cious": 27194, "city": 16076, "ck": 8726, "cker": 15727, "cks": 13391, "cl": 7864, "clar": 29788, "cle": 12767, "clear": 26851, "client": 25373, "cloud": 27528, "club": 28479, "cm": 2689, "co": 1525, "code": 18965, "coin": 15065, "col": 21967, "color": 16815, "com": 359, "come": 14710, "complete": 30646, "con": 4785, "config": 30931, "connect": 20834, "content": 23995, "cor": 17963, "cord": 26159, "core": 19459, "cott": 23820, "count": 9702, "cover": 22820, "cr": 10874, "craft": 27252, "cro": 25316, "cross": 25302, "crypt": 24688, "cs": 16791, "ct": 8529, "ction": 9750, "ctor": 8665, "cu": 7245, "cular": 26274, "culture": 29837, "cur": 13971, "cus": 12877, "cut": 21090, "cy": 6515, "cycle": 25695, "cz": 29206, "d": 349, "dB": 13319, "da": 3882, "dal": 21798, "dale": 24840, "dam": 14643, "dan": 22112, "dar": 17901, "data": 25016, "date": 20754, "day": 6916, "days": 12188, "db": 21006, "dc": 15934, "dd": 15674, "de": 2235, "ded": 20394, "def": 28231, "defined": 29942, "del": 14960, "den": 6388, "dent": 15099, "dependent": 30247, "der": 4321, "ders": 21386, "des": 8014, "dev": 26734, "dex": 22646, "di": 4484, "dia": 10135, "dian": 24892, "dic": 17275, "die": 18234, "digit": 27995, "din": 20705, "ding": 7068, "dir": 26393, "direct": 26911, "dis": 18102, "displaystyle": 25064, "dle": 18901, "do": 3680, "doc": 25350, "dom": 11676, "don": 10981, "dong": 28202, "door": 21209, "dor": 22680, "dorf": 29087, "down": 21766, "dpi": 29770, "dra": 13960, "dri": 22971, "drive": 26020, "dro": 17031, "ds": 7192, "du": 10055, "duc": 14215, "duct": 27927, "dust": 20389, "dy": 5247, "e": 389, "ea": 7229, "each": 21299, "ean": 10315, "ear": 4805, "eas": 17424, "east": 24788, "eat": 7337, "eau": 13410, "eb": 10425, "ec": 6679, "ech": 19015, "eck": 14021, "ect": 12112, "ed": 443, "edge": 27849, "edit": 17629, "ee": 3615, "een": 17565, "eep": 21291, "ef": 8567, "eff": 29772, "eg": 5929, "ega": 24305, "ego": 26248, "eh": 19283, "ei": 7015, "eigh": 22215, "ek": 6039, "el": 1610, "ela": 15951, "ele": 10632, "eli": 16674, "ell": 5501, "ella": 9641, "elle": 13983, "eller": 25704, "elli": 21914, "ello": 12572, "els": 12130, "em": 3275, "ema": 17133, "email": 24941, "emb": 20720, "ember": 24407, "ement": 22840, "emi": 19720, "emia": 29448, "en": 960, "ena": 10773, "enberg": 29588, "ence": 4545, "ency": 15354, "end": 3981, "ender": 18048, "ending": 27289, "ene": 7658, "eng": 6791, "enna": 19812, "enne": 29395, "enny": 29381, "eno": 21118, "ens": 7343, "ense": 14553, "ensor": 25396, "ent": 2892, "ental": 25039, "ente": 28349, "enti": 17753, "eo": 7906, "eon": 20878, "ep": 7930, "ept": 23060, "er": 334, "era": 9249, "ere": 11857, "erge": 24169, "eri": 17470, "eria": 18096, "ering": 23600, "erman": 21133, "ern": 8464, "ero": 9904, "erry": 12040, "ers": 2056, "erson": 14652, "ert": 8477, "ery": 13847, "es": 1004, "ese": 16778, "esh": 25809, "ess": 7565, "esse": 26261, "est": 2846, "et": 1482, "etch": 28126, "ete": 17433, "eter": 19396, "eth": 13149, "ether": 31237, "ethyl": 27397, "ets": 11148, "ett": 14277, "etta": 23983, "ette": 14020, "etti": 30188, "etting": 20670, "eu": 11683, "eur": 21200, "ev": 7185, "eva": 20115, "even": 14959, "ever": 7385, "ew": 15629, "ex": 4472, "exe": 17657, "exec": 28144, "exp": 20624, "ey": 9842, "eye": 26167, "ez": 7583, "f": 809, "fa": 8578, "face": 18926, "fact": 23353, "fair": 24932, "fast": 23628, "fe": 10546, "fect": 19719, "feed": 28001, "feng": 29748, "fer": 9071, "ff": 12331, "ffer": 17012, "fi": 8196, "fiber": 29061, "field": 8935, "fil": 19153, "file": 15764, "fill": 29683, "fin": 14238, "fine": 24343, "firefox": 27445, "firm": 30482, "fish": 21358, "fit": 18006, "fix": 28246, "flex": 26895, "flow": 20001, "flowers": 29957, "flu": 20179, "fly": 25107, "fo": 7810, "fold": 28598, "food": 21610, "for": 12256, "force": 25897, "ford": 10682, "form": 8595, "format": 19996, "fort": 25034, "fr": 12328, "fra": 22336, "frame": 28545, "free": 23807, "friend": 17099, "front": 22972, "ft": 4483, "fu": 11121, "ful": 8532, "g": 639, "ga": 4591, "gal": 14552, "game": 26057, "gan": 11640, "gang": 29290, "gar": 7463, "gas": 21216, "gate": 14558, "gb": 28040, "ge": 3702, "gel": 15370, "gen": 6245, "generat": 25871, "gent": 12001, "ger": 8342, "ges": 16831, "get": 14361, "gg": 9791, "ggy": 25521, "gh": 12004, "gi": 6883, "gia": 28244, "gie": 26708, "gin": 12759, "gio": 22917, "girl": 26478, "glass": 30000, "gle": 19871, "gli": 26668, "global": 28463, "gmail": 30169, "gna": 22120, "go": 2872, "gon": 18966, "google": 29402, "gov": 27214, "gr": 14437, "gra": 13501, "grad": 29004, "grade": 28808, "gram": 14940, "graph": 20945, "graphic": 22345, "gree": 26077, "green": 27114, "gress": 29787, "gro": 27100, "ground": 21592, "group": 28344, "gs": 17349, "gsm": 11158, "gt": 25595, "gu": 6390, "gua": 22635, "guard": 30251, "gue": 16893, "gui": 25611, "gun": 25737, "gy": 12191, "h": 856, "ha": 3496, "hai": 18398, "hal": 21229, "hall": 19576, "ham": 5565, "han": 5855, "hang": 17811, "hao": 27331, "har": 13851, "hard": 25790, "harm": 29270, "haus": 26276, "he": 5260, "head": 17296, "health": 31235, "heim": 25927, "hel": 21803, "hen": 11228, "heng": 17483, "her": 14272, "hi": 4833, "high": 31234, "hill": 25720, "hin": 15784, "hir": 27188, "hl": 25653, "ho": 4938, "hoe": 26465, "hof": 26487, "hold": 23189, "hole": 23265, "home": 27076, "hon": 22836, "hong": 28327, "hoo": 30207, "hood": 29083, "hor": 16132, "horn": 24485, "host": 12862, "hot": 17388, "hotel": 16735, "hotels": 23347, "hou": 23005, "hour": 23329, "house": 11045, "how": 20360, "hp": 19367, "hr": 10266, "ht": 26903, "html": 19687, "http": 20894, "hu": 8677, "hua": 15317, "hub": 28418, "hui": 30090, "hun": 27604, "hy": 13524, "hydro": 25371, "hz": 16620, "i": 672, "ia": 1673, "ial": 6608, "ian": 3213, "iana": 22556, "iano": 19547, "ians": 24538, "iao": 22833, "ias": 22629, "ib": 6845, "ibility": 26188, "ible": 11077, "ibo": 30728, "ic": 1868, "ica": 6054, "ical": 6026, "ication": 23112, "ice": 4172, "ich": 9454, "ici": 25306, "ick": 3901, "ico": 14394, "icom": 26765, "icon": 21540, "ics": 9464, "id": 2100, "ida": 14158, "iddle": 30732, "ide": 5377, "iden": 23256, "idi": 28416, "ido": 19044, "ids": 25795, "ie": 2243, "ied": 24683, "iel": 20251, "ien": 11462, "ient": 15227, "ier": 7428, "ies": 4974, "iety": 30571, "if": 6854, "ife": 21379, "iff": 11358, "ific": 20250, "ification": 13197, "ified": 18559, "ifier": 29438, "ify": 14422, "ig": 3438, "iga": 19165, "ige": 29576, "iger": 27093, "ight": 5431, "ign": 7857, "ii": 13281, "ij": 18677, "ik": 7069, "ika": 15938, "ike": 11141, "iki": 17283, "il": 2245, "ila": 19078, "ile": 10264, "iles": 28121, "ili": 18710, "ill": 5264, "illa": 15455, "ille": 14343, "iller": 24167, "illi": 28536, "illion": 24358, "illo": 28440, "ily": 19089, "im": 3130, "ima": 14543, "ime": 19357, "immer": 30816, "imp": 14817, "in": 698, "ina": 3579, "inal": 17867, "inary": 21249, "ination": 20953, "inc": 21762, "inch": 12386, "ind": 8106, "inder": 19715, "ine": 1907, "ines": 16913, "info": 24441, "ing": 286, "inger": 14432, "ings": 9629, "ington": 14070, "ini": 8273, "ink": 10509, "inner": 23999, "ino": 5086, "ins": 8916, "insta": 17837, "int": 9803, "inter": 23488, "io": 3548, "ion": 2129, "ional": 23554, "ions": 11250, "ios": 20910, "ious": 16780, "ip": 4174, "ique": 14827, "ir": 3160, "ira": 9733, "ire": 8834, "iro": 14995, "iron": 27320, "is": 1333, "isa": 15441, "isco": 26168, "ise": 5760, "ish": 5741, "ished": 27515, "ism": 6386, "iso": 26501, "ison": 11866, "ist": 3311, "ista": 26260, "istance": 27475, "istic": 18853, "ists": 21929, "it": 1528, "ita": 6757, "itation": 25196, "itch": 16508, "ite": 4739, "ith": 12207, "iti": 17742, "ities": 12448, "ition": 7901, "itive": 24713, "ito": 20632, "its": 10543, "itt": 15612, "ity": 2718, "itz": 17932, "iu": 23226, "ium": 6948, "ius": 12057, "iv": 6387, "iva": 22357, "ival": 26003, "ive": 4129, "ivud": 16970, "ix": 6196, "iya": 18182, "iz": 7144, "ization": 9623, "ize": 9655, "ized": 15281, "izer": 22028, "izing": 29367, "izon": 31079, "izz": 23868, "j": 2847, "ja": 5792, "jack": 29992, "jan": 18833, "je": 12236, "ject": 18038, "jet": 28915, "ji": 11392, "jia": 30012, "jin": 28819, "jo": 10555, "job": 16250, "jp": 28038, "jpg": 25378, "js": 21308, "ju": 11847, "just": 29697, "k": 831, "kHz": 25964, "kW": 15149, "ka": 3839, "kan": 20094, "kar": 22504, "ke": 5067, "ken": 11803, "ker": 8047, "ket": 17297, "key": 13122, "kg": 3433, "kgs": 25339, "kh": 14468, "ki": 6638, "kill": 21628, "kin": 10583, "king": 7059, "kins": 25212, "kit": 23620, "km": 1079, "ko": 4423, "kon": 24335, "korea": 29491, "kov": 17975, "kr": 10165, "ks": 10896, "kt": 27518, "ku": 18785, "kw": 9412, "ky": 10650, "l": 1069, "la": 2183, "lab": 22148, "lack": 30383, "lad": 18598, "lake": 28834, "lam": 11936, "lan": 6461, "land": 3503, "lang": 29268, "lant": 29805, "lap": 29398, "lar": 13523, "las": 8484, "lash": 20393, "late": 9597, "lation": 14599, "lav": 17355, "law": 17877, "lay": 12231, "lb": 15627, "lc": 22940, "ld": 7807, "le": 1065, "lea": 18186, "lect": 17411, "led": 14509, "lement": 17982, "len": 10122, "lent": 25415, "ler": 5233, "les": 5324, "less": 6202, "let": 8159, "lev": 27403, "lex": 10764, "ley": 5119, "lf": 9237, "li": 2094, "lia": 11402, "lian": 26781, "lib": 23034, "lic": 7847, "lice": 27254, "lick": 27432, "lie": 11928, "lies": 24740, "life": 25122, "light": 9128, "lin": 4870, "line": 6507, "lines": 20755, "ling": 6450, "link": 11433, "lio": 22258, "lip": 10493, "lis": 14918, "lish": 24260, "list": 19150, "lit": 12282, "lite": 23990, "live": 16892, "liver": 29279, "lk": 11500, "ll": 3979, "llactionhost": 12058, "lle": 19880, "lli": 21246, "llow": 19060, "lly": 16445, "lm": 10177, "lo": 1926, "load": 12850, "location": 23374, "lock": 11995, "log": 7719, "logger": 26147, "logic": 30100, "lon": 9876, "lone": 26506, "long": 18885, "lor": 10322, "los": 15331, "loss": 24404, "lot": 11446, "love": 27306, "low": 7939, "loy": 17666, "lp": 21850, "ls": 9323, "lt": 9113, "lu": 4652, "lum": 17477, "lux": 21865, "lves": 27688, "ly": 1097, "lysis": 30375, "m": 237, "mA": 12589, "mAh": 15759, "ma": 3144, "mac": 25915, "mad": 28909, "made": 28916, "mag": 14915, "magic": 30823, "mail": 11076, "main": 10038, "mal": 12349, "man": 1904, "mann": 20129, "map": 18615, "mar": 9452, "mark": 10053, "mart": 17912, "mas": 15440, "master": 19602, "mat": 15816, "mate": 18818, "material": 31107, "matic": 21700, "max": 15222, "mb": 8206, "mble": 23145, "me": 3613, "med": 14634, "media": 16073, "mel": 22612, "men": 9209, "ment": 2682, "ments": 13315, "menu": 30157, "mer": 6184, "mes": 14107, "met": 15118, "meter": 18454, "methyl": 26886, "metric": 30102, "mg": 7875, "mi": 6007, "mic": 12066, "mid": 23580, "mil": 16556, "mile": 28039, "min": 3714, "ming": 9206, "mini": 24593, "mir": 28774, "mission": 18820, "mit": 9573, "mix": 28353, "ml": 5648, "mm": 326, "mo": 3150, "mobile": 26700, "mod": 20833, "model": 22548, "mol": 27635, "mon": 6172, "mond": 17804, "mont": 17020, "month": 24886, "mor": 13323, "more": 16486, "mos": 22263, "motion": 26039, "mount": 23664, "mouth": 23299, "mp": 4085, "mph": 21396, "ms": 5303, "mu": 21097, "multi": 24876, "mun": 17191, "mus": 20642, "my": 7728, "n": 482, "na": 2352, "nak": 28084, "nal": 16252, "nam": 25621, "name": 6514, "nan": 22643, "nb": 18383, "nc": 10061, "nch": 10463, "nd": 5340, "ne": 2371, "nel": 12425, "nell": 27924, "ner": 4127, "nes": 9068, "ness": 5797, "net": 3776, "new": 24027, "news": 28346, "ney": 8587, "ng": 9173, "ni": 4635, "nia": 22505, "nic": 13053, "nie": 19817, "night": 12238, "nik": 25189, "ning": 6084, "nis": 16147, "nit": 18877, "nm": 6027, "nn": 10983, "no": 3195, "non": 18928, "nor": 16367, "not": 25590, "note": 25296, "nov": 19867, "now": 20439, "ns": 9125, "nt": 7764, "nu": 10216, "num": 21769, "ny": 6760, "nz": 21124, "o": 510, "ob": 10588, "obi": 25926, "obo": 26845, "oc": 5654, "oca": 21992, "och": 16971, "ock": 9777, "od": 6602, "oda": 26266, "ode": 10795, "odi": 23096, "odo": 24581, "oe": 17495, "of": 8617, "off": 12819, "og": 8743, "ography": 29183, "ogue": 30898, "oh": 9372, "oi": 14718, "oid": 21401, "oil": 24820, "oji": 28205, "ok": 6171, "oke": 17002, "oku": 30568, "ol": 2202, "ola": 9789, "old": 6800, "ole": 10878, "oli": 12844, "olic": 29803, "oll": 20208, "olla": 30647, "olly": 27745, "olo": 10203, "ological": 20879, "ology": 11127, "olone": 19667, "om": 3417, "oma": 14874, "omb": 19014, "ome": 11353, "omi": 24438, "omo": 19857, "on": 924, "ona": 10637, "once": 30093, "onda": 27365, "one": 2737, "ong": 3308, "oni": 19926, "onia": 20950, "onic": 16362, "onna": 24241, "onne": 31163, "ons": 8410, "ony": 11566, "oo": 6433, "ood": 16074, "ook": 17065, "ool": 13834, "oon": 17562, "oop": 24922, "op": 4102, "ope": 15187, "opera": 30104, "opp": 21564, "opt": 26430, "option": 17750, "or": 1018, "ora": 11037, "ord": 10564, "order": 27531, "ore": 6876, "org": 5234, "organ": 22221, "ori": 15992, "oria": 27643, "orn": 18142, "oro": 21866, "ors": 10535, "ory": 7886, "os": 2305, "osa": 19794, "ose": 12296, "oshi": 29190, "osis": 27844, "ost": 7892, "ot": 3631, "ota": 23599, "ote": 14222, "oth": 11542, "other": 26856, "oto": 15603, "ots": 24315, "ott": 18497, "otto": 28824, "ou": 4918, "ough": 19124, "ought": 26776, "oul": 17416, "ound": 9050, "our": 5106, "ours": 24747, "ous": 5714, "out": 6531, "ov": 6761, "ova": 10271, "ove": 18810, "over": 10659, "ovo": 30541, "ow": 4961, "own": 14671, "ox": 12645, "oxi": 29499, "oxy": 18171, "oy": 10323, "oz": 6119, "p": 850, "pa": 4888, "pack": 18338, "pad": 24783, "page": 29073, "pair": 30191, "pal": 16201, "pan": 15303, "panel": 25724, "paper": 25870, "par": 15217, "parent": 28732, "park": 15512, "part": 15511, "pass": 29786, "pat": 19167, "path": 19436, "pay": 29605, "pc": 13113, "pcs": 6781, "pdf": 25372, "pe": 5158, "peak": 29479, "ped": 20737, "pen": 12918, "per": 3286, "pes": 25252, "pet": 22929, "ph": 5228, "pha": 14578, "phe": 26207, "phen": 24223, "phi": 20751, "phone": 15020, "photo": 20092, "phy": 20595, "pi": 7180, "pic": 12489, "piece": 29840, "pin": 12254, "pine": 30471, "ping": 12213, "pl": 8469, "place": 17521, "plan": 23938, "play": 17888, "ple": 9582, "plex": 29564, "plus": 21601, "pm": 13616, "po": 5644, "point": 18128, "pol": 20723, "poli": 19287, "polis": 23540, "poly": 29995, "pool": 30289, "pop": 25148, "porn": 21614, "pornia": 13297, "port": 3635, "pos": 11258, "position": 23494, "post": 28978, "pot": 12171, "power": 30562, "pp": 9290, "ppm": 26842, "pr": 10823, "pre": 13671, "present": 25164, "press": 10599, "print": 16469, "prise": 28338, "privacy": 30115, "pro": 9367, "product": 29917, "proof": 29767, "prop": 24230, "ps": 4858, "psi": 23968, "pt": 11314, "ption": 29993, "pu": 13158, "public": 22960, "pur": 20614, "put": 10702, "py": 9095, "q": 5798, "qu": 6418, "qua": 16274, "qual": 24003, "que": 5148, "qui": 5683, "quot": 28527, "r": 833, "ra": 2148, "rab": 25650, "rac": 15268, "race": 18449, "rack": 17037, "rad": 14832, "radio": 30401, "rag": 23825, "rage": 28896, "rah": 27623, "rai": 28218, "rail": 23263, "rain": 14285, "ral": 9485, "ram": 12701, "ran": 6083, "rance": 23687, "range": 19462, "rant": 16943, "rap": 15191, "ras": 12068, "rat": 16734, "rate": 13437, "ration": 8819, "raw": 16188, "ray": 6683, "raz": 18308, "rc": 13941, "rch": 20038, "rd": 13382, "re": 1140, "rea": 9194, "read": 16354, "real": 13187, "red": 5733, "ree": 16114, "reference": 27137, "reg": 13827, "rel": 17397, "ren": 7517, "rent": 14323, "res": 6091, "resh": 23917, "ress": 12210, "rest": 15050, "ret": 19798, "rew": 20101, "rey": 14632, "ri": 1789, "ria": 10062, "rian": 13946, "ric": 9021, "rich": 18589, "rick": 17642, "rid": 12747, "ride": 20466, "ridge": 29374, "rie": 15622, "ried": 24269, "ries": 9804, "rig": 26264, "right": 11959, "rill": 17782, "rim": 16329, "rin": 9675, "ring": 10022, "rio": 18576, "rip": 25622, "ris": 6841, "rise": 30722, "rist": 13549, "rit": 9390, "riv": 18799, "rk": 14852, "rl": 18989, "rm": 15908, "rma": 22386, "rn": 15917, "ro": 2153, "road": 16349, "rock": 27186, "rod": 25764, "roid": 18844, "roll": 18670, "roma": 30310, "rome": 28397, "ron": 5115, "room": 17190, "root": 28629, "ros": 13821, "rose": 28542, "ross": 29614, "rou": 21637, "rough": 27298, "round": 18843, "rov": 19574, "row": 7018, "rp": 25862, "rpm": 22538, "rr": 13473, "rs": 8340, "rt": 11412, "ru": 4407, "rue": 29463, "rum": 16084, "run": 25608, "rus": 10816, "rush": 28052, "rv": 27428, "ry": 2383, "r\u00e9": 29301, "s": 49, "sa": 4658, "safe": 25492, "san": 11714, "sc": 8540, "scale": 30086, "scan": 24600, "scape": 20478, "scar": 27630, "sch": 9854, "sche": 22910, "science": 27138, "scope": 29644, "screen": 30347, "script": 21356, "se": 2339, "search": 13030, "sec": 19426, "security": 25469, "sel": 20587, "self": 12249, "sen": 8724, "ser": 8524, "serv": 12670, "serve": 19176, "ses": 11556, "set": 10450, "sex": 22445, "sey": 22798, "sh": 4684, "sha": 12215, "shan": 19268, "share": 25766, "shi": 10937, "shine": 30583, "ship": 9812, "shire": 25176, "shop": 19191, "short": 22979, "si": 4649, "sia": 15918, "side": 7502, "sight": 21565, "sil": 16171, "sim": 20455, "sing": 10902, "sion": 6350, "sis": 13057, "sk": 8163, "ska": 13859, "skaya": 16648, "ski": 11189, "skiy": 30466, "sko": 26993, "sky": 10029, "sl": 15038, "so": 8178, "social": 30724, "soft": 17074, "sol": 10817, "sole": 24132, "some": 23310, "son": 2462, "sort": 27168, "source": 26479, "sp": 6977, "space": 14981, "span": 22724, "spec": 11261, "spi": 13639, "sq": 27072, "sqm": 28593, "ss": 5011, "ssa": 15269, "sson": 21901, "st": 2264, "sta": 10619, "stan": 11144, "star": 10017, "start": 30395, "stat": 25045, "state": 29494, "stay": 20359, "ste": 9133, "stead": 30002, "stein": 21132, "ster": 3624, "stitut": 29286, "sto": 14097, "stock": 22137, "ston": 17746, "stone": 17255, "store": 16525, "str": 11429, "stra": 14597, "strasse": 27670, "stream": 26519, "street": 30527, "stro": 18130, "strong": 17466, "stru": 17913, "struction": 27143, "sty": 19675, "style": 21041, "su": 10337, "sub": 22555, "sum": 22477, "sure": 17772, "sy": 8776, "sync": 29369, "sys": 19889, "system": 29386, "t": 370, "ta": 1952, "table": 21168, "tag": 20852, "tai": 24582, "tail": 17686, "tain": 10455, "tal": 5687, "tan": 7548, "tar": 13967, "tch": 26198, "te": 2424, "tec": 16908, "tech": 10160, "ted": 7537, "tek": 26143, "tel": 9370, "ten": 6907, "tent": 19084, "ter": 2313, "term": 19001, "tern": 14726, "ters": 15284, "tes": 9935, "test": 17287, "tex": 22483, "text": 18505, "th": 1129, "tha": 17136, "the": 4230, "ther": 9735, "thing": 10045, "thy": 22935, "ti": 3012, "tic": 5544, "tica": 28343, "tics": 15152, "ties": 17166, "til": 22478, "tim": 21348, "time": 11272, "tin": 7048, "tina": 22845, "ting": 4751, "tion": 9122, "tional": 30372, "tip": 28407, "tis": 11969, "tive": 18586, "tivity": 23104, "tle": 10491, "to": 1607, "tom": 17467, "ton": 2272, "tool": 21230, "top": 11694, "tor": 5462, "tory": 16054, "town": 13961, "tr": 11201, "tra": 5879, "tract": 18345, "train": 22689, "trans": 28683, "travel": 30631, "tre": 11156, "tree": 20051, "tri": 10385, "tribute": 29617, "tric": 23223, "trip": 23742, "tro": 7307, "trol": 29486, "tron": 23490, "trust": 29759, "try": 11096, "ts": 5209, "tsu": 23792, "tte": 22621, "tten": 25298, "tti": 26567, "tty": 21365, "tu": 7937, "tube": 14017, "tur": 12265, "ture": 10651, "tus": 14322, "tv": 14358, "tw": 21411, "twitter": 30335, "txt": 31277, "ty": 2918, "type": 26909, "tz": 10680, "u": 1313, "ua": 21372, "ual": 7460, "uan": 17026, "uang": 18774, "ub": 4733, "uba": 24909, "ube": 28010, "uc": 13551, "ucci": 30723, "uch": 12549, "uck": 7111, "uction": 27231, "ud": 5169, "uda": 21001, "udd": 27301, "ude": 17744, "ue": 5974, "uel": 18370, "uf": 27215, "uff": 14445, "ug": 5724, "uge": 19587, "ugg": 25461, "uh": 27054, "ui": 12808, "uit": 12865, "uk": 8355, "uki": 29482, "ul": 2601, "ula": 10521, "ular": 17461, "ulation": 18036, "uld": 17452, "ule": 11926, "ull": 11726, "ult": 10903, "ulu": 29088, "um": 1886, "uma": 24029, "umi": 25992, "ummer": 30733, "un": 2154, "una": 14194, "und": 7641, "under": 23049, "une": 16797, "ung": 5881, "uni": 15129, "unk": 17305, "unny": 22474, "unt": 11493, "uo": 20928, "up": 3678, "upon": 25219, "ur": 2053, "ura": 7856, "ural": 26242, "ure": 4758, "urg": 22615, "uri": 14249, "uring": 25957, "url": 17389, "uro": 14380, "urs": 17360, "urt": 21044, "ury": 22019, "us": 1367, "use": 9504, "user": 24236, "ush": 10199, "ust": 10667, "ut": 2573, "ute": 9770, "uth": 17457, "ution": 15894, "utter": 26017, "uv": 21040, "uz": 17211, "uzz": 21460, "v": 1046, "va": 5124, "val": 10004, "value": 29807, "van": 8940, "var": 11997, "vari": 30099, "ve": 2517, "vel": 14503, "ven": 7096, "vent": 10931, "ver": 4414, "vers": 16557, "verse": 20271, "version": 25857, "vert": 22888, "vest": 19845, "vi": 5515, "via": 16947, "vic": 25827, "vice": 31130, "vid": 11629, "vie": 27012, "view": 10745, "vil": 16575, "villa": 29800, "ville": 10719, "vin": 10915, "ving": 8808, "vir": 25442, "virus": 28498, "vis": 9339, "vision": 18273, "vo": 6056, "vol": 14973, "volution": 25874, "vor": 23290, "vr": 26739, "vy": 21645, "w": 970, "wa": 7346, "wall": 15824, "wan": 18984, "war": 18553, "ward": 10196, "ware": 9688, "watch": 16824, "water": 26066, "wave": 30962, "way": 4424, "we": 6888, "wear": 29749, "web": 27610, "wei": 27823, "wel": 25144, "well": 9758, "wen": 25962, "wer": 17186, "where": 25526, "white": 25266, "wi": 9684, "wick": 26507, "wide": 27311, "win": 10384, "wind": 28233, "wing": 25031, "wire": 23191, "witcasting": 29029, "witch": 28322, "with": 26116, "wood": 9241, "wor": 27728, "word": 11561, "work": 16180, "works": 25941, "world": 28241, "worth": 26216, "write": 24454, "ws": 19974, "www": 7397, "x": 465, "xi": 11956, "xml": 30010, "xx": 19652, "xxx": 25632, "y": 356, "ySex": 6231, "ya": 6207, "yan": 12641, "yang": 30205, "ye": 8679, "yer": 12687, "yi": 25601, "yl": 8120, "yn": 8992, "yne": 25642, "yo": 7761, "you": 23856, "yp": 20727, "yr": 17116, "ys": 8825, "yu": 15292, "yuan": 25030, "yun": 28888, "z": 1697, "za": 5050, "ze": 8650, "zen": 21786, "zer": 15706, "zh": 19083, "zhou": 19088, "zi": 11046, "zie": 29681, "zip": 24816, "zo": 11455, "zone": 29255, "zu": 21923, "zy": 14409, "zz": 10684, "{": 10826, "{0}": 27482, "|": 11254, "}": 5735, "}}": 14531, "~": 669, "~!": 10834, "~10": 19548, "~15": 27009, "~19": 23634, "~20": 21804, "~30": 27159, "~4": 16121, "~5": 18179, "~6": 24166, "~7": 23893, "~8": 21117, "~9": 22283, "~^^": 30486, "~~": 10185, "~~~": 28183, "\u00a2": 31726, "\u00a3": 28341, "\u00a5": 29121, "\u00a7": 25053, "\u00a9": 31437, "\u00ab": 31436, "\u00ad": 31383, "\u00ae": 1645, "\u00b0": 4505, "\u00b1": 24380, "\u00b10.": 29358, "\u00b6": 31601, "\u00b7": 1648, "\u00b7\u00b7\u00b7": 23285, "\u00bb": 10367, "\u00c9": 31451, "\u00d7": 5166, "\u00d8": 26783, "\u00dc": 31774, "\u00df": 31627, "\u00e0": 25774, "\u00e1": 13238, "\u00e1n": 30901, "\u00e2": 28940, "\u00e3": 31658, "\u00e4": 21815, "\u00e5": 31581, "\u00e7": 22850, "\u00e8": 20417, "\u00e9": 4550, "\u00ea": 31676, "\u00eb": 30831, "\u00ed": 15872, "\u00f1": 25470, "\u00f3": 18386, "\u00f3n": 27620, "\u00f4": 27869, "\u00f6": 12086, "\u00f8": 31175, "\u00fa": 26296, "\u00fc": 16709, "\u00fcr": 27648, "\u0101": 28551, "\u010d": 31593, "\u0131": 31526, "\u0161": 31420, "\u0301": 31461, "\u030b": 31938, "\u03a6": 31836, "\u03a9": 20904, "\u03b1": 24947, "\u03b2": 31382, "\u03b9": 31691, "\u03bb": 31523, "\u03bc": 13019, "\u03bd": 31692, "\u03bf": 31559, "\u03c0": 31612, "\u03c6": 29530, "\u0410": 31637, "\u041e": 31525, "\u0420": 31672, "\u0421": 31718, "\u0422": 31569, "\u0430": 18473, "\u0432": 31370, "\u0434": 31490, "\u0435": 21569, "\u0438": 18474, "\u0439": 31708, "\u043a": 28841, "\u043b": 28645, "\u043c": 30667, "\u043d": 27333, "\u043e": 20328, "\u043f": 31683, "\u0440": 25360, "\u0441": 23156, "\u0442": 25968, "\u0443": 31499, "\u044f": 31446, "\u05d5": 19515, "\u05d9": 31716, "\u05dc": 31886, "\u05dc\u05d5\u05e0": 21984, "\u05de": 31890, "\u05e0": 31897, "\u05ea": 20738, "\u0627": 29220, "\u0631": 31608, "\u0644": 31439, "\u0645": 31547, "\u0646": 31744, "\u0648": 31711, "\u064a": 31639, "\u0e3f": 31734, "\u1100": 6237, "\u1102": 5023, "\u1103": 22962, "\u1105": 26180, "\u1106": 31096, "\u1107": 28646, "\u1109": 22851, "\u110b": 16934, "\u110c": 31430, "\u110f": 21311, "\u110f\u110f": 17474, "\u110f\u110f\u110f": 28128, "\u110f\u110f\u110f\u110f\u110f": 27986, "\u1111": 31719, "\u1112": 18607, "\u1112\u1112": 15032, "\u1112\u1112\u1112": 26982, "\u1161": 31698, "\u1162": 31498, "\u1165": 31596, "\u116e": 14668, "\u1172": 20637, "\u1172\u1172": 19890, "\u1172\u1172\u1172\u1172": 29110, "\u1173": 22822, "\u1173\u1173": 23865, "\u1175": 21075, "\u119e": 13240, "\u2010": 30336, "\u2013": 3403, "\u2014": 980, "\u2015": 10056, "\u2018": 2552, "\u2019": 76, "\u2019(": 7842, "\u201a": 31898, "\u201c": 3179, "\u201d": 81, "\u201d(": 4005, "\u201e": 28852, "\u2020": 31582, "\u2022": 15454, "\u2027": 31410, "\u2032": 31458, "\u2032\u2032": 20486, "\u2039": 31527, "\u203a": 31435, "\u203b": 29913, "\u2044": 31522, "\u2060": 17087, "\u20a9": 31824, "\u20ac": 26756, "\u2190": 31867, "\u2191": 31846, "\u2192": 19736, "\u2194": 31617, "\u21d2": 31402, "\u2212": 28941, "\u2219": 25563, "\u221a": 31560, "\u223c": 23157, "\u2264": 31381, "\u2265": 31669, "\u226a": 31561, "\u226b": 31428, "\u2299": 31684, "\u22c5": 31651, "\u2500": 10622, "\u2502": 31583, "\u2581": 6, "\u2581!!": 13646, "\u2581\"": 46, "\u2581#": 705, "\u2581#1": 9421, "\u2581#2": 20407, "\u2581$": 982, "\u2581$1": 10653, "\u2581$100": 29507, "\u2581$2": 17851, "\u2581$30.00": 24656, "\u2581%": 652, "\u2581%1$": 24866, "\u2581&": 313, "\u2581'": 174, "\u2581'%": 20469, "\u2581(": 21, "\u2581(0": 20828, "\u2581(0)": 13873, "\u2581(1": 4115, "\u2581(1)": 3107, "\u2581(10": 5591, "\u2581(10)": 18983, "\u2581(100": 23710, "\u2581(11": 7328, "\u2581(11)": 22823, "\u2581(12": 7805, "\u2581(12)": 22821, "\u2581(13": 7721, "\u2581(14": 8831, "\u2581(15": 6910, "\u2581(16": 8707, "\u2581(17": 8504, "\u2581(18": 6547, "\u2581(18+)": 1241, "\u2581(18+)13": 26675, "\u2581(19": 2626, "\u2581(2": 2877, "\u2581(2)": 3990, "\u2581(20": 6744, "\u2581(200": 10439, "\u2581(24": 12831, "\u2581(25": 14113, "\u2581(27": 17485, "\u2581(3": 5361, "\u2581(3)": 6233, "\u2581(30": 13560, "\u2581(32": 18027, "\u2581(33": 21695, "\u2581(35": 19573, "\u2581(36": 23936, "\u2581(4": 5205, "\u2581(4)": 7831, "\u2581(40": 21587, "\u2581(45": 23906, "\u2581(48": 22903, "\u2581(5": 4599, "\u2581(5)": 11021, "\u2581(6": 6532, "\u2581(6)": 12647, "\u2581(60": 23739, "\u2581(7": 8486, "\u2581(7)": 16124, "\u2581(8": 8818, "\u2581(8)": 15452, "\u2581(9": 12230, "\u2581(9)": 18540, "\u2581)": 305, "\u2581*": 706, "\u2581**": 11806, "\u2581***": 13472, "\u2581****": 15141, "\u2581*****": 24320, "\u2581+": 820, "\u2581+1": 20323, "\u2581+82": 29082, "\u2581+86": 19770, "\u2581,": 29, "\u2581-": 40, "\u2581--": 3850, "\u2581---": 17242, "\u2581-1": 19708, "\u2581->": 13817, "\u2581...": 303, "\u2581......": 21217, "\u2581/": 166, "\u2581//": 16104, "\u25810": 742, "\u25810%": 21611, "\u25810.00": 20710, "\u25810.01": 21083, "\u25810.02": 30801, "\u25810.05": 25647, "\u25810.1": 5769, "\u25810.2": 7143, "\u25810.25": 29584, "\u25810.3": 6929, "\u25810.4": 9936, "\u25810.5": 5408, "\u25810.6": 9608, "\u25810.7": 11089, "\u25810.8": 10996, "\u25810.9": 11290, "\u258100": 3102, "\u2581000": 9853, "\u258101": 1537, "\u258102": 1538, "\u258102:00": 24395, "\u258103": 1818, "\u258103:0": 23815, "\u258103:00": 19929, "\u258104": 2144, "\u258104:0": 29603, "\u258104:00": 20758, "\u258104:26": 26719, "\u258104:5": 17280, "\u258104:58": 28296, "\u258105": 1693, "\u258105:00": 4259, "\u258105:02": 27687, "\u258105:03": 30369, "\u258105:05": 30159, "\u258105:08": 29247, "\u258105:09": 29343, "\u258105:10": 25599, "\u258105:17": 30271, "\u258105:29": 30707, "\u258105:3": 28035, "\u258105:30": 21428, "\u258105:4": 22933, "\u258105:5": 16320, "\u258105:58": 31157, "\u258106": 1638, "\u258106:0": 17573, "\u258106:00": 8036, "\u258106:01": 27706, "\u258106:09": 30165, "\u258106:15": 11344, "\u258106:30": 27594, "\u258106:4": 28340, "\u258106:5": 15087, "\u258107": 1636, "\u258107:00": 5948, "\u258107:30": 12673, "\u258107:5": 15795, "\u258107:50": 30792, "\u258107:59": 19537, "\u258108": 2085, "\u258108:0": 5958, "\u258108:00": 2661, "\u258108:30": 23291, "\u258108:5": 28872, "\u258109": 2449, "\u258109:00": 18606, "\u25811": 38, "\u25811%": 16865, "\u25811)": 5552, "\u25811,000": 7436, "\u25811,200": 26581, "\u25811,500": 22147, "\u25811-2": 22681, "\u25811.0": 8894, "\u25811.1": 9669, "\u25811.2": 8033, "\u25811.25": 29379, "\u25811.3": 12137, "\u25811.4": 12565, "\u25811.5": 5406, "\u25811.6": 8290, "\u25811.7": 12692, "\u25811.8": 10086, "\u25811.9": 14353, "\u25811/2": 11516, "\u25811/3": 17312, "\u25811/4": 15892, "\u258110": 98, "\u258110%": 6825, "\u258110,000": 12281, "\u258110.1": 25330, "\u2581100": 601, "\u2581100%": 2651, "\u2581100,000": 20480, "\u25811000": 3168, "\u258110000": 21459, "\u2581101": 10661, "\u2581102": 15960, "\u2581103": 18634, "\u2581104": 16263, "\u2581105": 13445, "\u25811050": 24899, "\u2581106": 19180, "\u2581107": 17649, "\u2581108": 17922, "\u25811080": 13007, "\u2581109": 20194, "\u258110:00": 4773, "\u258110:10": 18157, "\u258111": 231, "\u2581110": 6252, "\u25811100": 18262, "\u2581111": 21128, "\u2581112": 17256, "\u2581113": 22070, "\u2581114": 22011, "\u2581115": 12973, "\u2581116": 21084, "\u2581118": 19582, "\u2581119": 16144, "\u2581119:1": 30726, "\u258111:00": 18888, "\u258111:1": 24059, "\u258111:3": 30185, "\u258112": 197, "\u2581120": 3786, "\u25811200": 9580, "\u2581121": 23735, "\u2581123": 17561, "\u2581125": 10364, "\u25811250": 26964, "\u2581126": 20305, "\u2581127": 19226, "\u2581128": 10969, "\u258112:00": 10301, "\u258112:1": 18210, "\u258112:3": 29107, "\u258113": 453, "\u2581130": 8911, "\u25811300": 19450, "\u2581132": 24090, "\u2581133": 23181, "\u2581135": 15673, "\u2581136": 22025, "\u2581137": 23526, "\u2581138": 21100, "\u2581139": 21319, "\u258113:00": 29104, "\u258113:1": 20967, "\u258114": 426, "\u2581140": 8965, "\u25811400": 22059, "\u2581144": 17983, "\u2581145": 17826, "\u258114:00": 25436, "\u258114:1": 22846, "\u258115": 248, "\u258115%": 16290, "\u258115,000": 26618, "\u2581150": 3241, "\u25811500": 9952, "\u2581155": 23832, "\u258115:00": 25963, "\u258115:1": 25098, "\u258115:3": 30656, "\u258116": 390, "\u2581160": 8177, "\u25811600": 17142, "\u2581165": 21699, "\u2581168": 23216, "\u258117": 471, "\u2581170": 12150, "\u25811700": 26620, "\u2581175": 19814, "\u2581176": 23919, "\u258117:3": 26912, "\u258118": 263, "\u2581180": 6206, "\u25811800": 14833, "\u25811880": 29093, "\u258118:00": 25456, "\u258119": 507, "\u2581190": 14269, "\u25811900": 15104, "\u25811901": 28509, "\u25811903": 30106, "\u25811905": 27740, "\u25811906": 27395, "\u25811908": 30091, "\u25811914": 12791, "\u25811917": 23506, "\u25811918": 20355, "\u25811919": 19143, "\u25811920": 12115, "\u25811922": 28017, "\u25811923": 27539, "\u25811926": 28710, "\u25811927": 29376, "\u25811928": 26963, "\u25811929": 25214, "\u25811930": 13546, "\u25811931": 24716, "\u25811932": 28019, "\u25811933": 23119, "\u25811934": 27516, "\u25811935": 23425, "\u25811936": 25013, "\u25811937": 26731, "\u25811938": 25743, "\u25811939": 18326, "\u25811940": 13640, "\u25811941": 19555, "\u25811942": 21027, "\u25811943": 23415, "\u25811944": 22218, "\u25811945": 11767, "\u25811946": 23114, "\u25811947": 21195, "\u25811948": 20775, "\u25811949": 22113, "\u25811950": 8931, "\u25811951": 25202, "\u25811952": 23988, "\u25811953": 21693, "\u25811954": 25735, "\u25811955": 21355, "\u25811956": 22814, "\u25811957": 22354, "\u25811958": 20183, "\u25811959": 23412, "\u25811960": 7788, "\u25811961": 19411, "\u25811962": 20278, "\u25811963": 17567, "\u25811964": 18443, "\u25811965": 19266, "\u25811966": 21453, "\u25811967": 19955, "\u25811968": 16106, "\u25811969": 14118, "\u25811970": 7662, "\u25811971": 15468, "\u25811972": 12953, "\u25811973": 13933, "\u25811974": 16842, "\u25811975": 15704, "\u25811976": 14854, "\u25811977": 17194, "\u25811978": 15843, "\u25811979": 14775, "\u25811980": 6982, "\u25811981": 15949, "\u25811982": 15364, "\u25811983": 14460, "\u25811984": 12887, "\u25811985": 12635, "\u25811986": 12537, "\u25811987": 12600, "\u25811988": 11625, "\u25811989": 9217, "\u25811990": 5729, "\u25811991": 8615, "\u25811992": 8977, "\u25811993": 9793, "\u25811994": 8964, "\u25811995": 8400, "\u25811996": 8293, "\u25811997": 8455, "\u25811998": 6838, "\u25811999": 7140, "\u25811:1": 10923, "\u25811:2": 27003, "\u25811:3": 28336, "\u25811:9": 29474, "\u25811~2": 30287, "\u25812": 48, "\u25812)": 5433, "\u25812*": 19265, "\u25812,000": 12459, "\u25812,500": 26522, "\u25812-3": 18202, "\u25812.0": 6293, "\u25812.1": 11386, "\u25812.2": 12152, "\u25812.3": 14982, "\u25812.4": 10499, "\u25812.5": 6055, "\u25812.6": 15665, "\u25812.7": 20836, "\u25812.8": 16368, "\u25812.9": 19933, "\u25812/3": 21140, "\u258120": 234, "\u258120%": 7902, "\u258120,000": 20725, "\u2581200": 1741, "\u25812000": 2562, "\u25812001": 6153, "\u25812002": 5577, "\u25812003": 4292, "\u25812004": 4566, "\u25812005": 3649, "\u25812006": 3470, "\u25812007": 2602, "\u25812007-11-": 25791, "\u25812008": 2178, "\u25812009": 2253, "\u2581201": 21554, "\u25812010": 1782, "\u25812011": 1837, "\u25812012": 1729, "\u25812013": 1836, "\u25812014": 1601, "\u25812015": 1308, "\u25812015-05-0": 17499, "\u25812016": 1195, "\u25812017": 1029, "\u25812018": 829, "\u25812019": 954, "\u25812020": 2822, "\u25812030": 21449, "\u258120:00": 25677, "\u258121": 736, "\u2581210": 18257, "\u258121:1": 27479, "\u258121:3": 27526, "\u258122": 766, "\u2581220": 7293, "\u258122:16": 22530, "\u258123": 916, "\u2581230": 16178, "\u258124": 436, "\u258124/7": 21325, "\u2581240": 11869, "\u258124:14": 22017, "\u258124:3": 26358, "\u258125": 592, "\u258125%": 14034, "\u2581250": 4417, "\u25812500": 17652, "\u2581256": 17294, "\u258126": 1141, "\u2581260": 21013, "\u258127": 1205, "\u2581270": 22024, "\u258128": 1115, "\u2581280": 21478, "\u258129": 1430, "\u25812:1": 13751, "\u25812:2": 26062, "\u25812:3": 25676, "\u25812~3": 27544, "\u25813": 53, "\u25813%": 23331, "\u25813)": 7965, "\u25813*": 11231, "\u25813,000": 15835, "\u25813-5": 22797, "\u25813.0": 8599, "\u25813.1": 14283, "\u25813.2": 16468, "\u25813.3": 22459, "\u25813.5": 8052, "\u25813.6": 21441, "\u25813.7": 20951, "\u25813/4": 19660, "\u258130": 328, "\u258130%": 7863, "\u258130,000": 25995, "\u2581300": 2294, "\u25813000": 7347, "\u2581304": 10471, "\u258131": 1589, "\u2581316": 14941, "\u258132": 1615, "\u2581320": 14498, "\u258133": 2248, "\u2581330": 23035, "\u258134": 2811, "\u258135": 1711, "\u2581350": 7872, "\u258136": 2436, "\u2581360": 7168, "\u2581365": 9509, "\u258137": 2921, "\u258138": 3079, "\u2581380": 12613, "\u258139": 3685, "\u2581390": 26463, "\u25813:1": 13928, "\u25813:13": 22672, "\u25813:15": 24873, "\u25813:16": 16457, "\u25813:2": 20770, "\u25813:3": 30292, "\u25813:9": 28901, "\u25814": 73, "\u25814)": 13375, "\u25814*": 11579, "\u25814,000": 21509, "\u25814.0": 10452, "\u25814.1": 20719, "\u25814.2": 19139, "\u25814.3": 22332, "\u25814.4": 24936, "\u25814.5": 13405, "\u25814.7": 25529, "\u258140": 879, "\u258140%": 13477, "\u2581400": 3646, "\u25814000": 10892, "\u2581404": 24396, "\u258141": 4727, "\u258142": 3621, "\u2581420": 24977, "\u258143": 4257, "\u258144": 4579, "\u258145": 2078, "\u2581450": 9978, "\u258146": 5121, "\u258147": 5816, "\u258148": 3044, "\u2581480": 21003, "\u258149": 5470, "\u25814:1": 16401, "\u25814:3": 24541, "\u25814:4": 20869, "\u25814:6": 26846, "\u25814:8": 20736, "\u25815": 86, "\u25815%": 12272, "\u25815*": 21337, "\u25815,000": 14413, "\u25815.0": 12768, "\u25815.1": 20654, "\u25815.5": 16787, "\u258150": 664, "\u258150%": 6214, "\u258150,000": 24135, "\u258150/60": 30509, "\u2581500": 1985, "\u25815000": 8072, "\u258151": 5691, "\u2581512": 21221, "\u258152": 5390, "\u258153": 6373, "\u258154": 6297, "\u258155": 3971, "\u2581550": 18782, "\u258156": 6332, "\u258157": 7564, "\u258158": 6986, "\u258159": 7905, "\u25815:00": 24621, "\u25815:1": 20511, "\u25815:12": 24457, "\u25815:14": 26849, "\u25815:3": 26215, "\u25816": 116, "\u25816,000": 21506, "\u25816.0": 19402, "\u25816.5": 21542, "\u258160": 1169, "\u258160%": 16523, "\u2581600": 4373, "\u25816000": 13604, "\u258161": 9877, "\u258162": 8840, "\u258163": 9287, "\u258164": 3969, "\u258165": 4791, "\u2581650": 16266, "\u258166": 8541, "\u258167": 12018, "\u258168": 8768, "\u258169": 9269, "\u25816:1": 21296, "\u25816:9": 19874, "\u25817": 155, "\u25817.0": 25100, "\u25817.5": 23642, "\u258170": 2365, "\u258170%": 11354, "\u2581700": 7797, "\u25817000": 23723, "\u258171": 12278, "\u258172": 6432, "\u2581720": 18315, "\u258173": 11554, "\u258174": 12162, "\u258175": 4439, "\u258175%": 20028, "\u2581750": 13506, "\u258176": 11749, "\u258177": 10868, "\u258178": 11448, "\u258179": 12735, "\u25817:1": 25109, "\u25818": 167, "\u25818.0": 19727, "\u25818.1": 12897, "\u25818.4": 22299, "\u25818.5": 24326, "\u25818.9": 27862, "\u258180": 1959, "\u258180%": 9839, "\u2581800": 5218, "\u25818000": 21706, "\u2581802.11": 31325, "\u258181": 12579, "\u258182": 10934, "\u258183": 12663, "\u258184": 9890, "\u258185": 7580, "\u258185%": 26373, "\u2581850": 20579, "\u258186": 9200, "\u258186-": 13747, "\u258187": 14300, "\u258188": 10260, "\u258189": 10992, "\u25818:00": 25411, "\u25819": 198, "\u25819.0": 23077, "\u25819.1": 23895, "\u258190": 2081, "\u258190%": 9670, "\u2581900": 9689, "\u25819001": 16929, "\u258191": 16608, "\u2581911": 22532, "\u258192": 11647, "\u258193": 12766, "\u258194": 11098, "\u258195": 7040, "\u258195%": 17069, "\u258196": 10226, "\u258197": 10836, "\u258198": 9296, "\u258198%": 21518, "\u258199": 7227, "\u258199%": 13741, "\u258199.9": 25761, "\u25819:00": 23289, "\u2581:": 70, "\u2581::": 15125, "\u2581:::": 23312, "\u2581<": 962, "\u2581<<": 30460, "\u2581=": 2337, "\u2581>": 499, "\u2581>>": 7313, "\u2581@": 3775, "\u2581A": 182, "\u2581AA": 17585, "\u2581AAA": 24904, "\u2581AB": 15140, "\u2581ABC": 25490, "\u2581ABS": 18206, "\u2581AC": 3279, "\u2581ACC": 28409, "\u2581AD": 9244, "\u2581ADHD": 24760, "\u2581AG": 16969, "\u2581AI": 6281, "\u2581AIDS": 21320, "\u2581AISI": 30689, "\u2581AL": 15071, "\u2581AM": 8998, "\u2581AMD": 13603, "\u2581AMP": 24912, "\u2581AND": 21795, "\u2581ANSI": 29828, "\u2581AP": 9361, "\u2581API": 4972, "\u2581APK": 5425, "\u2581APP": 26868, "\u2581AR": 12648, "\u2581ARM": 29892, "\u2581AS": 7625, "\u2581ASME": 30683, "\u2581ASP": 22351, "\u2581ASTM": 8573, "\u2581AT": 11964, "\u2581ATM": 17845, "\u2581AV": 16109, "\u2581AVG": 30391, "\u2581AVI": 12716, "\u2581AWS": 13953, "\u2581AXIS": 30926, "\u2581Ab": 10617, "\u2581About": 14967, "\u2581Ac": 7985, "\u2581Academy": 21146, "\u2581Acc": 20365, "\u2581Access": 14473, "\u2581Acronis": 22497, "\u2581Act": 9820, "\u2581Action": 27398, "\u2581Active": 19026, "\u2581Ad": 5968, "\u2581Adam": 26896, "\u2581Add": 20940, "\u2581Address": 29535, "\u2581Adobe": 8389, "\u2581Adult": 31283, "\u2581Advanced": 22393, "\u2581Adventure": 29030, "\u2581Aero": 27834, "\u2581Af": 14121, "\u2581Ag": 11882, "\u2581Again": 26704, "\u2581Age": 22391, "\u2581Ah": 11384, "\u2581Air": 5215, "\u2581Airport": 8378, "\u2581Airwheel": 7259, "\u2581Ak": 20606, "\u2581Akamai": 10643, "\u2581Al": 2298, "\u2581Alba": 31249, "\u2581Albert": 25902, "\u2581Alerts": 28361, "\u2581Alex": 12928, "\u2581Ali": 21941, "\u2581All": 3928, "\u2581Alldatasheet": 30587, "\u2581Alliance": 27025, "\u2581AlotPorn": 13085, "\u2581Alpha": 8237, "\u2581Alt": 18020, "\u2581Am": 4887, "\u2581Amazon": 11450, "\u2581America": 12186, "\u2581American": 10073, "\u2581An": 837, "\u2581Ana": 13745, "\u2581Analytics": 21727, "\u2581And": 3606, "\u2581Andre": 29126, "\u2581Andrew": 27583, "\u2581Android": 4324, "\u2581Ang": 21106, "\u2581Angel": 21269, "\u2581Angeles": 19913, "\u2581Animal": 30853, "\u2581Ann": 19728, "\u2581Anna": 29606, "\u2581Antalya": 31007, "\u2581Anti": 14537, "\u2581Anton": 27184, "\u2581Antonio": 26798, "\u2581Any": 8868, "\u2581Ap": 14464, "\u2581Apache": 30938, "\u2581Apart": 27641, "\u2581Apartament": 26558, "\u2581Apartment": 5641, "\u2581Apartments": 13601, "\u2581App": 5438, "\u2581Apple": 3236, "\u2581Application": 19128, "\u2581Apps": 22918, "\u2581April": 27880, "\u2581Apt": 20915, "\u2581Aqua": 20379, "\u2581Ar": 4145, "\u2581Arab": 29593, "\u2581Arc": 24259, "\u2581Arch": 27926, "\u2581Archive": 20386, "\u2581Are": 18274, "\u2581Area": 18499, "\u2581Arena": 25721, "\u2581Arm": 15444, "\u2581Art": 6575, "\u2581Artec": 13662, "\u2581Article": 31026, "\u2581Artist": 30896, "\u2581Arts": 18169, "\u2581As": 9328, "\u2581Ash": 20317, "\u2581Asia": 18401, "\u2581Asian": 29382, "\u2581Ass": 13214, "\u2581Association": 16377, "\u2581At": 5871, "\u2581Athens": 28853, "\u2581Atlantic": 31262, "\u2581Au": 20218, "\u2581Audi": 22139, "\u2581Audio": 23113, "\u2581August": 23757, "\u2581Australia": 26176, "\u2581Author": 31004, "\u2581Authority": 30679, "\u2581Auto": 10987, "\u2581Av": 14202, "\u2581Ava": 29129, "\u2581Avast": 31123, "\u2581Ave": 11610, "\u2581Avenida": 30018, "\u2581Avenue": 5144, "\u2581Award": 23464, "\u2581Awards": 25407, "\u2581Axis": 28467, "\u2581Azure": 15115, "\u2581B": 216, "\u2581BA": 18074, "\u2581BBC": 13564, "\u2581BBQ": 28371, "\u2581BBW": 31117, "\u2581BC": 12604, "\u2581BE": 21054, "\u2581BEST": 30306, "\u2581BI": 16862, "\u2581BIOS": 27675, "\u2581BL": 19091, "\u2581BMW": 14259, "\u2581BO": 13116, "\u2581BR": 17593, "\u2581BS": 12882, "\u2581BTC": 17299, "\u2581Ba": 7208, "\u2581Baby": 19164, "\u2581Back": 12849, "\u2581Backup": 26094, "\u2581Bad": 22236, "\u2581Bai": 23020, "\u2581Bal": 13702, "\u2581Ball": 21332, "\u2581Ban": 16013, "\u2581Band": 26363, "\u2581Bang": 21477, "\u2581Bangkok": 30218, "\u2581Bank": 15201, "\u2581Bar": 3819, "\u2581Barcelona": 28843, "\u2581Bas": 20534, "\u2581Base": 25033, "\u2581Basic": 26158, "\u2581Bath": 25152, "\u2581Battle": 29811, "\u2581Bay": 7320, "\u2581Be": 3149, "\u2581BeFuck": 30668, "\u2581Beach": 3541, "\u2581Beat": 28313, "\u2581Beautiful": 29304, "\u2581Bed": 10770, "\u2581Bedroom": 8198, "\u2581Beeg": 10387, "\u2581Beijing": 16640, "\u2581Bel": 12578, "\u2581Bell": 17542, "\u2581Ben": 10577, "\u2581Bentley": 23272, "\u2581Berg": 29597, "\u2581Berlin": 23579, "\u2581Bern": 28424, "\u2581Best": 9312, "\u2581Bet": 18116, "\u2581Bi": 11162, "\u2581Bible": 26117, "\u2581Big": 8149, "\u2581Bill": 16440, "\u2581Bin": 24553, "\u2581Bio": 13823, "\u2581Bir": 27696, "\u2581Bird": 28438, "\u2581Bit": 16066, "\u2581Bitcoin": 10293, "\u2581Bla": 24234, "\u2581Black": 8156, "\u2581Block": 28701, "\u2581Blog": 25042, "\u2581Blood": 30669, "\u2581Blu": 23188, "\u2581Blue": 8505, "\u2581Bluetooth": 15789, "\u2581Blvd": 16416, "\u2581Bo": 4600, "\u2581Board": 22078, "\u2581Bob": 25234, "\u2581Body": 26528, "\u2581Bon": 15777, "\u2581Book": 11934, "\u2581Booking": 6707, "\u2581BookingSuite": 30417, "\u2581Bor": 18976, "\u2581Boston": 31037, "\u2581Boulevard": 15338, "\u2581Boutique": 21816, "\u2581Bow": 23384, "\u2581Box": 16630, "\u2581Boy": 17513, "\u2581Br": 14485, "\u2581Bra": 13422, "\u2581Brad": 30567, "\u2581Branch": 30437, "\u2581Brand": 23498, "\u2581Bravo": 2566, "\u2581Brazil": 22500, "\u2581Bre": 14766, "\u2581Breakfast": 15928, "\u2581Bri": 16075, "\u2581Bridge": 11893, "\u2581Bro": 18580, "\u2581Broadway": 31008, "\u2581Brook": 30814, "\u2581Brooklyn": 30908, "\u2581Brother": 30942, "\u2581Brown": 22756, "\u2581Brun": 28823, "\u2581Bu": 9748, "\u2581Budapest": 30832, "\u2581Budget": 23948, "\u2581Building": 18543, "\u2581Bull": 26826, "\u2581Bur": 11699, "\u2581Burn": 30890, "\u2581Bus": 16470, "\u2581Business": 6482, "\u2581But": 14145, "\u2581Buy": 28235, "\u2581By": 8199, "\u2581C": 254, "\u2581CA": 6802, "\u2581CAD": 11583, "\u2581CAN": 24390, "\u2581CAS": 6087, "\u2581CAT": 22363, "\u2581CBD": 29157, "\u2581CC": 12419, "\u2581CCD": 30204, "\u2581CCTV": 20240, "\u2581CD": 4033, "\u2581CDN": 26551, "\u2581CE": 7392, "\u2581CEO": 5878, "\u2581CF": 13989, "\u2581CFD": 28305, "\u2581CG": 21250, "\u2581CH": 11658, "\u2581CI": 12047, "\u2581CIA": 23774, "\u2581CJ": 22467, "\u2581CL": 14685, "\u2581CM": 16123, "\u2581CMOS": 28665, "\u2581CMS": 28778, "\u2581CMYK": 30418, "\u2581CN": 22093, "\u2581CNC": 5992, "\u2581CNN": 24486, "\u2581CO": 4118, "\u2581COM": 22392, "\u2581CON": 26548, "\u2581CP": 11058, "\u2581CPU": 9216, "\u2581CR": 11855, "\u2581CRM": 28308, "\u2581CS": 7670, "\u2581CSS": 17853, "\u2581CT": 13707, "\u2581CU": 25629, "\u2581CV": 15098, "\u2581CW": 24429, "\u2581Ca": 6960, "\u2581Cal": 10249, "\u2581California": 22380, "\u2581Call": 21596, "\u2581Calle": 22700, "\u2581Cam": 13313, "\u2581Came": 29025, "\u2581Camera": 29443, "\u2581Camp": 13093, "\u2581Can": 5934, "\u2581Canada": 21737, "\u2581Canal": 30829, "\u2581Cancer": 30608, "\u2581Canon": 25498, "\u2581Canyon": 30847, "\u2581Cap": 9953, "\u2581Capital": 19294, "\u2581Car": 3387, "\u2581Card": 16529, "\u2581Care": 18111, "\u2581Carl": 23860, "\u2581Carrer": 30523, "\u2581Cas": 19251, "\u2581Casa": 8997, "\u2581Case": 27171, "\u2581Cash": 26590, "\u2581Casino": 11255, "\u2581Cast": 28548, "\u2581Castel": 29583, "\u2581Castle": 16878, "\u2581Cat": 10536, "\u2581Cathedral": 23469, "\u2581Cay": 29212, "\u2581Cebu": 30232, "\u2581Cell": 27572, "\u2581Cent": 22986, "\u2581Center": 3727, "\u2581Central": 8224, "\u2581Centre": 7926, "\u2581Centro": 29570, "\u2581Century": 31032, "\u2581Cer": 20968, "\u2581Ch": 5318, "\u2581Cha": 9306, "\u2581Chain": 28966, "\u2581Chan": 16386, "\u2581Chang": 20546, "\u2581Change": 25188, "\u2581Chapter": 26400, "\u2581Char": 12413, "\u2581Charles": 21211, "\u2581Chat": 27021, "\u2581Che": 9937, "\u2581Chi": 8995, "\u2581Chicago": 29031, "\u2581Child": 27088, "\u2581Children": 25478, "\u2581China": 9868, "\u2581Chinese": 27655, "\u2581Cho": 17891, "\u2581Chris": 26988, "\u2581Christ": 15077, "\u2581Christian": 17458, "\u2581Christmas": 28376, "\u2581Chrome": 13698, "\u2581Church": 11859, "\u2581Ci": 16363, "\u2581Cinema": 29847, "\u2581Circ": 29215, "\u2581Circle": 29653, "\u2581Cisco": 13699, "\u2581Citrix": 22316, "\u2581City": 2889, "\u2581Cl": 9359, "\u2581Clar": 22109, "\u2581Class": 15501, "\u2581Clean": 27151, "\u2581Clear": 30448, "\u2581Client": 24177, "\u2581Close": 21744, "\u2581Cloud": 6943, "\u2581Club": 8536, "\u2581Co": 1326, "\u2581Coast": 25410, "\u2581Code": 17383, "\u2581Coffee": 30019, "\u2581Coin": 21126, "\u2581Col": 16925, "\u2581Coll": 29703, "\u2581Collection": 22749, "\u2581College": 9826, "\u2581Collins": 27251, "\u2581Colon": 29707, "\u2581Color": 20522, "\u2581Com": 11824, "\u2581Come": 23227, "\u2581Comfort": 27347, "\u2581Comments": 29954, "\u2581Commission": 23474, "\u2581Committee": 30419, "\u2581Common": 22762, "\u2581Communication": 26511, "\u2581Community": 21232, "\u2581Comp": 7922, "\u2581Company": 12283, "\u2581Computer": 29044, "\u2581Con": 3451, "\u2581Condo": 16714, "\u2581Conference": 21889, "\u2581Connect": 17437, "\u2581Contact": 25475, "\u2581Content": 28071, "\u2581Control": 14047, "\u2581Convention": 16583, "\u2581Cook": 21702, "\u2581Cool": 26915, "\u2581Copyright": 13460, "\u2581Cor": 6444, "\u2581Core": 21061, "\u2581Corp": 25494, "\u2581Corporation": 12197, "\u2581Costa": 26733, "\u2581Cottage": 19231, "\u2581Council": 25256, "\u2581Country": 24465, "\u2581County": 23165, "\u2581Course": 29422, "\u2581Court": 17396, "\u2581Courtyard": 31009, "\u2581Cr": 14341, "\u2581Cra": 17832, "\u2581Creative": 23358, "\u2581Creek": 26512, "\u2581Cris": 27606, "\u2581Cro": 24325, "\u2581Croco": 27352, "\u2581Cross": 19606, "\u2581Crown": 27895, "\u2581Cruz": 30039, "\u2581Crypto": 27984, "\u2581Crystal": 31326, "\u2581Cu": 13807, "\u2581Cultural": 30588, "\u2581Culture": 24563, "\u2581Cup": 28031, "\u2581Cur": 15382, "\u2581Cy": 16580, "\u2581Cyber": 28006, "\u2581Czech": 24848, "\u2581D": 368, "\u2581DA": 16435, "\u2581DAC": 29891, "\u2581DB": 13874, "\u2581DC": 3452, "\u2581DDR": 29457, "\u2581DDoS": 24657, "\u2581DE": 11408, "\u2581DHL": 12833, "\u2581DI": 17540, "\u2581DIN": 11716, "\u2581DIY": 18360, "\u2581DJ": 14179, "\u2581DLC": 30173, "\u2581DLL": 30548, "\u2581DM": 14076, "\u2581DMX": 28291, "\u2581DN": 21030, "\u2581DNA": 5906, "\u2581DNS": 14514, "\u2581DO": 17927, "\u2581DOC": 27948, "\u2581DS": 12713, "\u2581DVB": 21408, "\u2581DVD": 4254, "\u2581DVR": 26428, "\u2581DX": 25416, "\u2581Da": 5463, "\u2581Dai": 29012, "\u2581Daily": 27779, "\u2581Dan": 14480, "\u2581Dance": 29351, "\u2581Daniel": 25890, "\u2581Dar": 15564, "\u2581Dark": 25432, "\u2581Data": 6521, "\u2581Datasheet": 5535, "\u2581David": 10808, "\u2581Day": 7039, "\u2581Days": 20959, "\u2581De": 1766, "\u2581Dead": 23894, "\u2581Death": 28484, "\u2581Dec": 15477, "\u2581Deep": 27584, "\u2581Del": 9444, "\u2581Dell": 14089, "\u2581Deluxe": 28752, "\u2581Den": 16288, "\u2581Des": 13694, "\u2581Description": 25626, "\u2581Design": 9143, "\u2581Desktop": 26785, "\u2581Deutsch": 31030, "\u2581Dev": 26486, "\u2581Developer": 30941, "\u2581Development": 20329, "\u2581Device": 28171, "\u2581Di": 4279, "\u2581Dia": 16839, "\u2581Diamond": 29726, "\u2581Dictionary": 31327, "\u2581Die": 25872, "\u2581Digital": 15380, "\u2581Direct": 13651, "\u2581Directory": 26304, "\u2581Dis": 11804, "\u2581Disc": 29505, "\u2581Discovery": 30233, "\u2581Disk": 30261, "\u2581Disney": 28069, "\u2581Display": 28956, "\u2581District": 13984, "\u2581Do": 3717, "\u2581Document": 29819, "\u2581Dog": 23351, "\u2581Dom": 21969, "\u2581Don": 10515, "\u2581Dong": 17430, "\u2581Dor": 19497, "\u2581Double": 22133, "\u2581Down": 23874, "\u2581Download": 19833, "\u2581Downtown": 18694, "\u2581Dr": 2224, "\u2581Dragon": 29643, "\u2581Dream": 15297, "\u2581Drive": 7178, "\u2581Dropbox": 10026, "\u2581Du": 5485, "\u2581Dubai": 24279, "\u2581Dublin": 29221, "\u2581Dun": 27102, "\u2581Dur": 26044, "\u2581E": 432, "\u2581EA": 13721, "\u2581EB": 17598, "\u2581EC": 9199, "\u2581ECU": 21420, "\u2581ED": 22032, "\u2581EDM": 30804, "\u2581EM": 13485, "\u2581EMC": 21218, "\u2581EMS": 25206, "\u2581EN": 7225, "\u2581EOS": 25190, "\u2581EP": 12200, "\u2581ERP": 27800, "\u2581ES": 9371, "\u2581ESL": 27941, "\u2581ESXi": 26079, "\u2581ETH": 29084, "\u2581EU": 4819, "\u2581EUR": 11064, "\u2581EV": 22553, "\u2581EVA": 16481, "\u2581EX": 13121, "\u2581EZ": 27013, "\u2581Earth": 24954, "\u2581East": 6544, "\u2581Easy": 23043, "\u2581Eco": 15801, "\u2581Economic": 27118, "\u2581Ed": 15207, "\u2581Edge": 19419, "\u2581Edition": 17208, "\u2581Editor": 30936, "\u2581Education": 19521, "\u2581Edwards": 29478, "\u2581Effect": 27966, "\u2581El": 3700, "\u2581Electric": 25678, "\u2581Electronics": 30345, "\u2581Em": 11591, "\u2581Emer": 27111, "\u2581Emp": 11486, "\u2581Empire": 30439, "\u2581En": 6424, "\u2581End": 14333, "\u2581Energy": 22155, "\u2581Eng": 27228, "\u2581Engine": 21994, "\u2581Engineering": 24466, "\u2581English": 10246, "\u2581Enter": 28875, "\u2581Enterprise": 11777, "\u2581Entertainment": 27656, "\u2581Ep": 25669, "\u2581Epi": 21653, "\u2581Er": 16027, "\u2581Eric": 27392, "\u2581Es": 13339, "\u2581Est": 28318, "\u2581Estate": 30061, "\u2581Ethereum": 30219, "\u2581Eu": 26333, "\u2581Euro": 19094, "\u2581Europe": 23368, "\u2581European": 24623, "\u2581Eva": 19202, "\u2581Event": 23590, "\u2581Ever": 25952, "\u2581Evernote": 25688, "\u2581Every": 24163, "\u2581Ex": 7188, "\u2581Exam": 29569, "\u2581Excel": 14770, "\u2581Exchange": 11652, "\u2581Executive": 30117, "\u2581Exhibition": 27236, "\u2581Exp": 16775, "\u2581Expedia": 27237, "\u2581Experience": 25775, "\u2581Explorer": 18689, "\u2581Expo": 26014, "\u2581Express": 8499, "\u2581Extra": 26838, "\u2581Eye": 21931, "\u2581F": 491, "\u2581FA": 12351, "\u2581FAQ": 14802, "\u2581FARO": 22579, "\u2581FAT": 15136, "\u2581FAX": 26815, "\u2581FBI": 17792, "\u2581FC": 14157, "\u2581FCC": 24548, "\u2581FDA": 12736, "\u2581FI": 12932, "\u2581FIFA": 14058, "\u2581FL": 13669, "\u2581FM": 12820, "\u2581FO": 15659, "\u2581FOR": 20679, "\u2581FR": 20374, "\u2581FREE": 29639, "\u2581FS": 21037, "\u2581FTP": 23196, "\u2581FU": 23088, "\u2581FX": 20620, "\u2581Fa": 8929, "\u2581Fab": 24678, "\u2581Face": 26174, "\u2581Facebook": 4541, "\u2581Fair": 16017, "\u2581Fall": 18567, "\u2581Family": 12590, "\u2581Fan": 24228, "\u2581Far": 20461, "\u2581Farm": 23719, "\u2581Fast": 25290, "\u2581Fax": 31071, "\u2581Fe": 7535, "\u2581Feel": 30199, "\u2581Ferr": 24494, "\u2581Ferry": 30799, "\u2581Festival": 19095, "\u2581Fetish": 16921, "\u2581Fi": 7751, "\u2581Field": 22577, "\u2581Fil": 22395, "\u2581File": 11501, "\u2581Film": 21352, "\u2581Fin": 13251, "\u2581Final": 29207, "\u2581Financial": 24609, "\u2581Fire": 17202, "\u2581Firefox": 9114, "\u2581First": 16061, "\u2581Fish": 19466, "\u2581Five": 29575, "\u2581Fl": 17148, "\u2581Flash": 16425, "\u2581Flat": 17442, "\u2581Flex": 20753, "\u2581Floor": 20063, "\u2581Flor": 28333, "\u2581Florence": 27451, "\u2581Flow": 21012, "\u2581Flu": 27383, "\u2581Fluke": 26702, "\u2581Fly": 24126, "\u2581Fo": 15133, "\u2581Focus": 30434, "\u2581Font": 20577, "\u2581Food": 16426, "\u2581Foot": 18426, "\u2581For": 5437, "\u2581Force": 26715, "\u2581Forest": 26624, "\u2581Forex": 20885, "\u2581Form": 14866, "\u2581Fort": 13767, "\u2581Forum": 26103, "\u2581Found": 29561, "\u2581Foundation": 13470, "\u2581Four": 20776, "\u2581Foursquare": 13124, "\u2581Fr": 11345, "\u2581Framework": 18064, "\u2581Fran": 22104, "\u2581France": 15650, "\u2581Francisco": 24962, "\u2581Frank": 20889, "\u2581Fre": 21978, "\u2581Fred": 28722, "\u2581Free": 7814, "\u2581Freedom": 30351, "\u2581French": 30858, "\u2581From": 13634, "\u2581Front": 20991, "\u2581Fu": 17313, "\u2581Fuck": 25826, "\u2581Full": 16661, "\u2581Fun": 23411, "\u2581Fund": 24350, "\u2581Fur": 26665, "\u2581Future": 23853, "\u2581G": 428, "\u2581GA": 16874, "\u2581GB": 8502, "\u2581GBP": 25487, "\u2581GDP": 15019, "\u2581GDPR": 28290, "\u2581GE": 17777, "\u2581GHz": 23356, "\u2581GIF": 21589, "\u2581GL": 22190, "\u2581GM": 16595, "\u2581GMP": 27387, "\u2581GMT": 27488, "\u2581GNU": 15836, "\u2581GO": 13644, "\u2581GP": 14822, "\u2581GPS": 6349, "\u2581GPU": 21675, "\u2581GR": 18115, "\u2581GS": 16249, "\u2581GSM": 18295, "\u2581GT": 14722, "\u2581GUI": 24877, "\u2581Ga": 7632, "\u2581Gal": 11526, "\u2581Galaxy": 30020, "\u2581Gallery": 17606, "\u2581Game": 11031, "\u2581Games": 18961, "\u2581Gar": 11102, "\u2581Garden": 9653, "\u2581Gardens": 20315, "\u2581Gate": 24344, "\u2581Gateway": 25068, "\u2581Gay": 25612, "\u2581Ge": 14116, "\u2581Gen": 11327, "\u2581Gene": 16788, "\u2581General": 19432, "\u2581Geo": 19431, "\u2581George": 15588, "\u2581German": 23375, "\u2581Get": 13885, "\u2581Gi": 8820, "\u2581Gil": 28222, "\u2581Girl": 21095, "\u2581Girls": 28993, "\u2581Git": 27079, "\u2581Give": 29513, "\u2581Glass": 27769, "\u2581Glen": 29480, "\u2581Glo": 24410, "\u2581Global": 8494, "\u2581Gmail": 29349, "\u2581GmbH": 24170, "\u2581Go": 4572, "\u2581God": 7372, "\u2581Gold": 14320, "\u2581Golden": 22082, "\u2581Golf": 21242, "\u2581Good": 12690, "\u2581Google": 2058, "\u2581Gor": 18953, "\u2581Got": 24864, "\u2581GotPorn": 2924, "\u2581Gr": 10071, "\u2581Gra": 7742, "\u2581Grace": 30640, "\u2581Gran": 17994, "\u2581Grand": 8596, "\u2581Gre": 19888, "\u2581Great": 11109, "\u2581Green": 7894, "\u2581Gro": 24338, "\u2581Group": 6829, "\u2581Grove": 31311, "\u2581Gu": 5998, "\u2581Guangzhou": 27119, "\u2581Guest": 13624, "\u2581Guesthouse": 27452, "\u2581Guide": 16649, "\u2581Guy": 27707, "\u2581H": 449, "\u2581HA": 16454, "\u2581HANA": 30960, "\u2581HBM": 31351, "\u2581HC": 19898, "\u2581HD": 577, "\u2581HDD": 22389, "\u2581HDMI": 12885, "\u2581HE": 14336, "\u2581HFS": 24584, "\u2581HGH": 26626, "\u2581HI": 20018, "\u2581HIV": 12365, "\u2581HK": 23631, "\u2581HOME": 9445, "\u2581HOTEL": 31328, "\u2581HP": 6405, "\u2581HPE": 16116, "\u2581HR": 17886, "\u2581HS": 13901, "\u2581HTC": 22990, "\u2581HTML": 8396, "\u2581HTTP": 10693, "\u2581HTTPS": 29361, "\u2581Ha": 5146, "\u2581Hack": 31291, "\u2581Hai": 27540, "\u2581Hall": 11041, "\u2581Ham": 18968, "\u2581Han": 12745, "\u2581Hand": 16245, "\u2581Happy": 27759, "\u2581Har": 8909, "\u2581Harbor": 30520, "\u2581Harbour": 28264, "\u2581Hard": 18249, "\u2581Has": 25483, "\u2581Hat": 10124, "\u2581Have": 23133, "\u2581Hay": 29299, "\u2581He": 5041, "\u2581Head": 19539, "\u2581Health": 9896, "\u2581Heart": 16488, "\u2581Hell": 6715, "\u2581Help": 28672, "\u2581Hen": 23971, "\u2581Henry": 26860, "\u2581Her": 9786, "\u2581Here": 26394, "\u2581Heritage": 31097, "\u2581Hey": 30092, "\u2581Hi": 8568, "\u2581High": 9042, "\u2581Highway": 24763, "\u2581Hill": 11233, "\u2581Hills": 26451, "\u2581Hilton": 23061, "\u2581His": 27410, "\u2581Historic": 27878, "\u2581History": 16643, "\u2581Ho": 6588, "\u2581Hol": 11832, "\u2581Holiday": 10167, "\u2581Hollywood": 25257, "\u2581Home": 2714, "\u2581Hong": 13776, "\u2581Honor": 27455, "\u2581Hope": 18664, "\u2581Hor": 19312, "\u2581Horizon": 28272, "\u2581Hospital": 20900, "\u2581Host": 18457, "\u2581Hostel": 7294, "\u2581Hostelworld": 9270, "\u2581Hot": 4864, "\u2581Hotel": 807, "\u2581Hotels": 16479, "\u2581Hour": 30655, "\u2581House": 2957, "\u2581How": 6860, "\u2581Hu": 7602, "\u2581Hua": 18742, "\u2581Huawei": 29416, "\u2581Human": 19133, "\u2581Hy": 11146, "\u2581Hydro": 30940, "\u2581Hyper": 24865, "\u2581I": 412, "\u2581IBM": 7654, "\u2581IC": 6154, "\u2581ICC": 29600, "\u2581ICO": 11902, "\u2581ICT": 27853, "\u2581ID": 3756, "\u2581IDC": 28693, "\u2581IDD": 25768, "\u2581IDE": 24041, "\u2581IE": 21172, "\u2581IEC": 15240, "\u2581IEEE": 28377, "\u2581IELTS": 25258, "\u2581IGF": 31355, "\u2581II": 4690, "\u2581III": 10269, "\u2581IM": 16085, "\u2581IMF": 29861, "\u2581IN": 6503, "\u2581IO": 18572, "\u2581IP": 1768, "\u2581IPL": 24186, "\u2581IPv": 20849, "\u2581IQ": 16741, "\u2581IR": 11012, "\u2581IS": 8513, "\u2581ISO": 2442, "\u2581ISP": 29882, "\u2581IT": 2891, "\u2581IV": 14642, "\u2581IWC": 29418, "\u2581Ice": 22114, "\u2581IcePorn": 25892, "\u2581Idea": 30179, "\u2581If": 19491, "\u2581Il": 19229, "\u2581Im": 15148, "\u2581Image": 23717, "\u2581Imp": 18560, "\u2581In": 1403, "\u2581Inc": 3978, "\u2581Index": 29058, "\u2581India": 11851, "\u2581Indian": 27094, "\u2581Industry": 29711, "\u2581Info": 24383, "\u2581Information": 22963, "\u2581Inn": 3165, "\u2581Innovation": 29314, "\u2581Inside": 30784, "\u2581Instagram": 17393, "\u2581Instant": 12433, "\u2581Institute": 10457, "\u2581Int": 18651, "\u2581Intel": 13033, "\u2581Inter": 10582, "\u2581Interface": 30859, "\u2581International": 4208, "\u2581Internet": 14757, "\u2581Intl": 31042, "\u2581IoT": 12815, "\u2581Ir": 25093, "\u2581Iron": 29196, "\u2581Is": 6005, "\u2581Island": 8132, "\u2581Israel": 26695, "\u2581It": 5572, "\u2581Italian": 31278, "\u2581J": 771, "\u2581JAPAN": 30909, "\u2581JIS": 23500, "\u2581JMP": 27797, "\u2581JPEG": 27437, "\u2581JPG": 27447, "\u2581JR": 7315, "\u2581JSON": 29846, "\u2581Ja": 7844, "\u2581Jack": 17508, "\u2581Jackson": 30864, "\u2581James": 15330, "\u2581Jan": 18243, "\u2581Jane": 28544, "\u2581Japan": 14083, "\u2581Japanese": 28955, "\u2581Java": 12128, "\u2581JavaScript": 25066, "\u2581Jay": 25420, "\u2581Je": 13483, "\u2581Jean": 25863, "\u2581Jeff": 27996, "\u2581Jesus": 19592, "\u2581Jet": 29328, "\u2581Ji": 17021, "\u2581Jim": 26553, "\u2581Jin": 19868, "\u2581JizzBunker": 2236, "\u2581Jo": 6826, "\u2581Job": 21670, "\u2581Joe": 25331, "\u2581John": 6831, "\u2581Johnson": 14577, "\u2581Jones": 29539, "\u2581Jose": 30200, "\u2581Journal": 21273, "\u2581Joy": 27158, "\u2581Ju": 12225, "\u2581Juan": 30288, "\u2581Jul": 21639, "\u2581July": 30469, "\u2581Jun": 21202, "\u2581June": 27826, "\u2581Jung": 30088, "\u2581Just": 16655, "\u2581K": 485, "\u2581KA": 23400, "\u2581KAYAK": 1807, "\u2581KB": 19644, "\u2581KBS": 30079, "\u2581KDE": 19993, "\u2581KO": 16117, "\u2581KR": 18444, "\u2581KRW": 23796, "\u2581Ka": 7234, "\u2581Kai": 28125, "\u2581Kam": 27174, "\u2581Kan": 23495, "\u2581Kar": 12964, "\u2581Kat": 23994, "\u2581Kates": 18555, "\u2581Ke": 8652, "\u2581Keep": 29859, "\u2581Ken": 21038, "\u2581Key": 10481, "\u2581Kh": 18404, "\u2581Ki": 13096, "\u2581Kids": 30626, "\u2581Kill": 24143, "\u2581Kim": 19351, "\u2581Kin": 19999, "\u2581King": 8314, "\u2581Kingdom": 29427, "\u2581Kingston": 25929, "\u2581Kir": 27310, "\u2581Kit": 26559, "\u2581Kitchen": 31353, "\u2581Know": 22427, "\u2581Ko": 7378, "\u2581Kon": 24108, "\u2581Kong": 16738, "\u2581Korea": 8498, "\u2581Korean": 14980, "\u2581Korun": 30052, "\u2581Kr": 17198, "\u2581Ku": 13464, "\u2581Ky": 22600, "\u2581L": 558, "\u2581LA": 8390, "\u2581LAN": 16526, "\u2581LC": 11805, "\u2581LCD": 4182, "\u2581LDAP": 31191, "\u2581LE": 15900, "\u2581LED": 1292, "\u2581LG": 10627, "\u2581LGBT": 25069, "\u2581LI": 17529, "\u2581LLC": 18491, "\u2581LM": 23139, "\u2581LO": 19308, "\u2581LORD": 28472, "\u2581LP": 23028, "\u2581LPG": 30194, "\u2581LTD": 24061, "\u2581LTE": 22589, "\u2581La": 1944, "\u2581Lab": 11896, "\u2581Lady": 24292, "\u2581Lake": 9175, "\u2581Lan": 23568, "\u2581Land": 14997, "\u2581Lane": 17756, "\u2581Lang": 28499, "\u2581Language": 17835, "\u2581Lar": 27157, "\u2581Las": 14812, "\u2581Laser": 28104, "\u2581Last": 19612, "\u2581Law": 15004, "\u2581Le": 2850, "\u2581League": 28958, "\u2581Learning": 27249, "\u2581Led": 24742, "\u2581Lee": 14877, "\u2581Left": 29245, "\u2581Leg": 22033, "\u2581Legend": 29054, "\u2581Leica": 29340, "\u2581Lenovo": 23570, "\u2581Leopard": 30118, "\u2581Les": 21194, "\u2581Let": 15058, "\u2581Level": 29958, "\u2581Lewis": 30428, "\u2581Lex": 21417, "\u2581Li": 3460, "\u2581Liber": 27322, "\u2581Library": 23949, "\u2581Life": 7206, "\u2581Light": 10302, "\u2581Like": 20017, "\u2581Limited": 16182, "\u2581Lin": 17269, "\u2581Lind": 28447, "\u2581Line": 17524, "\u2581Link": 19628, "\u2581LinkedIn": 31251, "\u2581Linux": 11153, "\u2581Lion": 24412, "\u2581Lionbridge": 31272, "\u2581Lisbon": 27120, "\u2581List": 16247, "\u2581Lite": 25947, "\u2581Little": 15817, "\u2581Live": 8773, "\u2581Living": 25076, "\u2581Lo": 5765, "\u2581Load": 30873, "\u2581Local": 25989, "\u2581Location": 30131, "\u2581Lock": 25227, "\u2581Lodge": 18948, "\u2581Loft": 27050, "\u2581Log": 13557, "\u2581London": 12606, "\u2581Long": 11598, "\u2581Look": 26322, "\u2581Lord": 14890, "\u2581Los": 12909, "\u2581Lost": 28610, "\u2581Louis": 25638, "\u2581Love": 7114, "\u2581Low": 20933, "\u2581Ltd": 7626, "\u2581Lu": 6301, "\u2581Luc": 17378, "\u2581Lux": 29476, "\u2581Luxury": 17334, "\u2581Ly": 14246, "\u2581M": 378, "\u2581MA": 8920, "\u2581MAC": 21684, "\u2581MB": 7286, "\u2581MBA": 14548, "\u2581MC": 11659, "\u2581MD": 11992, "\u2581MDF": 23695, "\u2581ME": 12368, "\u2581MI": 10468, "\u2581MIT": 23125, "\u2581MK": 22101, "\u2581MM": 17569, "\u2581MO": 10003, "\u2581MOQ": 16184, "\u2581MOV": 13510, "\u2581MP": 4797, "\u2581MPEG": 18892, "\u2581MR": 25119, "\u2581MRT": 30813, "\u2581MS": 5900, "\u2581MSN": 28490, "\u2581MT": 8927, "\u2581MX": 23711, "\u2581MY": 26058, "\u2581Ma": 4744, "\u2581Mac": 1706, "\u2581MacBook": 21902, "\u2581Machine": 15451, "\u2581Mad": 16924, "\u2581Made": 28026, "\u2581Mag": 15030, "\u2581Magazine": 23062, "\u2581Magic": 22405, "\u2581Mah": 24720, "\u2581Mail": 19847, "\u2581Main": 16434, "\u2581Mak": 26831, "\u2581Make": 18633, "\u2581Mal": 13790, "\u2581Mall": 17235, "\u2581Man": 4013, "\u2581Management": 11053, "\u2581Manager": 14260, "\u2581Manhattan": 28844, "\u2581Mansion": 30867, "\u2581Manufactur": 30651, "\u2581Map": 16064, "\u2581Mar": 3212, "\u2581March": 25531, "\u2581Marco": 27323, "\u2581Mari": 19334, "\u2581Maria": 17641, "\u2581Marina": 20504, "\u2581Marine": 26830, "\u2581Mark": 13196, "\u2581Market": 9023, "\u2581Marketing": 28890, "\u2581Marriott": 26786, "\u2581Martin": 18224, "\u2581Mary": 18094, "\u2581Mas": 21162, "\u2581Mass": 27752, "\u2581Master": 14035, "\u2581Mat": 16242, "\u2581Math": 29391, "\u2581Matt": 23734, "\u2581Max": 12658, "\u2581May": 6264, "\u2581Mc": 11607, "\u2581McAfee": 19516, "\u2581McC": 27433, "\u2581McG": 30820, "\u2581Me": 3062, "\u2581Med": 20231, "\u2581Medi": 21868, "\u2581Media": 11725, "\u2581Medical": 21496, "\u2581Medicine": 29820, "\u2581Mega": 14424, "\u2581Mel": 20229, "\u2581Melbourne": 24948, "\u2581Memorial": 29305, "\u2581Memory": 31252, "\u2581Men": 12914, "\u2581Mer": 20468, "\u2581Merc": 24399, "\u2581Mercedes": 28647, "\u2581Met": 23828, "\u2581Meta": 28526, "\u2581Metal": 30480, "\u2581Method": 27133, "\u2581Metro": 18849, "\u2581Mexico": 27121, "\u2581Mi": 6086, "\u2581Miami": 22760, "\u2581Michael": 17085, "\u2581Micro": 10428, "\u2581Microsoft": 2732, "\u2581Mid": 26093, "\u2581Middle": 29236, "\u2581Mike": 29081, "\u2581Mil": 19654, "\u2581Milan": 24355, "\u2581Mile": 29705, "\u2581Milf": 16918, "\u2581Mill": 15888, "\u2581Min": 7139, "\u2581Mind": 24926, "\u2581Mini": 13198, "\u2581Mira": 19637, "\u2581Miss": 24500, "\u2581Mission": 27474, "\u2581Mit": 29897, "\u2581Mo": 4128, "\u2581Mobile": 12074, "\u2581Mod": 20516, "\u2581Model": 19622, "\u2581Modern": 16647, "\u2581Mon": 7591, "\u2581Money": 20656, "\u2581Mono": 29586, "\u2581Mont": 12400, "\u2581Monte": 20672, "\u2581Moo": 23660, "\u2581Moon": 24728, "\u2581Mor": 10223, "\u2581More": 1726, "\u2581Mos": 14243, "\u2581Motel": 17500, "\u2581Mother": 30777, "\u2581Motion": 28574, "\u2581Motor": 19102, "\u2581Mount": 24983, "\u2581Mountain": 15584, "\u2581Movie": 20743, "\u2581Mozilla": 19978, "\u2581Mr": 16567, "\u2581Mu": 14740, "\u2581Multi": 15943, "\u2581Mun": 29496, "\u2581Mur": 18366, "\u2581Mus": 17701, "\u2581Museo": 31206, "\u2581Museum": 3992, "\u2581Music": 12017, "\u2581My": 2542, "\u2581MySQL": 29731, "\u2581N": 554, "\u2581NA": 14193, "\u2581NAS": 10132, "\u2581NASA": 16826, "\u2581NATO": 30682, "\u2581NBA": 20678, "\u2581NBC": 30379, "\u2581NC": 12977, "\u2581NE": 15023, "\u2581NEW": 21438, "\u2581NFC": 27994, "\u2581NFL": 30538, "\u2581NGO": 27469, "\u2581NH": 16297, "\u2581NI": 16952, "\u2581NO": 8461, "\u2581NT": 16691, "\u2581NTFS": 19234, "\u2581NVIDIA": 27760, "\u2581NY": 11617, "\u2581Na": 4730, "\u2581Name": 18921, "\u2581Nan": 24587, "\u2581Nandrolone": 30739, "\u2581Nano": 24645, "\u2581National": 6199, "\u2581Nations": 27796, "\u2581Natural": 26606, "\u2581Nature": 25288, "\u2581Nav": 24994, "\u2581Ne": 8950, "\u2581Near": 24401, "\u2581Need": 23976, "\u2581Nero": 26010, "\u2581Net": 13940, "\u2581Netflix": 27238, "\u2581Network": 10174, "\u2581Neu": 30198, "\u2581Never": 27597, "\u2581New": 2528, "\u2581News": 10918, "\u2581Next": 7266, "\u2581Ni": 8031, "\u2581Nice": 30187, "\u2581Nico": 29669, "\u2581Night": 13135, "\u2581Nik": 21522, "\u2581Nintendo": 31329, "\u2581No": 1705, "\u2581Nor": 14992, "\u2581Nord": 18044, "\u2581North": 7083, "\u2581Norton": 27678, "\u2581Not": 11370, "\u2581Note": 20729, "\u2581Nov": 17805, "\u2581Nova": 30993, "\u2581November": 30342, "\u2581Now": 13227, "\u2581Nu": 12898, "\u2581Number": 24364, "\u2581Nyc": 30754, "\u2581O": 883, "\u2581OBD": 29945, "\u2581OD": 18496, "\u2581ODM": 16754, "\u2581OECD": 28552, "\u2581OEM": 3874, "\u2581OF": 15823, "\u2581OK": 14383, "\u2581OLED": 19307, "\u2581OM": 21907, "\u2581ON": 17775, "\u2581ONE": 25953, "\u2581OP": 15198, "\u2581OR": 21808, "\u2581OS": 2530, "\u2581OST": 13641, "\u2581OT": 20367, "\u2581Oak": 24196, "\u2581Ob": 16631, "\u2581Ocean": 13801, "\u2581Oct": 23784, "\u2581Of": 7042, "\u2581Off": 16304, "\u2581Office": 5997, "\u2581Oh": 23424, "\u2581Oil": 27283, "\u2581Ol": 16898, "\u2581Old": 9435, "\u2581Olymp": 30308, "\u2581Olympic": 30882, "\u2581On": 6417, "\u2581One": 4463, "\u2581Online": 14530, "\u2581Only": 21673, "\u2581Op": 15944, "\u2581Open": 6839, "\u2581Opera": 19366, "\u2581Opti": 23813, "\u2581Or": 7686, "\u2581Oracle": 17207, "\u2581Orange": 28675, "\u2581Organization": 30674, "\u2581Orphek": 26286, "\u2581Other": 25586, "\u2581Our": 19691, "\u2581Out": 10600, "\u2581Outlook": 4558, "\u2581Over": 15296, "\u2581Owner": 30083, "\u2581Oxford": 31010, "\u2581P": 351, "\u2581PA": 9096, "\u2581PADI": 27044, "\u2581PAR": 24878, "\u2581PC": 1265, "\u2581PCB": 7474, "\u2581PCI": 18021, "\u2581PD": 17528, "\u2581PDF": 2615, "\u2581PE": 7415, "\u2581PET": 23743, "\u2581PH": 18254, "\u2581PHP": 14637, "\u2581PIN": 25634, "\u2581PL": 13088, "\u2581PLC": 12636, "\u2581PM": 9027, "\u2581PNG": 30058, "\u2581PO": 12990, "\u2581POS": 23974, "\u2581PP": 7260, "\u2581PPT": 20470, "\u2581PR": 12442, "\u2581PRO": 15592, "\u2581PS": 7559, "\u2581PSD": 16166, "\u2581PST": 7538, "\u2581PT": 17468, "\u2581PTFE": 24571, "\u2581PU": 13206, "\u2581PV": 17506, "\u2581PVC": 3956, "\u2581Pa": 5187, "\u2581Pacific": 20781, "\u2581Pack": 17180, "\u2581Page": 14579, "\u2581Paint": 29700, "\u2581Pal": 12842, "\u2581Palace": 13913, "\u2581Palm": 14041, "\u2581Pan": 9366, "\u2581Paper": 30152, "\u2581Par": 9662, "\u2581Para": 18919, "\u2581Paradise": 30119, "\u2581Paris": 15144, "\u2581Park": 2193, "\u2581Part": 13249, "\u2581Partner": 25789, "\u2581Party": 13302, "\u2581Pass": 14472, "\u2581Pat": 16079, "\u2581Pattaya": 24359, "\u2581Paul": 12792, "\u2581Pay": 14481, "\u2581PayPal": 24275, "\u2581Pe": 8068, "\u2581Peace": 26707, "\u2581Pen": 12511, "\u2581People": 18188, "\u2581Per": 5924, "\u2581Perfect": 30038, "\u2581Performance": 31253, "\u2581Perv": 20718, "\u2581Pet": 21654, "\u2581Peter": 15064, "\u2581Ph": 8978, "\u2581Phen": 29781, "\u2581Phil": 22348, "\u2581Phone": 19986, "\u2581Photo": 11853, "\u2581Photonics": 30589, "\u2581Photoshop": 20238, "\u2581Phuket": 30319, "\u2581Pi": 6911, "\u2581Piazza": 22317, "\u2581Pic": 18380, "\u2581Picture": 26303, "\u2581Pie": 26255, "\u2581Pier": 30302, "\u2581Pin": 12825, "\u2581PinkRod": 30910, "\u2581Pinterest": 15162, "\u2581Pl": 19244, "\u2581Pla": 23262, "\u2581Place": 9470, "\u2581Plan": 15927, "\u2581Planet": 29765, "\u2581Plant": 31077, "\u2581Plat": 28621, "\u2581Platform": 19909, "\u2581Play": 6989, "\u2581Playa": 27280, "\u2581Played": 12347, "\u2581Player": 15279, "\u2581Plaza": 10434, "\u2581Plus": 12300, "\u2581Po": 5649, "\u2581Point": 12751, "\u2581Pol": 16713, "\u2581Polar": 28587, "\u2581Policy": 26287, "\u2581Poly": 13787, "\u2581Pont": 28894, "\u2581Pool": 21274, "\u2581Pop": 26882, "\u2581Porn": 626, "\u2581PornoX": 10339, "\u2581Pornoid": 23371, "\u2581Port": 7599, "\u2581Porto": 30081, "\u2581Pos": 26228, "\u2581Post": 11461, "\u2581Posted": 28692, "\u2581Pot": 25426, "\u2581Power": 7086, "\u2581PowerPoint": 21571, "\u2581PowerShell": 30415, "\u2581Pr": 10440, "\u2581Pra": 16785, "\u2581Practice": 30416, "\u2581Prague": 30678, "\u2581Prat": 29266, "\u2581Pre": 6320, "\u2581Premier": 27767, "\u2581Premium": 26602, "\u2581Press": 21360, "\u2581Previous": 11860, "\u2581Price": 28386, "\u2581Prime": 27465, "\u2581Prince": 23150, "\u2581Privacy": 27657, "\u2581Private": 19022, "\u2581Pro": 1880, "\u2581Process": 25477, "\u2581Product": 14513, "\u2581Professional": 23756, "\u2581Profile": 29848, "\u2581Program": 13837, "\u2581Project": 11471, "\u2581Prospekt": 31098, "\u2581Protection": 22750, "\u2581Protocol": 30314, "\u2581Pu": 10243, "\u2581Public": 17942, "\u2581Puerto": 29926, "\u2581Pur": 23791, "\u2581Python": 25054, "\u2581Q": 927, "\u2581QC": 18135, "\u2581QNAP": 17140, "\u2581QR": 21181, "\u2581Qu": 7697, "\u2581Quad": 31300, "\u2581Quality": 21463, "\u2581Quant": 30197, "\u2581Queen": 18866, "\u2581Quest": 27782, "\u2581Qui": 25241, "\u2581Quick": 20538, "\u2581R": 466, "\u2581RAID": 22655, "\u2581RAM": 15252, "\u2581RAR": 16175, "\u2581RAW": 18246, "\u2581RC": 16610, "\u2581RE": 8856, "\u2581RF": 1820, "\u2581RFID": 9639, "\u2581RGB": 12138, "\u2581RH": 24311, "\u2581RJ": 22659, "\u2581RNA": 25813, "\u2581RO": 12449, "\u2581ROHS": 27043, "\u2581ROM": 26142, "\u2581RPG": 29425, "\u2581RS": 10397, "\u2581RSS": 17696, "\u2581RT": 13559, "\u2581Ra": 4698, "\u2581Race": 29744, "\u2581Radio": 27587, "\u2581Railway": 26513, "\u2581Rain": 25670, "\u2581Ram": 19371, "\u2581Rating": 30714, "\u2581Ray": 23433, "\u2581Rd": 16554, "\u2581Re": 1667, "\u2581React": 30817, "\u2581Read": 1715, "\u2581Real": 9024, "\u2581Rec": 17327, "\u2581Record": 23698, "\u2581Recover": 26681, "\u2581Recovery": 19528, "\u2581Red": 2177, "\u2581Ref": 23651, "\u2581Reg": 9627, "\u2581Regular": 20490, "\u2581Remo": 4984, "\u2581Ren": 19826, "\u2581Rental": 28482, "\u2581Rep": 24432, "\u2581Report": 18072, "\u2581Republic": 18416, "\u2581Res": 12788, "\u2581Research": 13160, "\u2581Reserved": 28648, "\u2581Residence": 12591, "\u2581Resort": 7101, "\u2581Resources": 28845, "\u2581Restaurant": 21488, "\u2581Return": 26876, "\u2581Rev": 27719, "\u2581Review": 22074, "\u2581Revolution": 29155, "\u2581Rhino": 27091, "\u2581Ri": 7134, "\u2581Riad": 29888, "\u2581Rich": 26859, "\u2581Richard": 22708, "\u2581Right": 26599, "\u2581Rights": 19401, "\u2581Rio": 25596, "\u2581River": 10867, "\u2581Ro": 4349, "\u2581RoHS": 20424, "\u2581Road": 2354, "\u2581Rob": 24214, "\u2581Robert": 17326, "\u2581Robin": 31307, "\u2581Robot": 30380, "\u2581Rock": 10711, "\u2581Rod": 27535, "\u2581Roger": 26803, "\u2581Roll": 22446, "\u2581Roma": 27422, "\u2581Roman": 16702, "\u2581Rome": 23617, "\u2581Room": 12576, "\u2581Rooms": 25133, "\u2581Rosa": 26382, "\u2581Rose": 15950, "\u2581Ross": 24375, "\u2581Route": 31065, "\u2581Royal": 10714, "\u2581Ru": 13262, "\u2581Rua": 24303, "\u2581Rub": 22388, "\u2581Rue": 19151, "\u2581Rule": 27185, "\u2581Run": 17266, "\u2581Russia": 24570, "\u2581S": 250, "\u2581SA": 8308, "\u2581SAE": 29462, "\u2581SAP": 12284, "\u2581SAS": 26063, "\u2581SATA": 23377, "\u2581SC": 6737, "\u2581SCP": 9284, "\u2581SD": 4110, "\u2581SDK": 16291, "\u2581SE": 8774, "\u2581SEO": 15138, "\u2581SF": 13890, "\u2581SGS": 15169, "\u2581SH": 14352, "\u2581SHA": 30477, "\u2581SI": 15123, "\u2581SIM": 18914, "\u2581SK": 10104, "\u2581SL": 17717, "\u2581SM": 10211, "\u2581SMD": 13141, "\u2581SMS": 12937, "\u2581SMT": 21852, "\u2581SN": 20437, "\u2581SNS": 24142, "\u2581SO": 11885, "\u2581SOLIDWORKS": 17274, "\u2581SP": 5845, "\u2581SQL": 9666, "\u2581SR": 17745, "\u2581SS": 7379, "\u2581SSD": 9559, "\u2581SSL": 15703, "\u2581ST": 6339, "\u2581SU": 13005, "\u2581SUS": 28838, "\u2581SUV": 28087, "\u2581SV": 24351, "\u2581SW": 15968, "\u2581Sa": 4900, "\u2581SaaS": 28481, "\u2581Safari": 24949, "\u2581Safety": 29042, "\u2581Saint": 12036, "\u2581Sal": 9691, "\u2581Sale": 24808, "\u2581Sam": 12847, "\u2581Samsung": 26401, "\u2581San": 3812, "\u2581Sand": 15825, "\u2581Sant": 27109, "\u2581Santa": 11836, "\u2581Santo": 29692, "\u2581Sar": 20124, "\u2581Sav": 25722, "\u2581Save": 27108, "\u2581Say": 28546, "\u2581Sc": 7840, "\u2581Scan": 18805, "\u2581Sch": 8180, "\u2581School": 7975, "\u2581Science": 13217, "\u2581Scott": 24882, "\u2581Se": 6032, "\u2581Sea": 8335, "\u2581Seagate": 28868, "\u2581Search": 13612, "\u2581Season": 27899, "\u2581Second": 28860, "\u2581Secret": 25969, "\u2581Secure": 19451, "\u2581Security": 13854, "\u2581See": 18668, "\u2581Select": 25558, "\u2581Self": 25166, "\u2581Semiconductor": 28362, "\u2581Sen": 19417, "\u2581Seoul": 25986, "\u2581Sep": 28310, "\u2581September": 31176, "\u2581Ser": 11793, "\u2581Series": 14920, "\u2581Server": 4710, "\u2581Service": 9035, "\u2581Services": 14486, "\u2581Session": 31193, "\u2581Set": 22547, "\u2581Seven": 29579, "\u2581Sex": 12266, "\u2581Sexu": 17455, "\u2581Sh": 10140, "\u2581Sha": 7598, "\u2581Shanghai": 21489, "\u2581Share": 19120, "\u2581SharePoint": 29321, "\u2581She": 6097, "\u2581Shell": 30827, "\u2581Shemale": 13258, "\u2581Shenzhen": 27334, "\u2581Shi": 16351, "\u2581Shield": 30740, "\u2581Shin": 24777, "\u2581Ship": 31075, "\u2581Sho": 15856, "\u2581Shop": 23890, "\u2581Shopping": 22578, "\u2581Show": 15039, "\u2581Shu": 27737, "\u2581Si": 7811, "\u2581Side": 20948, "\u2581Sierra": 29145, "\u2581Sign": 15223, "\u2581Sil": 16413, "\u2581Silver": 26194, "\u2581Sim": 13044, "\u2581Simon": 28589, "\u2581Sin": 18488, "\u2581Singapore": 23789, "\u2581Single": 26092, "\u2581Siri": 28228, "\u2581Site": 16577, "\u2581Six": 25230, "\u2581Sk": 17306, "\u2581Sky": 12325, "\u2581Skype": 15165, "\u2581Sleazy": 26285, "\u2581Sleep": 21315, "\u2581Slot": 25603, "\u2581Sm": 21810, "\u2581Small": 28074, "\u2581Smart": 10891, "\u2581Smith": 22858, "\u2581Snap": 29536, "\u2581Snow": 22867, "\u2581So": 4429, "\u2581Social": 16760, "\u2581Society": 22065, "\u2581Soft": 25221, "\u2581Software": 13760, "\u2581Sol": 14746, "\u2581Solar": 29022, "\u2581Solid": 30458, "\u2581Solution": 31170, "\u2581Solutions": 27913, "\u2581Some": 25210, "\u2581Son": 17534, "\u2581Song": 21715, "\u2581Sony": 23606, "\u2581Soul": 29178, "\u2581Sound": 20265, "\u2581Source": 10976, "\u2581South": 4440, "\u2581Sp": 6494, "\u2581Spa": 9396, "\u2581Space": 14584, "\u2581Spe": 25758, "\u2581Spec": 23257, "\u2581Special": 26244, "\u2581Speed": 27423, "\u2581Spirit": 27556, "\u2581Sports": 20992, "\u2581Spring": 24499, "\u2581Springs": 28430, "\u2581Spy": 27300, "\u2581Square": 7960, "\u2581St": 1894, "\u2581Sta": 15959, "\u2581Stadium": 23758, "\u2581Stan": 27098, "\u2581Stand": 31159, "\u2581Standard": 16113, "\u2581Star": 8745, "\u2581Start": 22874, "\u2581State": 9544, "\u2581States": 14344, "\u2581Station": 9353, "\u2581Stay": 23517, "\u2581Ste": 14229, "\u2581Steam": 18635, "\u2581Steel": 29284, "\u2581Step": 17780, "\u2581Stephen": 30764, "\u2581Stock": 30624, "\u2581Stone": 24786, "\u2581Storage": 26603, "\u2581Store": 10374, "\u2581Story": 18428, "\u2581Str": 6236, "\u2581Street": 1568, "\u2581Student": 30737, "\u2581Studies": 31254, "\u2581Studio": 6522, "\u2581Studios": 26549, "\u2581Study": 24564, "\u2581Style": 28870, "\u2581Su": 6049, "\u2581Sub": 15210, "\u2581Suite": 11574, "\u2581Suites": 7938, "\u2581Summer": 25169, "\u2581Sun": 8817, "\u2581SunPorno": 25899, "\u2581Super": 7323, "\u2581Support": 22036, "\u2581Sur": 14406, "\u2581Surf": 30821, "\u2581Surface": 30517, "\u2581SurveyMonkey": 27870, "\u2581Suunto": 30120, "\u2581Sw": 11331, "\u2581Sweet": 24959, "\u2581Swift": 30844, "\u2581Switch": 29740, "\u2581Sy": 15456, "\u2581Sydney": 28156, "\u2581Syn": 24573, "\u2581System": 8584, "\u2581Systems": 16478, "\u2581T": 407, "\u2581TA": 14073, "\u2581TC": 18879, "\u2581TCP": 21683, "\u2581TE": 17909, "\u2581TED": 14790, "\u2581TEL": 19810, "\u2581TFT": 22090, "\u2581TH": 15780, "\u2581THE": 8923, "\u2581TM": 13590, "\u2581TNT": 12096, "\u2581TO": 10858, "\u2581TOEFL": 23667, "\u2581TOP": 19206, "\u2581TP": 17197, "\u2581TPE": 29472, "\u2581TR": 15562, "\u2581TS": 9020, "\u2581TUV": 31113, "\u2581TV": 703, "\u2581TXXX": 2386, "\u2581Ta": 6654, "\u2581Tab": 29664, "\u2581Table": 27940, "\u2581Tableau": 12993, "\u2581Tag": 24894, "\u2581Tags": 8174, "\u2581Tai": 22469, "\u2581Take": 24238, "\u2581Talk": 25251, "\u2581Tam": 22541, "\u2581Tan": 18258, "\u2581Tar": 24453, "\u2581Tax": 26395, "\u2581Taxi": 31312, "\u2581Taylor": 28846, "\u2581Te": 13465, "\u2581Tea": 18955, "\u2581Team": 22719, "\u2581Tech": 16531, "\u2581Techni": 27698, "\u2581Technologies": 24272, "\u2581Technology": 9848, "\u2581Teen": 29918, "\u2581Tel": 15741, "\u2581Tele": 18507, "\u2581Temp": 28152, "\u2581Temple": 17951, "\u2581Ten": 16103, "\u2581Ter": 17929, "\u2581Term": 30488, "\u2581Terminal": 30932, "\u2581Terrace": 25785, "\u2581Tesla": 30030, "\u2581Test": 17111, "\u2581Texas": 28157, "\u2581Text": 25135, "\u2581Th": 5993, "\u2581Thai": 29370, "\u2581Than": 27755, "\u2581Thank": 30991, "\u2581That": 15597, "\u2581The": 470, "\u2581Theater": 24960, "\u2581Theatre": 17943, "\u2581Theme": 30108, "\u2581There": 19803, "\u2581Things": 27979, "\u2581Think": 19455, "\u2581This": 12603, "\u2581Thomas": 21287, "\u2581Thr": 24773, "\u2581Three": 24077, "\u2581Ti": 6731, "\u2581Tian": 29185, "\u2581Tim": 29784, "\u2581Time": 8710, "\u2581Times": 15947, "\u2581Tits": 19764, "\u2581Tna": 10735, "\u2581To": 3376, "\u2581Today": 29336, "\u2581Tokyo": 29619, "\u2581Tom": 13638, "\u2581Tool": 15545, "\u2581Top": 10500, "\u2581Tor": 17232, "\u2581Torre": 31246, "\u2581Total": 20077, "\u2581Touch": 24179, "\u2581Tour": 11510, "\u2581Tower": 12061, "\u2581Town": 10222, "\u2581Tra": 9101, "\u2581Track": 27200, "\u2581Trade": 18520, "\u2581Train": 20766, "\u2581Tranny": 22751, "\u2581Trans": 8593, "\u2581Travel": 15967, "\u2581Tre": 15524, "\u2581Tree": 23079, "\u2581Trenbolone": 29306, "\u2581Trend": 31284, "\u2581Tri": 8750, "\u2581Trip": 27048, "\u2581Tro": 17127, "\u2581Tru": 13529, "\u2581True": 23416, "\u2581Trump": 29156, "\u2581Trust": 24205, "\u2581Try": 12682, "\u2581Tu": 10747, "\u2581Tube": 6304, "\u2581TubeWolf": 21728, "\u2581Tur": 16764, "\u2581Turbo": 28475, "\u2581Turn": 26746, "\u2581Twin": 28827, "\u2581Twitter": 13280, "\u2581Two": 15964, "\u2581Ty": 22339, "\u2581Type": 17459, "\u2581U": 1181, "\u2581UAE": 29963, "\u2581UC": 13848, "\u2581UEFA": 18138, "\u2581UFC": 29342, "\u2581UFO": 20497, "\u2581UHF": 29045, "\u2581UI": 15017, "\u2581UK": 19111, "\u2581UL": 11336, "\u2581UN": 7881, "\u2581UNI": 24614, "\u2581UP": 17759, "\u2581UPS": 10346, "\u2581URL": 4437, "\u2581US": 1085, "\u2581USA": 15238, "\u2581USB": 2002, "\u2581USD": 3833, "\u2581UTC": 27364, "\u2581UV": 7698, "\u2581UX": 24845, "\u2581Ul": 22898, "\u2581Ulitsa": 16535, "\u2581Ultra": 21734, "\u2581Un": 7956, "\u2581Under": 21829, "\u2581Uni": 12219, "\u2581Union": 16522, "\u2581Unit": 21395, "\u2581United": 10292, "\u2581Unity": 28880, "\u2581University": 4413, "\u2581Up": 9294, "\u2581Update": 24655, "\u2581UpdateTube": 29737, "\u2581Urban": 29135, "\u2581Us": 11661, "\u2581User": 20582, "\u2581V": 557, "\u2581VGA": 25588, "\u2581VI": 14309, "\u2581VIP": 12656, "\u2581VM": 18369, "\u2581VMware": 11217, "\u2581VOD": 28971, "\u2581VPN": 5793, "\u2581VR": 10910, "\u2581VS": 19936, "\u2581Val": 10005, "\u2581Valley": 18291, "\u2581Value": 27409, "\u2581Van": 16899, "\u2581Var": 24456, "\u2581Vegas": 21147, "\u2581Vel": 27512, "\u2581Ven": 17135, "\u2581Ver": 7098, "\u2581Version": 18067, "\u2581Vi": 4644, "\u2581Via": 2909, "\u2581Vic": 25423, "\u2581Victoria": 22160, "\u2581Vid": 26350, "\u2581Video": 11099, "\u2581View": 7296, "\u2581Views": 18775, "\u2581Villa": 4362, "\u2581Village": 13106, "\u2581Vin": 21871, "\u2581Vintage": 20652, "\u2581Vip": 9727, "\u2581Virtual": 22795, "\u2581Visa": 27271, "\u2581Vision": 26526, "\u2581Visit": 24858, "\u2581Vista": 15707, "\u2581Visual": 15685, "\u2581Viva": 25088, "\u2581Vo": 14368, "\u2581VoIP": 30354, "\u2581Vol": 12516, "\u2581Volume": 29833, "\u2581Voyeur": 15873, "\u2581W": 651, "\u2581WA": 12416, "\u2581WE": 24937, "\u2581WEB": 6741, "\u2581WHO": 24083, "\u2581WI": 15172, "\u2581WIFI": 28473, "\u2581WP": 16748, "\u2581WW": 21263, "\u2581Wa": 11185, "\u2581Wal": 15001, "\u2581Walk": 12778, "\u2581Wall": 18013, "\u2581Wank": 23489, "\u2581Want": 24964, "\u2581War": 6456, "\u2581Was": 26480, "\u2581Washington": 20739, "\u2581Watch": 15838, "\u2581Water": 10407, "\u2581Wave": 26070, "\u2581Way": 10958, "\u2581We": 2279, "\u2581Web": 5103, "\u2581Website": 27438, "\u2581Week": 23587, "\u2581Well": 18053, "\u2581West": 5025, "\u2581Western": 17730, "\u2581Wet": 18731, "\u2581What": 7815, "\u2581WhatsApp": 21404, "\u2581When": 17834, "\u2581Where": 24250, "\u2581Whi": 18982, "\u2581White": 12665, "\u2581Who": 12476, "\u2581Why": 18907, "\u2581Wi": 2608, "\u2581WiFi": 12881, "\u2581Wifi": 30532, "\u2581Wil": 18490, "\u2581Wild": 23744, "\u2581Will": 15628, "\u2581William": 16030, "\u2581Win": 8397, "\u2581Wind": 20926, "\u2581Windows": 920, "\u2581Wine": 29009, "\u2581Winter": 31306, "\u2581With": 9151, "\u2581Wo": 23003, "\u2581Wolf": 28772, "\u2581Women": 21661, "\u2581Wonder": 28269, "\u2581Wood": 17215, "\u2581Word": 8658, "\u2581WordPress": 14763, "\u2581Work": 7915, "\u2581World": 3866, "\u2581X": 612, "\u2581XL": 21548, "\u2581XM": 21952, "\u2581XML": 17038, "\u2581XNUMX": 27335, "\u2581XP": 8060, "\u2581XXX": 3155, "\u2581Xbox": 9829, "\u2581XenMobile": 21817, "\u2581Xi": 21144, "\u2581Xiaomi": 19298, "\u2581Xin": 25923, "\u2581Xo": 4582, "\u2581Xvideos": 14570, "\u2581Y": 1680, "\u2581YOU": 21471, "\u2581Ya": 15089, "\u2581Yan": 28079, "\u2581Yang": 30695, "\u2581Ye": 20099, "\u2581Year": 15301, "\u2581Yellow": 30514, "\u2581Yep": 30878, "\u2581Yes": 24161, "\u2581Yo": 16864, "\u2581Yobt": 22242, "\u2581Yodot": 10623, "\u2581York": 7845, "\u2581You": 2628, "\u2581YouTube": 5090, "\u2581Young": 18005, "\u2581Your": 5253, "\u2581Youth": 26735, "\u2581Yu": 16783, "\u2581Z": 1379, "\u2581ZIP": 19035, "\u2581Za": 19030, "\u2581Ze": 18740, "\u2581Zen": 23809, "\u2581Zero": 28392, "\u2581Zhong": 29538, "\u2581Zip": 25433, "\u2581Zone": 26639, "\u2581Zoo": 16891, "\u2581[": 150, "\u2581[...]": 4469, "\u2581[10": 24532, "\u2581[18": 25398, "\u2581[1]": 6070, "\u2581[23": 25545, "\u2581[2]": 9520, "\u2581[3]": 16214, "\u2581[4]": 16855, "\u2581[5": 24089, "\u2581[5]": 23019, "\u2581[6]": 25696, "\u2581[7": 23438, "\u2581[7]": 26073, "\u2581[8]": 24421, "\u2581[9]": 27999, "\u2581[[": 16501, "\u2581\\": 9714, "\u2581]": 3263, "\u2581^": 17379, "\u2581^^": 6368, "\u2581_": 322, "\u2581`": 5149, "\u2581a": 338, "\u2581ab": 20201, "\u2581about": 9162, "\u2581ac": 11594, "\u2581access": 18353, "\u2581account": 27565, "\u2581ad": 10880, "\u2581add": 17631, "\u2581address": 27450, "\u2581after": 21732, "\u2581again": 20332, "\u2581ago": 21546, "\u2581al": 6966, "\u2581all": 5354, "\u2581also": 20339, "\u2581always": 28265, "\u2581am": 7958, "\u2581amateur": 30923, "\u2581an": 3501, "\u2581anal": 26355, "\u2581and": 350, "\u2581another": 27773, "\u2581any": 11839, "\u2581app": 8539, "\u2581appear": 26944, "\u2581application": 16536, "\u2581are": 3218, "\u2581around": 28969, "\u2581art": 23530, "\u2581as": 3879, "\u2581ass": 14426, "\u2581at": 3259, "\u2581auto": 25673, "\u2581available": 5841, "\u2581away": 24603, "\u2581b": 1661, "\u2581baby": 25779, "\u2581back": 15194, "\u2581backup": 31205, "\u2581bar": 18023, "\u2581be": 1859, "\u2581beach": 31153, "\u2581because": 23851, "\u2581been": 19650, "\u2581before": 20740, "\u2581best": 22045, "\u2581better": 26930, "\u2581between": 26402, "\u2581big": 18432, "\u2581black": 23280, "\u2581blo": 20475, "\u2581blue": 25369, "\u2581bo": 13739, "\u2581body": 25281, "\u2581book": 20847, "\u2581both": 30454, "\u2581box": 23991, "\u2581break": 27348, "\u2581brother": 30420, "\u2581bu": 11774, "\u2581business": 28847, "\u2581but": 8993, "\u2581by": 2139, "\u2581c": 1598, "\u2581call": 15806, "\u2581came": 24147, "\u2581can": 3450, "\u2581cannot": 27485, "\u2581cap": 19946, "\u2581car": 11469, "\u2581cat": 20839, "\u2581ch": 8044, "\u2581change": 14867, "\u2581character": 29136, "\u2581check": 25073, "\u2581class": 17987, "\u2581click": 27148, "\u2581close": 26709, "\u2581cm": 10447, "\u2581cnc": 30534, "\u2581co": 6554, "\u2581cock": 26240, "\u2581code": 16626, "\u2581coll": 30574, "\u2581collection": 27545, "\u2581column": 27122, "\u2581come": 19007, "\u2581command": 29046, "\u2581comp": 9137, "\u2581component": 31011, "\u2581computer": 28760, "\u2581con": 4528, "\u2581connection": 30135, "\u2581contact": 29518, "\u2581contain": 22068, "\u2581content": 22717, "\u2581control": 16071, "\u2581cor": 25546, "\u2581could": 27976, "\u2581cr": 12185, "\u2581create": 22311, "\u2581created": 31238, "\u2581cum": 30013, "\u2581current": 27127, "\u2581custom": 21314, "\u2581d": 2402, "\u2581da": 13321, "\u2581data": 5510, "\u2581database": 15298, "\u2581day": 12686, "\u2581de": 1351, "\u2581death": 31145, "\u2581default": 28056, "\u2581del": 9111, "\u2581des": 15095, "\u2581design": 25575, "\u2581develop": 30176, "\u2581device": 23855, "\u2581di": 6093, "\u2581dick": 30791, "\u2581did": 28215, "\u2581different": 27336, "\u2581direct": 24219, "\u2581dis": 8112, "\u2581display": 27771, "\u2581do": 2950, "\u2581does": 20476, "\u2581don": 13949, "\u2581down": 19681, "\u2581dr": 15486, "\u2581drop": 30690, "\u2581du": 16189, "\u2581dur": 9508, "\u2581e": 2016, "\u2581each": 23380, "\u2581effect": 28942, "\u2581element": 25698, "\u2581en": 8635, "\u2581enable": 30361, "\u2581end": 20536, "\u2581enter": 30560, "\u2581error": 24646, "\u2581et": 19076, "\u2581etc": 16474, "\u2581event": 22664, "\u2581every": 18686, "\u2581ex": 4499, "\u2581example": 20297, "\u2581f": 1947, "\u2581fa": 11916, "\u2581fail": 29967, "\u2581family": 30315, "\u2581far": 28568, "\u2581feature": 30750, "\u2581feel": 25984, "\u2581fetish": 29222, "\u2581file": 10845, "\u2581filter": 27041, "\u2581find": 24080, "\u2581first": 12087, "\u2581fl": 13492, "\u2581fo": 14680, "\u2581follow": 31094, "\u2581following": 18222, "\u2581for": 894, "\u2581form": 19821, "\u2581found": 13403, "\u2581free": 14610, "\u2581friends": 29698, "\u2581from": 3233, "\u2581ft": 22448, "\u2581fuck": 13555, "\u2581full": 22456, "\u2581fun": 28917, "\u2581function": 24470, "\u2581g": 2452, "\u2581game": 19795, "\u2581geo": 30989, "\u2581get": 12406, "\u2581gets": 14753, "\u2581getting": 30145, "\u2581girl": 15828, "\u2581girls": 20287, "\u2581give": 15995, "\u2581go": 8281, "\u2581going": 29180, "\u2581good": 13191, "\u2581got": 24324, "\u2581gr": 19859, "\u2581great": 21735, "\u2581group": 18371, "\u2581grow": 30992, "\u2581guy": 25077, "\u2581h": 3677, "\u2581ha": 18706, "\u2581had": 22943, "\u2581hand": 14932, "\u2581hard": 19881, "\u2581has": 9305, "\u2581have": 3100, "\u2581having": 30943, "\u2581hd": 11111, "\u2581he": 5630, "\u2581head": 23545, "\u2581heart": 21903, "\u2581help": 18480, "\u2581her": 14951, "\u2581here": 17586, "\u2581high": 19498, "\u2581him": 13229, "\u2581his": 12006, "\u2581ho": 14205, "\u2581home": 14039, "\u2581hot": 22226, "\u2581hotel": 25617, "\u2581hotels": 19997, "\u2581house": 24120, "\u2581how": 13411, "\u2581href": 19021, "\u2581http": 10648, "\u2581https": 15724, "\u2581human": 30757, "\u2581i": 2524, "\u2581iCloud": 14573, "\u2581iOS": 5731, "\u2581iPad": 9099, "\u2581iPhone": 5678, "\u2581iPod": 11757, "\u2581iTunes": 11891, "\u2581if": 10990, "\u2581im": 15275, "\u2581image": 26327, "\u2581in": 433, "\u2581include": 25055, "\u2581index": 22981, "\u2581info": 15758, "\u2581information": 17141, "\u2581initial": 30339, "\u2581int": 22510, "\u2581inter": 14784, "\u2581interface": 28569, "\u2581into": 15101, "\u2581is": 1038, "\u2581it": 3034, "\u2581item": 24487, "\u2581its": 21525, "\u2581j": 7082, "\u2581ja": 16319, "\u2581ju": 24124, "\u2581just": 15212, "\u2581k": 3957, "\u2581keep": 26614, "\u2581key": 14606, "\u2581kg": 10639, "\u2581king": 20827, "\u2581km": 717, "\u2581know": 10814, "\u2581l": 5548, "\u2581la": 5622, "\u2581language": 25679, "\u2581last": 25592, "\u2581le": 11477, "\u2581lead": 26820, "\u2581learn": 27250, "\u2581least": 29057, "\u2581led": 22451, "\u2581let": 17854, "\u2581level": 26939, "\u2581li": 12151, "\u2581life": 12361, "\u2581light": 23222, "\u2581like": 8453, "\u2581limit": 30138, "\u2581line": 22800, "\u2581list": 14624, "\u2581little": 27123, "\u2581live": 17426, "\u2581lo": 9186, "\u2581log": 15285, "\u2581long": 18923, "\u2581look": 21691, "\u2581love": 8191, "\u2581m": 1357, "\u2581ma": 10520, "\u2581macOS": 21490, "\u2581machine": 28943, "\u2581made": 25922, "\u2581make": 11247, "\u2581man": 6711, "\u2581many": 25505, "\u2581mar": 14545, "\u2581match": 30879, "\u2581mature": 30536, "\u2581may": 14690, "\u2581me": 2730, "\u2581member": 27677, "\u2581men": 23870, "\u2581message": 28363, "\u2581method": 17723, "\u2581mg": 11209, "\u2581mi": 11266, "\u2581micro": 19382, "\u2581might": 28690, "\u2581milf": 26706, "\u2581min": 18453, "\u2581mind": 27959, "\u2581mini": 21591, "\u2581ml": 22403, "\u2581mm": 2922, "\u2581mo": 9104, "\u2581mod": 15726, "\u2581mode": 28907, "\u2581money": 30139, "\u2581more": 6770, "\u2581most": 27501, "\u2581move": 28811, "\u2581movie": 30763, "\u2581mp": 22436, "\u2581much": 30869, "\u2581music": 31126, "\u2581must": 18146, "\u2581my": 3975, "\u2581n": 3103, "\u2581name": 9344, "\u2581nano": 23597, "\u2581nbsp": 12059, "\u2581ne": 16543, "\u2581need": 13224, "\u2581network": 25574, "\u2581never": 23680, "\u2581new": 9749, "\u2581next": 28953, "\u2581nipples": 29137, "\u2581no": 6099, "\u2581non": 18990, "\u2581not": 3147, "\u2581now": 17168, "\u2581null": 31127, "\u2581number": 14881, "\u2581o": 12597, "\u2581ob": 24342, "\u2581object": 18478, "\u2581of": 218, "\u2581off": 17098, "\u2581office": 30950, "\u2581old": 19807, "\u2581on": 1409, "\u2581one": 5784, "\u2581only": 12967, "\u2581op": 20109, "\u2581open": 18925, "\u2581or": 2501, "\u2581order": 25138, "\u2581other": 11960, "\u2581our": 13267, "\u2581out": 7028, "\u2581over": 12426, "\u2581own": 22690, "\u2581p": 1677, "\u2581pH": 26177, "\u2581pa": 13029, "\u2581package": 29315, "\u2581page": 17229, "\u2581par": 20000, "\u2581parameter": 31177, "\u2581part": 12828, "\u2581party": 29454, "\u2581pass": 20294, "\u2581pay": 24528, "\u2581pe": 17096, "\u2581people": 18754, "\u2581per": 10780, "\u2581perform": 26940, "\u2581person": 30789, "\u2581personal": 24558, "\u2581picture": 30911, "\u2581place": 24531, "\u2581plan": 19074, "\u2581play": 14332, "\u2581please": 30337, "\u2581po": 12337, "\u2581point": 22414, "\u2581poly": 23969, "\u2581porn": 25467, "\u2581post": 13435, "\u2581pov": 27598, "\u2581power": 17995, "\u2581pre": 7525, "\u2581pri": 17825, "\u2581pro": 5682, "\u2581process": 17445, "\u2581product": 23006, "\u2581program": 23768, "\u2581project": 24966, "\u2581property": 29712, "\u2581provide": 21663, "\u2581pvc": 27439, "\u2581q": 20681, "\u2581r": 5125, "\u2581re": 2515, "\u2581read": 14223, "\u2581reason": 31352, "\u2581rec": 24699, "\u2581record": 29330, "\u2581ref": 25623, "\u2581release": 28553, "\u2581report": 19034, "\u2581requested": 22326, "\u2581require": 24370, "\u2581reserved": 22964, "\u2581resource": 28070, "\u2581respon": 29821, "\u2581result": 27128, "\u2581return": 25776, "\u2581right": 17123, "\u2581rights": 22117, "\u2581ro": 13500, "\u2581room": 13112, "\u2581rule": 28107, "\u2581run": 16736, "\u2581s": 1236, "\u2581sa": 10614, "\u2581said": 20245, "\u2581same": 21086, "\u2581save": 28255, "\u2581say": 14288, "\u2581sc": 15332, "\u2581school": 28854, "\u2581se": 13139, "\u2581sea": 24745, "\u2581second": 23571, "\u2581see": 10028, "\u2581select": 17947, "\u2581server": 11056, "\u2581service": 17769, "\u2581set": 11524, "\u2581sex": 8877, "\u2581sh": 15678, "\u2581sha": 15937, "\u2581shall": 28976, "\u2581she": 20942, "\u2581should": 18687, "\u2581show": 13038, "\u2581sign": 18619, "\u2581sin": 21770, "\u2581single": 24665, "\u2581size": 29252, "\u2581sm": 23803, "\u2581so": 5996, "\u2581software": 30121, "\u2581some": 14291, "\u2581something": 29052, "\u2581source": 24615, "\u2581sp": 9644, "\u2581specific": 31152, "\u2581specified": 31178, "\u2581srt": 30964, "\u2581st": 7037, "\u2581standard": 30320, "\u2581stars": 5959, "\u2581start": 7682, "\u2581state": 20941, "\u2581step": 18151, "\u2581still": 30356, "\u2581stop": 30162, "\u2581story": 27464, "\u2581str": 15052, "\u2581string": 25835, "\u2581su": 12391, "\u2581sub": 12252, "\u2581such": 24198, "\u2581suite": 30243, "\u2581super": 23448, "\u2581support": 19657, "\u2581sur": 20197, "\u2581sw": 16830, "\u2581system": 12529, "\u2581t": 2406, "\u2581table": 17401, "\u2581take": 19221, "\u2581takes": 28810, "\u2581target": 30031, "\u2581tax": 30988, "\u2581tea": 25126, "\u2581teach": 30658, "\u2581teen": 19168, "\u2581tell": 29163, "\u2581temp": 23764, "\u2581tesa": 30680, "\u2581test": 15589, "\u2581text": 24008, "\u2581th": 11802, "\u2581than": 11511, "\u2581that": 2379, "\u2581the": 191, "\u2581their": 17261, "\u2581them": 14420, "\u2581then": 24047, "\u2581there": 15119, "\u2581these": 23954, "\u2581they": 11721, "\u2581things": 24574, "\u2581think": 23170, "\u2581this": 4246, "\u2581those": 24757, "\u2581thought": 26701, "\u2581three": 29152, "\u2581through": 18544, "\u2581time": 7491, "\u2581times": 9959, "\u2581to": 400, "\u2581top": 22953, "\u2581touch": 26812, "\u2581tr": 10107, "\u2581trans": 13810, "\u2581tri": 16653, "\u2581true": 21993, "\u2581turn": 29239, "\u2581twin": 30629, "\u2581two": 17090, "\u2581type": 11116, "\u2581u": 16774, "\u2581un": 7029, "\u2581under": 22838, "\u2581up": 6701, "\u2581update": 23671, "\u2581us": 9586, "\u2581use": 8478, "\u2581used": 15702, "\u2581user": 12517, "\u2581using": 22347, "\u2581v": 2863, "\u2581vCenter": 18545, "\u2581vSphere": 20566, "\u2581value": 11616, "\u2581version": 24618, "\u2581very": 27356, "\u2581vi": 15921, "\u2581video": 15664, "\u2581videos": 24225, "\u2581view": 15316, "\u2581vs": 14214, "\u2581w": 3363, "\u2581walk": 25479, "\u2581want": 12189, "\u2581war": 25726, "\u2581was": 7124, "\u2581water": 26359, "\u2581way": 14212, "\u2581we": 5199, "\u2581web": 20711, "\u2581were": 25914, "\u2581what": 9827, "\u2581when": 10318, "\u2581where": 20539, "\u2581whether": 30421, "\u2581which": 13869, "\u2581while": 30590, "\u2581who": 7957, "\u2581why": 30042, "\u2581wife": 25894, "\u2581will": 5825, "\u2581window": 31089, "\u2581windows": 22185, "\u2581with": 2049, "\u2581without": 22766, "\u2581woman": 29519, "\u2581women": 31012, "\u2581work": 10906, "\u2581world": 13925, "\u2581would": 26080, "\u2581www": 4381, "\u2581x": 1182, "\u2581xHamster": 220, "\u2581xxx": 23805, "\u2581y": 5584, "\u2581year": 27425, "\u2581years": 22272, "\u2581you": 1327, "\u2581young": 24579, "\u2581your": 3297, "\u2581z": 11775, "\u2581{": 4875, "\u2581{\\": 22763, "\u2581{{": 19008, "\u2581}": 8259, "\u2581~": 1005, "\u2581\u00a3": 8806, "\u2581\u00a5": 14401, "\u2581\u00a9": 3787, "\u2581\u00ab": 8080, "\u2581\u00b0": 3962, "\u2581\u00b1": 12298, "\u2581\u00b6": 21121, "\u2581\u00b7": 1594, "\u2581\u00b7\u00b7\u00b7": 5420, "\u2581\u00b7\u2060\u00b7\u2060\u00b7": 3611, "\u2581\u00bb": 2288, "\u2581\u00d7": 6842, "\u2581\u03a6": 26835, "\u2581\u05de": 21835, "\u2581\u1100": 16238, "\u2581\u110b": 20395, "\u2581\u110f": 20860, "\u2581\u110f\u110f": 14280, "\u2581\u110f\u110f\u110f": 21042, "\u2581\u1112\u1112": 11029, "\u2581\u1172": 22191, "\u2581\u1172\u1172": 20598, "\u2581\u1173": 21342, "\u2581\u119e": 14477, "\u2581\u2013": 395, "\u2581\u2014": 4152, "\u2581\u2014\u2014": 27702, "\u2581\u2015": 19510, "\u2581\u2018": 78, "\u2581\u201a": 27264, "\u2581\u201c": 39, "\u2581\u201c[": 13589, "\u2581\u201c\u2018": 8814, "\u2581\u2022": 1329, "\u2581\u203a": 10570, "\u2581\u203b": 5334, "\u2581\u20a9": 16341, "\u2581\u20ac": 4634, "\u2581\u2190": 15754, "\u2581\u2191": 12473, "\u2581\u2192": 3683, "\u2581\u2264": 10956, "\u2581\u22640.": 31299, "\u2581\u2265": 13855, "\u2581\u25a0": 5662, "\u2581\u25a1": 6670, "\u2581\u25aa": 11128, "\u2581\u25b2": 10334, "\u2581\u25b6": 10755, "\u2581\u25b7": 21581, "\u2581\u25ba": 24078, "\u2581\u25c6": 7754, "\u2581\u25c7": 14362, "\u2581\u25cb": 2421, "\u2581\u25ce": 21607, "\u2581\u25cf": 2775, "\u2581\u2605": 12835, "\u2581\u2665": 23092, "\u2581\u266a": 6133, "\u2581\u266b": 20356, "\u2581\u3008": 8157, "\u2581\u300a": 2180, "\u2581\u300b": 16552, "\u2581\u300c": 654, "\u2581\u300d": 18516, "\u2581\u300e": 5571, "\u2581\u3010": 5867, "\u2581\u30fb": 10130, "\u2581\u4e2d": 20148, "\u2581\u4e3b": 15879, "\u2581\u5b50\u5b6b": 30422, "\u2581\u738b": 15264, "\u2581\u767e\u59d3": 29713, "\u2581\u8005": 11444, "\u2581\u81ea\u5df1": 30670, "\u2581\u884c": 25334, "\u2581\uac00": 52, "\u2581\uac00\uac8c": 3055, "\u2581\uac00\uaca9": 797, "\u2581\uac00\uaca9\uc5d0": 7907, "\u2581\uac00\uaca9\uc73c\ub85c": 6906, "\u2581\uac00\uaca9\uc740": 5824, "\u2581\uac00\uaca9\uc744": 5524, "\u2581\uac00\uaca9\uc774": 3719, "\u2581\uac00\uace0": 2873, "\u2581\uac00\uacf5": 3014, "\u2581\uac00\uad6c": 3955, "\u2581\uac00\uad6c\uac00": 20046, "\u2581\uac00\uae30": 4999, "\u2581\uac00\uae4c\uc654": 29855, "\u2581\uac00\uae4c\uc6b0\uba70": 25564, "\u2581\uac00\uae4c\uc6b4": 1479, "\u2581\uac00\uae4c\uc6cc": 15555, "\u2581\uac00\uae4c\uc6cc\uc9c0": 24153, "\u2581\uac00\uae4c\uc6e0": 22330, "\u2581\uac00\uae4c\uc774": 1890, "\u2581\uac00\uae4c\uc774\uc5d0": 16148, "\u2581\uac00\uae5d": 23306, "\u2581\uac00\uae5d\uac8c": 17222, "\u2581\uac00\uae5d\uace0": 29273, "\u2581\uac00\uae5d\ub2e4": 22280, "\u2581\uac00\uae5d\uc2b5\ub2c8\ub2e4": 19309, "\u2581\uac00\uafb8": 27530, "\u2581\uac00\ub054": 4725, "\u2581\uac00\ub054\uc529": 20912, "\u2581\uac00\ub054\uc740": 15544, "\u2581\uac00\ub098\uc548": 11707, "\u2581\uac00\ub09c": 5027, "\u2581\uac00\ub09c\ud55c": 4007, "\u2581\uac00\ub294": 1516, "\u2581\uac00\ub2a0": 28735, "\u2581\uac00\ub2a0\uc790": 27607, "\u2581\uac00\ub2a5": 799, "\u2581\uac00\ub2a5\uc131": 4125, "\u2581\uac00\ub2a5\uc131\uc5d0": 22464, "\u2581\uac00\ub2a5\uc131\uc740": 17205, "\u2581\uac00\ub2a5\uc131\uc744": 6185, "\u2581\uac00\ub2a5\uc131\uc774": 3300, "\u2581\uac00\ub2a5\ucf00": 28515, "\u2581\uac00\ub2a5\ud558\uac8c": 5935, "\u2581\uac00\ub2a5\ud558\uace0": 23332, "\u2581\uac00\ub2a5\ud558\ub2e4": 6300, "\u2581\uac00\ub2a5\ud558\ub2e4\uba74": 26660, "\u2581\uac00\ub2a5\ud558\ub3c4\ub85d": 26890, "\u2581\uac00\ub2a5\ud558\uba70": 15574, "\u2581\uac00\ub2a5\ud558\uba74": 26434, "\u2581\uac00\ub2a5\ud558\uc9c0": 22179, "\u2581\uac00\ub2a5\ud55c": 700, "\u2581\uac00\ub2a5\ud55c\uac00\uc694": 29879, "\u2581\uac00\ub2a5\ud560": 17840, "\u2581\uac00\ub2a5\ud569\ub2c8\ub2e4": 1774, "\u2581\uac00\ub2f4": 18493, "\u2581\uac00\ub3d9": 4672, "\u2581\uac00\ub450": 21771, "\u2581\uac00\ub4dd": 1759, "\u2581\uac00\ub4dd\ucc28": 28514, "\u2581\uac00\ub4dd\ud55c": 11205, "\u2581\uac00\ub4e0": 4911, "\u2581\uac00\ub77c": 8633, "\u2581\uac00\ub77c\uc0ac\ub300": 5697, "\u2581\uac00\ub77c\uc549": 18001, "\u2581\uac00\ub7c9": 10999, "\u2581\uac00\ub824": 12446, "\u2581\uac00\ub839": 23514, "\u2581\uac00\ub85c": 15728, "\u2581\uac00\ub85c\ub418": 2223, "\u2581\uac00\ub85c\ub4f1": 18768, "\u2581\uac00\ub85c\ub9c9": 25697, "\u2581\uac00\ub85c\uc7a5": 29895, "\u2581\uac00\ub85c\uc9c0\ub974": 30344, "\u2581\uac00\ub85c\uc9c8\ub7ec": 27239, "\u2581\uac00\ub8e8": 14267, "\u2581\uac00\ub974": 11789, "\u2581\uac00\ub974\uc2dc\uc544": 30612, "\u2581\uac00\ub974\uccd0": 4003, "\u2581\uac00\ub974\ucce4": 17985, "\u2581\uac00\ub974\ucce4\ub2e4": 22607, "\u2581\uac00\ub974\uce58": 5541, "\u2581\uac00\ub974\uce58\uace0": 10231, "\u2581\uac00\ub974\uce58\uae30": 23295, "\u2581\uac00\ub974\uce58\ub294": 5164, "\u2581\uac00\ub974\uce58\uc2dc": 29378, "\u2581\uac00\ub974\uce5c": 26673, "\u2581\uac00\ub974\uce5c\ub2e4": 24115, "\u2581\uac00\ub974\uce60": 15253, "\u2581\uac00\ub974\uce68": 3487, "\u2581\uac00\ub974\uce68\uc744": 13094, "\u2581\uac00\ub974\uce69\ub2c8\ub2e4": 25891, "\u2581\uac00\ub9ac": 8268, "\u2581\uac00\ub9ac\ucf1c": 13581, "\u2581\uac00\ub9ac\ud0a4": 21102, "\u2581\uac00\ub9ac\ud0a4\ub294": 15383, "\u2581\uac00\ub9ac\ud0a8\ub2e4": 20742, "\u2581\uac00\ub9ac\ud0b5\ub2c8\ub2e4": 29927, "\u2581\uac00\ub9cc\ud788": 12124, "\u2581\uac00\uba74": 4750, "\u2581\uac00\ubb38": 13035, "\u2581\uac00\ubb44": 20501, "\u2581\uac00\ubc29": 4723, "\u2581\uac00\ubc29\uc744": 21304, "\u2581\uac00\ubcbc\uc6b4": 5842, "\u2581\uac00\ubcc0": 20791, "\u2581\uac00\ubccd\uac8c": 14571, "\u2581\uac00\ubccd\uace0": 23164, "\u2581\uac00\ube0c\ub9ac\uc5d8": 20159, "\u2581\uac00\uc0ac": 13131, "\u2581\uac00\uc0c1": 3117, "\u2581\uac00\uc0c1\ud654": 17010, "\u2581\uac00\uc11c": 1505, "\u2581\uac00\uc124": 14964, "\u2581\uac00\uc18d": 11083, "\u2581\uac00\uc18d\ud654": 11048, "\u2581\uac00\uc194\ub9b0": 22968, "\u2581\uac00\uc218": 10781, "\u2581\uac00\uc2a4": 1948, "\u2581\uac00\uc2b4": 1446, "\u2581\uac00\uc2b4\uc73c\ub85c": 17054, "\u2581\uac00\uc2dc": 7576, "\u2581\uac00\uc2dc\uc131": 23442, "\u2581\uac00\uc2e4": 3722, "\u2581\uac00\uc57c": 4720, "\u2581\uac00\uc5f4": 9604, "\u2581\uac00\uc694": 17254, "\u2581\uac00\uc6a9\uc131": 9782, "\u2581\uac00\uc6b4": 12840, "\u2581\uac00\uc6b4\ub370": 743, "\u2581\uac00\uc6b4\ub370\uc11c": 6680, "\u2581\uac00\uc744": 9392, "\u2581\uac00\uc774\ub4dc": 2065, "\u2581\uac00\uc774\ub4dc\ub77c\uc778": 25079, "\u2581\uac00\uc785": 2320, "\u2581\uac00\uc785\uc790": 20805, "\u2581\uac00\uc785\ud558\uae30": 23461, "\u2581\uac00\uc790": 7806, "\u2581\uac00\uc7a5": 91, "\u2581\uac00\uc7a5\uc790\ub9ac": 9304, "\u2581\uac00\uc815": 981, "\u2581\uac00\uc815\uc5d0\uc11c": 12375, "\u2581\uac00\uc815\uc6a9": 18286, "\u2581\uac00\uc815\uc744": 17693, "\u2581\uac00\uc838": 3105, "\u2581\uac00\uc838\uac00": 11418, "\u2581\uac00\uc838\uac08": 24978, "\u2581\uac00\uc838\uac14": 30296, "\u2581\uac00\uc838\ub2e4": 5991, "\u2581\uac00\uc838\ub2e4\uac00": 20794, "\u2581\uac00\uc838\uc57c": 9571, "\u2581\uac00\uc838\uc624": 7791, "\u2581\uac00\uc838\uc624\uae30": 12824, "\u2581\uac00\uc838\uc624\ub294": 17852, "\u2581\uac00\uc838\uc628": 10275, "\u2581\uac00\uc838\uc62c": 5812, "\u2581\uac00\uc838\uc635\ub2c8\ub2e4": 13582, "\u2581\uac00\uc838\uc640": 15911, "\u2581\uac00\uc838\uc654": 20253, "\u2581\uac00\uc838\uc654\ub2e4": 24382, "\u2581\uac00\uc838\uc654\uc2b5\ub2c8\ub2e4": 30787, "\u2581\uac00\uc84c": 10947, "\u2581\uac00\uc84c\ub2e4": 11758, "\u2581\uac00\uc84c\ub358": 21024, "\u2581\uac00\uc84c\uc2b5\ub2c8\ub2e4": 22001, "\u2581\uac00\uc871": 588, "\u2581\uac00\uc871\uacfc": 6061, "\u2581\uac00\uc871\ub4e4": 20275, "\u2581\uac00\uc871\ub4e4\uacfc": 27642, "\u2581\uac00\uc871\ub4e4\uc5d0\uac8c": 24594, "\u2581\uac00\uc871\ub4e4\uc740": 22048, "\u2581\uac00\uc871\ub4e4\uc774": 18723, "\u2581\uac00\uc871\uc5d0\uac8c": 15042, "\u2581\uac00\uc871\uc740": 9090, "\u2581\uac00\uc871\uc744": 6051, "\u2581\uac00\uc871\uc758": 8233, "\u2581\uac00\uc871\uc774": 5827, "\u2581\uac00\uc8fd": 3374, "\u2581\uac00\uc99d\ud55c": 23074, "\u2581\uac00\uc9c0": 217, "\u2581\uac00\uc9c0\uac00": 10888, "\u2581\uac00\uc9c0\uac8c": 11298, "\u2581\uac00\uc9c0\uace0": 258, "\u2581\uac00\uc9c0\uace0\uc788\ub294": 18779, "\u2581\uac00\uc9c0\uace0\uc788\ub2e4": 13161, "\u2581\uac00\uc9c0\ub294": 8448, "\u2581\uac00\uc9c0\ub97c": 9942, "\u2581\uac00\uc9c0\uba70": 25447, "\u2581\uac00\uc9c0\uc758": 19370, "\u2581\uac00\uc9c4": 355, "\u2581\uac00\uc9c4\ub2e4": 14430, "\u2581\uac00\uc9c8": 2465, "\u2581\uac00\uc9d1\ub2c8\ub2e4": 23030, "\u2581\uac00\uc9dc": 6598, "\u2581\uac00\ucd95": 10270, "\u2581\uac00\uce58": 1561, "\u2581\uac00\uce58\uac00": 3126, "\u2581\uac00\uce58\uad00": 18912, "\u2581\uac00\uce58\ub294": 18578, "\u2581\uac00\uce58\ub97c": 3577, "\u2581\uac00\uce58\uc788\ub294": 22030, "\u2581\uac00\ud1a8\ub9ad": 5946, "\u2581\uac00\ud1a8\ub9ad\uad50\ud68c": 30956, "\u2581\uac00\ud30c\ub978": 31028, "\u2581\uac00\ud574\uc790": 27836, "\u2581\uac00\ud639": 28603, "\u2581\uac00\ud639\ud55c": 22096, "\u2581\uac01": 374, "\u2581\uac01\uac01": 2274, "\u2581\uac01\uac01\uc758": 3641, "\u2581\uac01\uad6d": 15241, "\u2581\uac01\uae30": 9923, "\u2581\uac01\ub3c4": 10393, "\u2581\uac01\uc624": 25386, "\u2581\uac01\uc790": 3358, "\u2581\uac01\uc885": 4460, "\u2581\uac01\uc8fc": 20812, "\u2581\uac04": 851, "\u2581\uac04\uaca9": 3509, "\u2581\uac04\uaca9\uc73c\ub85c": 16001, "\u2581\uac04\uacb0": 21359, "\u2581\uac04\uacfc": 21624, "\u2581\uac04\uad6c": 11666, "\u2581\uac04\ub2e4": 4525, "\u2581\uac04\ub2e4\uba74": 28256, "\u2581\uac04\ub2e8": 6190, "\u2581\uac04\ub2e8\ud558\uac8c": 11038, "\u2581\uac04\ub2e8\ud558\uace0": 12702, "\u2581\uac04\ub2e8\ud558\ub2e4": 28113, "\u2581\uac04\ub2e8\ud55c": 2027, "\u2581\uac04\ub2e8\ud569\ub2c8\ub2e4": 15776, "\u2581\uac04\ub2e8\ud788": 9191, "\u2581\uac04\ub7b5": 15167, "\u2581\uac04\uc0ac\uc774": 30259, "\u2581\uac04\uc12d": 14110, "\u2581\uac04\uc18c\ud654": 17210, "\u2581\uac04\uc2dd": 17531, "\u2581\uac04\uc2e0": 27408, "\u2581\uac04\uc5d0": 7147, "\u2581\uac04\uc5fc": 25395, "\u2581\uac04\uc74c": 16216, "\u2581\uac04\uc758": 4638, "\u2581\uac04\uc774": 17318, "\u2581\uac04\uc808": 15137, "\u2581\uac04\uc808\ud788": 17097, "\u2581\uac04\uc811": 25103, "\u2581\uac04\uc811\uc801": 21879, "\u2581\uac04\uc8fc": 4344, "\u2581\uac04\uc8fc\ub429\ub2c8\ub2e4": 13308, "\u2581\uac04\uc99d": 28685, "\u2581\uac04\uc9c1": 14596, "\u2581\uac04\uccad": 16164, "\u2581\uac04\ud310": 27703, "\u2581\uac04\ud3b8": 14217, "\u2581\uac04\ud3b8\ud558\uac8c": 16885, "\u2581\uac04\ud3b8\ud55c": 19200, "\u2581\uac04\ud589\ubb3c": 21989, "\u2581\uac04\ud638": 14785, "\u2581\uac04\ud638\uc0ac": 3925, "\u2581\uac04\ud639": 22662, "\u2581\uac07\ud600": 12950, "\u2581\uac07\ud78c": 27026, "\u2581\uac08": 744, "\u2581\uac08\uace0\ub9ac": 31038, "\u2581\uac08\ub300\uc544": 30934, "\u2581\uac08\ub4f1": 11302, "\u2581\uac08\ub4f1\uc744": 25443, "\u2581\uac08\ub77c": 9369, "\u2581\uac08\ub798": 28316, "\u2581\uac08\ub9b4\ub808\uc624": 30741, "\u2581\uac08\ub9b4\ub9ac": 16482, "\u2581\uac08\ub9dd": 11398, "\u2581\uac08\uc0c9": 6138, "\u2581\uac08\uc218\ub85d": 17795, "\u2581\uac08\uc544": 16391, "\u2581\uac10": 1873, "\u2581\uac10\uac01": 6319, "\u2581\uac10\uac01\uc744": 16373, "\u2581\uac10\uae08": 24797, "\u2581\uac10\uae30": 10352, "\u2581\uac10\ub2f9": 15827, "\u2581\uac10\ub2f9\ud560": 19935, "\u2581\uac10\ub3c4": 23491, "\u2581\uac10\ub3c5": 2277, "\u2581\uac10\ub3c5\uc790": 12078, "\u2581\uac10\ub3d9": 5516, "\u2581\uac10\ub3d9\uc744": 22832, "\u2581\uac10\ub7c9": 19356, "\u2581\uac10\uba85": 18468, "\u2581\uac10\uc0ac": 1121, "\u2581\uac10\uc0ac\ub4dc\ub9ac": 25414, "\u2581\uac10\uc0ac\ub4dc\ub9bd\ub2c8\ub2e4": 8673, "\u2581\uac10\uc0ac\ub97c": 11164, "\u2581\uac10\uc0ac\uc758": 13784, "\u2581\uac10\uc0ac\ud558\uace0": 21456, "\u2581\uac10\uc0ac\ud558\ub294": 21190, "\u2581\uac10\uc0ac\ud558\ub2e4": 29001, "\u2581\uac10\uc0ac\ud569\ub2c8\ub2e4": 1912, "\u2581\uac10\uc0c1": 8994, "\u2581\uac10\uc0c1\ud560": 25852, "\u2581\uac10\uc131": 18080, "\u2581\uac10\uc18c": 1892, "\u2581\uac10\uc18c\uc2dc\ud0a4\ub294": 30556, "\u2581\uac10\uc18d": 23108, "\u2581\uac10\uc218": 11557, "\u2581\uac10\uc2dc": 3860, "\u2581\uac10\uc2dc\uc790": 18166, "\u2581\uac10\uc2f8": 13947, "\u2581\uac10\uc548": 20373, "\u2581\uac10\uc5fc": 3018, "\u2581\uac10\uc5fc\ub41c": 19824, "\u2581\uac10\uc625": 8644, "\u2581\uac10\uc625\uc5d0": 11644, "\u2581\uac10\uc625\uc5d0\uc11c": 21336, "\u2581\uac10\uc790": 9522, "\u2581\uac10\uc815": 2672, "\u2581\uac10\uc815\uc740": 22844, "\u2581\uac10\uc815\uc744": 6548, "\u2581\uac10\uc815\uc774": 16962, "\u2581\uac10\uc815\uc801": 8154, "\u2581\uac10\uc9c0": 5013, "\u2581\uac10\uc9c0\uae30": 10487, "\u2581\uac10\ucd94": 14750, "\u2581\uac10\ucd94\uc5b4": 29592, "\u2581\uac10\ucd95": 30712, "\u2581\uac10\ud0c4": 16285, "\u2581\uac10\ud788": 11751, "\u2581\uac11": 14886, "\u2581\uac11\ub2c8\ub2e4": 9768, "\u2581\uac11\uc0c1\uc120": 25056, "\u2581\uac11\uc637": 25781, "\u2581\uac11\uc790\uae30": 2817, "\u2581\uac11\uc791\uc2a4": 24526, "\u2581\uac11\uc791\uc2a4\ub7ec\uc6b4": 30492, "\u2581\uac11\ud310": 20166, "\u2581\uac12": 3080, "\u2581\uac12\uc73c\ub85c": 24637, "\u2581\uac12\uc740": 11685, "\u2581\uac12\uc744": 4769, "\u2581\uac12\uc774": 9449, "\u2581\uac12\uc9c4": 27302, "\u2581\uac13": 10611, "\u2581\uac14": 4340, "\u2581\uac14\uace0": 23909, "\u2581\uac14\ub294\ub370": 27722, "\u2581\uac14\ub2e4": 3533, "\u2581\uac14\uc2b5\ub2c8\ub2e4": 11397, "\u2581\uac14\uc744": 14879, "\u2581\uac15": 650, "\u2581\uac15\uac04": 10054, "\u2581\uac15\uad00": 23505, "\u2581\uac15\uad6d": 24162, "\u2581\uac15\ub0a8": 21781, "\u2581\uac15\ub0a8\uad6c": 25486, "\u2581\uac15\ub2f9": 25711, "\u2581\uac15\ub3c4": 4098, "\u2581\uac15\ub825": 4053, "\u2581\uac15\ub825\ud558\uac8c": 20306, "\u2581\uac15\ub825\ud558\uace0": 18122, "\u2581\uac15\ub825\ud55c": 1671, "\u2581\uac15\ub82c": 20714, "\u2581\uac15\ub82c\ud55c": 17413, "\u2581\uac15\ub839": 24000, "\u2581\uac15\ub9bc": 29103, "\u2581\uac15\ubb3c": 23601, "\u2581\uac15\ubc15": 26245, "\u2581\uac15\ubcc0": 30074, "\u2581\uac15\uc0ac": 9652, "\u2581\uac15\uc218\ub7c9": 26518, "\u2581\uac15\uc544\uc9c0": 6346, "\u2581\uac15\uc5f0": 7936, "\u2581\uac15\uc694": 7249, "\u2581\uac15\uc6b0\ub7c9": 26190, "\u2581\uac15\uc744": 19449, "\u2581\uac15\uc758": 5523, "\u2581\uac15\uc758\ub97c": 20150, "\u2581\uac15\uc758\uc2e4": 25001, "\u2581\uac15\uc810": 18975, "\u2581\uac15\uc81c": 6797, "\u2581\uac15\uc81c\ub85c": 20311, "\u2581\uac15\uc870": 3303, "\u2581\uac15\uc870\ud558\uace0": 26898, "\u2581\uac15\uc870\ud588\ub2e4": 12598, "\u2581\uac15\uc88c": 16334, "\u2581\uac15\ucca0": 2064, "\u2581\uac15\ud0c0": 21450, "\u2581\uac15\ud0c8": 28616, "\u2581\uac15\ud558\uac8c": 7334, "\u2581\uac15\ud558\uace0": 16136, "\u2581\uac15\ud558\ub2e4": 19285, "\u2581\uac15\ud55c": 2066, "\u2581\uac15\ud574\uc9c0": 30001, "\u2581\uac15\ud654": 2401, "\u2581\uac15\ud654\ub41c": 22471, "\u2581\uac15\ud654\ud558\uace0": 22382, "\u2581\uac15\ud654\ud558\ub294": 23398, "\u2581\uac15\ud654\ud569\ub2c8\ub2e4": 25451, "\u2581\uac16": 10008, "\u2581\uac16\uac8c": 3192, "\u2581\uac16\uace0": 1344, "\u2581\uac16\uae30": 16115, "\u2581\uac16\ub294": 4161, "\u2581\uac16\ub294\ub2e4": 12030, "\u2581\uac16\ub2e4": 18458, "\u2581\uac16\ub3c4\ub85d": 19533, "\u2581\uac16\uc2b5\ub2c8\ub2e4": 20752, "\u2581\uac16\uc9c0": 9764, "\u2581\uac16\ucd94": 14630, "\u2581\uac16\ucd94\uac8c": 30278, "\u2581\uac16\ucd94\uace0": 2856, "\u2581\uac16\ucd94\uc5b4": 20249, "\u2581\uac16\ucd94\uc5b4\uc838": 29736, "\u2581\uac16\ucd98": 3108, "\u2581\uac16\ucdb0": 26503, "\u2581\uac16\ucdb0\uc838": 10552, "\u2581\uac16\ucdb0\uc9c4": 4866, "\u2581\uac19": 2700, "\u2581\uac19\uac8c": 27600, "\u2581\uac19\uace0": 11126, "\u2581\uac19\uad70\uc694": 27793, "\u2581\uac19\ub124\uc694": 13586, "\u2581\uac19\ub2e4": 1375, "\u2581\uac19\ub2e4\uace0": 14547, "\u2581\uac19\uc2b5\ub2c8\ub2e4": 1267, "\u2581\uac19\uc544": 4770, "\u2581\uac19\uc544\uc11c": 12630, "\u2581\uac19\uc544\uc694": 3113, "\u2581\uac19\uc558": 12777, "\u2581\uac19\uc558\ub2e4": 8377, "\u2581\uac19\uc558\uc2b5\ub2c8\ub2e4": 18623, "\u2581\uac19\uc73c\ub2c8": 21458, "\u2581\uac19\uc73c\ub2c8\ub77c": 26033, "\u2581\uac19\uc73c\uba70": 26442, "\u2581\uac19\uc73c\uba74": 30410, "\u2581\uac19\uc740": 128, "\u2581\uac19\uc740\ub370": 9810, "\u2581\uac19\uc740\ub370\uc694": 25664, "\u2581\uac19\uc744": 16473, "\u2581\uac19\uc74c": 24722, "\u2581\uac19\uc774": 337, "\u2581\uac19\uc9c0": 8076, "\u2581\uac19\uc9c0\ub9cc": 22564, "\u2581\uac1a\uc544": 19746, "\u2581\uac1a\uc73c": 23269, "\u2581\uac1c": 346, "\u2581\uac1c\uac00": 7533, "\u2581\uac1c\uac1c\uc778": 14028, "\u2581\uac1c\uad00": 24330, "\u2581\uac1c\uad6c\ub9ac": 19692, "\u2581\uac1c\uad6d": 14702, "\u2581\uac1c\ub150": 3234, "\u2581\uac1c\ub150\uc740": 14004, "\u2581\uac1c\ub150\uc744": 8416, "\u2581\uac1c\ub150\uc774": 20404, "\u2581\uac1c\ub294": 13502, "\u2581\uac1c\ub7c9": 11347, "\u2581\uac1c\ub97c": 7577, "\u2581\uac1c\ub9c9": 21953, "\u2581\uac1c\ubbf8": 14831, "\u2581\uac1c\ubc1c": 600, "\u2581\uac1c\ubc1c\ub3c4\uc0c1\uad6d": 26288, "\u2581\uac1c\ubc1c\ub418\uc5c8\uc2b5\ub2c8\ub2e4": 23884, "\u2581\uac1c\ubc1c\ub41c": 19545, "\u2581\uac1c\ubc1c\uc5d0": 11826, "\u2581\uac1c\ubc1c\uc744": 9536, "\u2581\uac1c\ubc1c\uc790": 2454, "\u2581\uac1c\ubc1c\ud558\uace0": 10938, "\u2581\uac1c\ubc1c\ud558\uae30": 24388, "\u2581\uac1c\ubc1c\ud558\ub294": 14855, "\u2581\uac1c\ubc1c\ud55c": 15661, "\u2581\uac1c\ubc1c\ud560": 17230, "\u2581\uac1c\ubc1c\ud588\uc2b5\ub2c8\ub2e4": 21980, "\u2581\uac1c\ubc29": 6330, "\u2581\uac1c\ubc29\ud615": 24492, "\u2581\uac1c\ubcc4": 2930, "\u2581\uac1c\ubcc4\uc801\uc73c\ub85c": 9694, "\u2581\uac1c\ubcc4\uc801\uc778": 27001, "\u2581\uac1c\ubd09": 18250, "\u2581\uac1c\uc120": 2228, "\u2581\uac1c\uc120\ub41c": 26969, "\u2581\uac1c\uc120\uc744": 20884, "\u2581\uac1c\uc120\ud558\uace0": 20168, "\u2581\uac1c\uc120\ud558\uae30": 16770, "\u2581\uac1c\uc120\ud558\ub294": 19697, "\u2581\uac1c\uc120\ud560": 24268, "\u2581\uac1c\uc124": 11143, "\u2581\uac1c\uc131": 14828, "\u2581\uac1c\uc218": 16456, "\u2581\uac1c\uc2dc": 10368, "\u2581\uac1c\uc2e0\uad50": 29053, "\u2581\uac1c\uc694": 6556, "\u2581\uac1c\uc6d4": 172, "\u2581\uac1c\uc758": 474, "\u2581\uac1c\uc778": 361, "\u2581\uac1c\uc778\uc131": 24005, "\u2581\uac1c\uc778\uc6a9": 22252, "\u2581\uac1c\uc778\uc758": 6614, "\u2581\uac1c\uc778\uc774": 17510, "\u2581\uac1c\uc778\uc801": 4584, "\u2581\uac1c\uc778\uc801\uc73c\ub85c": 6177, "\u2581\uac1c\uc778\uc801\uc778": 4553, "\u2581\uac1c\uc778\uc815\ubcf4": 2230, "\u2581\uac1c\uc778\uc815\ubcf4\ubcf4\ud638": 19386, "\u2581\uac1c\uc778\uc815\ubcf4\ucc98\ub9ac\ubc29\uce68": 29520, "\u2581\uac1c\uc778\ud654": 20289, "\u2581\uac1c\uc785": 7868, "\u2581\uac1c\uc7a5": 9636, "\u2581\uac1c\uc7a5\ud558\uc600\uc73c\uba70": 29844, "\u2581\uac1c\uc7a5\ud55c": 16634, "\u2581\uac1c\uc815": 9382, "\u2581\uac1c\uc815\ud310": 29970, "\u2581\uac1c\uc870": 11407, "\u2581\uac1c\uc885": 18842, "\u2581\uac1c\ucc99": 17231, "\u2581\uac1c\ucc99\uc790": 28450, "\u2581\uac1c\uccb4": 6139, "\u2581\uac1c\uccb4\ub97c": 23886, "\u2581\uac1c\ucd5c": 3208, "\u2581\uac1c\ucd5c\ub418\ub294": 25544, "\u2581\uac1c\ucd5c\ub429\ub2c8\ub2e4": 29096, "\u2581\uac1c\ud1b5": 28434, "\u2581\uac1c\ud601": 5322, "\u2581\uac1d": 20025, "\u2581\uac1d\uad00\uc801": 20820, "\u2581\uac1d\uc2e4": 1094, "\u2581\uac1d\uc2e4\ub0b4": 23249, "\u2581\uac1d\uc2e4\uc5d0": 3097, "\u2581\uac1d\uc2e4\uc5d0\uc11c": 8976, "\u2581\uac1d\uc2e4\uc740": 5152, "\u2581\uac1d\uc2e4\uc744": 4006, "\u2581\uac1d\uc2e4\uc774": 8874, "\u2581\uac1d\uccb4": 8913, "\u2581\uac24\ub7ec\ub9ac": 3439, "\u2581\uac24\ub7ec\ub9ac\uc5d0": 19855, "\u2581\uac24\ub7ed\uc2dc": 11337, "\u2581\uac24\ub7f0": 27129, "\u2581\uac31": 11641, "\u2581\uac31\uad6c": 24296, "\u2581\uac31\uc2e0": 7303, "\u2581\uac54": 10410, "\u2581\uac70": 444, "\u2581\uac70\uae30": 2080, "\u2581\uac70\uae30\uc11c": 3877, "\u2581\uac70\uae30\uc5d0": 2666, "\u2581\uac70\uae30\uc5d0\ub294": 20357, "\u2581\uac70\uae30\uc5d0\uc11c": 11460, "\u2581\uac70\uafb8\ub85c": 20990, "\u2581\uac70\ub290\ub9ac\uace0": 31013, "\u2581\uac70\ub2c8": 24842, "\u2581\uac70\ub2e4": 9144, "\u2581\uac70\ub300": 7338, "\u2581\uac70\ub300\ud55c": 3088, "\u2581\uac70\ub450": 6874, "\u2581\uac70\ub450\uc5b4": 22618, "\u2581\uac70\ub450\uc5c8\ub2e4": 30806, "\u2581\uac70\ub454": 20919, "\u2581\uac70\ub458": 23198, "\u2581\uac70\ub4e4": 19006, "\u2581\uac70\ub4ed": 8999, "\u2581\uac70\ub77c": 11100, "\u2581\uac70\ub77c\uace0": 5489, "\u2581\uac70\ub77c\ub294": 19611, "\u2581\uac70\ub798": 1340, "\u2581\uac70\ub798\ub7c9": 29699, "\u2581\uac70\ub798\ub97c": 7386, "\u2581\uac70\ub798\uc18c": 11787, "\u2581\uac70\ub8e9": 4913, "\u2581\uac70\ub8e9\ud558\uac8c": 20022, "\u2581\uac70\ub8e9\ud55c": 4352, "\u2581\uac70\ub8e9\ud568": 25811, "\u2581\uac70\ub9ac": 1080, "\u2581\uac70\ub9ac\uac00": 15107, "\u2581\uac70\ub9ac\ub294": 13389, "\u2581\uac70\ub9ac\ub97c": 9617, "\u2581\uac70\ub9ac\uc5d0": 869, "\u2581\uac70\ub9ac\uc5d0\uc11c": 12741, "\u2581\uac70\ub9ac\uc5d0\uc788\ub294": 27901, "\u2581\uac70\ub9ac\uc785\ub2c8\ub2e4": 11742, "\u2581\uac70\ub9cc": 19977, "\u2581\uac70\ubbf8": 19938, "\u2581\uac70\ubbfc": 18209, "\u2581\uac70\ubd80": 2809, "\u2581\uac70\ubd80\ud558\ub294": 22512, "\u2581\uac70\ubd80\ud560": 24283, "\u2581\uac70\ubd80\ud588\ub2e4": 26214, "\u2581\uac70\ubd81": 26780, "\u2581\uac70\ubd81\uc774": 23255, "\u2581\uac70\uc2ac\ub7ec": 14062, "\u2581\uac70\uc2dc\uae30": 27816, "\u2581\uac70\uc2e4": 8948, "\u2581\uac70\uc57c": 1104, "\u2581\uac70\uc5d0\uc694": 5804, "\u2581\uac70\uc5ed": 6856, "\u2581\uac70\uc608\uc694": 2331, "\u2581\uac70\uc694": 17767, "\u2581\uac70\uc6b8": 5779, "\u2581\uac70\uc720": 2859, "\u2581\uac70\uc758": 498, "\u2581\uac70\uc808": 3602, "\u2581\uac70\uc810": 28718, "\u2581\uac70\uc8e0": 3335, "\u2581\uac70\uc8fc": 5042, "\u2581\uac70\uc8fc\ub294\uc774": 30153, "\u2581\uac70\uc8fc\uc790": 13877, "\u2581\uac70\uc8fc\uc9c0": 19173, "\u2581\uac70\uc8fc\ud558\uace0": 25958, "\u2581\uac70\uc8fc\ud558\ub294": 14247, "\u2581\uac70\uc9c0": 6921, "\u2581\uac70\uc9d3": 2327, "\u2581\uac70\uc9d3\ub9d0": 3933, "\u2581\uac70\uc9d3\ub9d0\uc744": 6665, "\u2581\uac70\uc9d3\ub9d0\uc7c1\uc774": 24282, "\u2581\uac70\ucc98": 20947, "\u2581\uac70\uccd0": 8366, "\u2581\uac70\uce58": 9196, "\u2581\uac70\uce5c": 9022, "\u2581\uac70\uce60": 22994, "\u2581\uac70\uce60\uac8c": 28595, "\u2581\uac70\ud488": 6677, "\u2581\uac70\ud558\ub294": 15970, "\u2581\uac71\uc815": 2256, "\u2581\uac71\uc815\uc774": 21668, "\u2581\uac71\uc815\ud558\uc9c0": 11374, "\u2581\uac71\uc815\ud560": 16067, "\u2581\uac74": 576, "\u2581\uac74\uac00": 16292, "\u2581\uac74\uac00\uc694": 8719, "\u2581\uac74\uac15": 891, "\u2581\uac74\uac15\uacfc": 12685, "\u2581\uac74\uac15\uc5d0": 7348, "\u2581\uac74\uac15\uc744": 6145, "\u2581\uac74\uac15\ud558\uac8c": 20401, "\u2581\uac74\uac15\ud558\uace0": 19404, "\u2581\uac74\uac15\ud55c": 3323, "\u2581\uac74\ub108": 5082, "\u2581\uac74\ub108\ub6f0\uae30": 29928, "\u2581\uac74\ub108\ud3b8": 22984, "\u2581\uac74\ub124": 22046, "\u2581\uac74\ub370": 18123, "\u2581\uac74\ub9bd": 24507, "\u2581\uac74\ubb3c": 1970, "\u2581\uac74\ubb3c\uc5d0": 14489, "\u2581\uac74\ubb3c\uc5d0\uc11c": 11399, "\u2581\uac74\ubb3c\uc740": 11507, "\u2581\uac74\ubb3c\uc744": 13241, "\u2581\uac74\ubb3c\uc758": 13938, "\u2581\uac74\ubb3c\uc774": 20313, "\u2581\uac74\ubb3c\uc785\ub2c8\ub2e4": 18628, "\u2581\uac74\ubc30": 28132, "\u2581\uac74\uc124": 2010, "\u2581\uac74\uc758": 15159, "\u2581\uac74\uc804": 10649, "\u2581\uac74\uc804\uc9c0": 6043, "\u2581\uac74\uc838\ub0b4": 31349, "\u2581\uac74\uc870": 5736, "\u2581\uac74\uc870\uae30": 23752, "\u2581\uac74\uc870\ud55c": 13888, "\u2581\uac74\uc9c0": 11278, "\u2581\uac74\ucd95": 1707, "\u2581\uac74\ucd95\uac00": 12341, "\u2581\uac74\ucd95\uacfc": 17594, "\u2581\uac74\ucd95\ub41c": 23624, "\u2581\uac74\ucd95\ubb3c": 10401, "\u2581\uac74\ucd95\uc744": 14510, "\u2581\uac77": 12547, "\u2581\uac77\uace0": 12660, "\u2581\uac77\uae30": 13922, "\u2581\uac77\ub294": 7375, "\u2581\uac77\uc5b4": 26246, "\u2581\uac77\uc9c0": 28547, "\u2581\uac78": 631, "\u2581\uac78\uace0": 20102, "\u2581\uac78\uae4c": 9704, "\u2581\uac78\uae4c\uc694": 9648, "\u2581\uac78\ub824": 9647, "\u2581\uac78\ub838": 14715, "\u2581\uac78\ub838\ub2e4": 16809, "\u2581\uac78\ub838\uc2b5\ub2c8\ub2e4": 22780, "\u2581\uac78\ub85c": 18455, "\u2581\uac78\ub9ac": 8488, "\u2581\uac78\ub9ac\ub294": 10798, "\u2581\uac78\ub9ac\uc9c0": 13806, "\u2581\uac78\ub9b0": 11210, "\u2581\uac78\ub9b0\ub2e4": 18524, "\u2581\uac78\ub9b4": 4789, "\u2581\uac78\ub9bd\ub2c8\ub2e4": 11200, "\u2581\uac78\ub9de": 29755, "\u2581\uac78\uc5b4": 3581, "\u2581\uac78\uc5b4\uac00": 15394, "\u2581\uac78\uc5b4\uc11c": 6902, "\u2581\uac78\uc5c8\ub2e4": 25744, "\u2581\uac78\uc73c\uba74": 10613, "\u2581\uac78\uc744": 15708, "\u2581\uac78\uc74c": 6714, "\u2581\uac78\uc791": 27394, "\u2581\uac78\uccd0": 2744, "\u2581\uac78\uccd0\uc11c": 27732, "\u2581\uac78\uce5c": 13383, "\u2581\uac80": 4487, "\u2581\uac80\uc0ac": 1557, "\u2581\uac80\uc0ac\ub97c": 9142, "\u2581\uac80\uc0ac\uc790": 26226, "\u2581\uac80\uc0c9": 694, "\u2581\uac80\uc0c9\uacb0\uacfc": 29966, "\u2581\uac80\uc0c9\uc5b4": 22894, "\u2581\uac80\uc0c9\uc5d4\uc9c4": 4996, "\u2581\uac80\uc0c9\uc744": 15558, "\u2581\uac80\uc0c9\ud558\uace0": 22702, "\u2581\uac80\uc0c9\ud558\ub294": 22168, "\u2581\uac80\uc0c9\ud558\uc138\uc694": 4740, "\u2581\uac80\uc0c9\ud558\uc5ec": 2482, "\u2581\uac80\uc0c9\ud560": 20824, "\u2581\uac80\uc5f4": 17339, "\u2581\uac80\uc740": 4854, "\u2581\uac80\uc740\uc0c9": 16820, "\u2581\uac80\uc744": 22184, "\u2581\uac80\uc815": 5989, "\u2581\uac80\uc815\uc0c9": 27689, "\u2581\uac80\uc99d": 6626, "\u2581\uac80\uc99d\ub41c": 22775, "\u2581\uac80\uc9c4": 27718, "\u2581\uac80\ucc30": 21827, "\u2581\uac80\ucd9c": 10111, "\u2581\uac80\ud1a0": 2448, "\u2581\uac81": 7550, "\u2581\uac81\ub2c8\uae4c": 15740, "\u2581\uac81\ub2c8\ub2e4": 967, "\u2581\uac81\uc7c1\uc774": 29428, "\u2581\uac83": 37, "\u2581\uac83\uacfc": 1216, "\u2581\uac83\ub3c4": 1160, "\u2581\uac83\ub4e4": 4361, "\u2581\uac83\ub4e4\uc5d0": 12612, "\u2581\uac83\ub4e4\uc740": 6496, "\u2581\uac83\ub4e4\uc744": 2920, "\u2581\uac83\ub4e4\uc774": 3525, "\u2581\uac83\ub4e4\uc774\ub2e4": 26674, "\u2581\uac83\ub4e4\uc785\ub2c8\ub2e4": 25315, "\u2581\uac83\ub9cc": 10083, "\u2581\uac83\ub9cc\uc73c\ub85c": 20557, "\u2581\uac83\ubcf4\ub2e4": 2343, "\u2581\uac83\uc5d0": 1183, "\u2581\uac83\uc73c\ub85c": 492, "\u2581\uac83\uc740": 133, "\u2581\uac83\uc744": 85, "\u2581\uac83\uc774": 127, "\u2581\uac83\uc774\uace0": 2815, "\u2581\uac83\uc774\uae30": 8898, "\u2581\uac83\uc774\ub098": 13354, "\u2581\uac83\uc774\ub0d0": 24969, "\u2581\uac83\uc774\ub2c8": 7183, "\u2581\uac83\uc774\ub2c8\ub77c": 7993, "\u2581\uac83\uc774\ub2e4": 114, "\u2581\uac83\uc774\ub77c": 1829, "\u2581\uac83\uc774\ub77c\uace0": 1262, "\u2581\uac83\uc774\ub77c\ub294": 4653, "\u2581\uac83\uc774\ub77c\uba74": 21951, "\u2581\uac83\uc774\uba70": 1441, "\u2581\uac83\uc774\ubbc0\ub85c": 27232, "\u2581\uac83\uc774\uc5c8\ub2e4": 3919, "\u2581\uac83\uc774\uc5c8\uc2b5\ub2c8\ub2e4": 8618, "\u2581\uac83\uc774\uc624": 18172, "\u2581\uac83\uc774\uc694": 3835, "\u2581\uac83\uc774\uc8e0": 5750, "\u2581\uac83\uc774\uc9c0\ub9cc": 13647, "\u2581\uac83\uc774\uc9c0\uc694": 16003, "\u2581\uac83\uc778\uac00": 2052, "\u2581\uac83\uc778\ub370": 13320, "\u2581\uac83\uc778\uc9c0": 4148, "\u2581\uac83\uc77c": 11710, "\u2581\uac83\uc77c\uae4c": 4537, "\u2581\uac83\uc77c\uae4c\uc694": 13199, "\u2581\uac83\uc784": 21277, "\u2581\uac83\uc784\uc744": 11342, "\u2581\uac83\uc784\uc774\ub2c8\ub77c": 27672, "\u2581\uac83\uc784\uc774\ub77c": 28287, "\u2581\uac83\uc785\ub2c8\uae4c": 9997, "\u2581\uac83\uc785\ub2c8\ub2e4": 97, "\u2581\uac83\ucc98\ub7fc": 1213, "\u2581\uac89": 18049, "\u2581\uac89\ubcf4\uae30": 30041, "\u2581\uac89\uc637": 28065, "\u2581\uac89\uc73c\ub85c": 28015, "\u2581\uac8c": 398, "\u2581\uac8c\ub188": 23880, "\u2581\uac8c\ub2e4\uac00": 3715, "\u2581\uac8c\uc2a4\ud2b8": 5742, "\u2581\uac8c\uc2a4\ud2b8\ud558\uc6b0\uc2a4": 7629, "\u2581\uac8c\uc2dc": 2643, "\u2581\uac8c\uc2dc\uae00": 22876, "\u2581\uac8c\uc2dc\ub418\uace0": 13959, "\u2581\uac8c\uc2dc\ub41c": 26438, "\u2581\uac8c\uc2dc\ub428": 29451, "\u2581\uac8c\uc2dc\ubb3c": 5755, "\u2581\uac8c\uc2dc\ubb3c\uc744": 6864, "\u2581\uac8c\uc2dc\ud310": 14201, "\u2581\uac8c\uc73c\ub978": 28944, "\u2581\uac8c\uc774": 4028, "\u2581\uac8c\uc774\uba38": 22781, "\u2581\uac8c\uc774\ubc0d": 25271, "\u2581\uac8c\uc774\uc9c0": 17904, "\u2581\uac8c\uc774\uce20": 25712, "\u2581\uac8c\uc774\ud2b8": 10567, "\u2581\uac8c\uc774\ud2b8\uc6e8\uc774": 20423, "\u2581\uac8c\uc784": 366, "\u2581\uac8c\uc784\uc5d0": 7991, "\u2581\uac8c\uc784\uc5d0\uc11c": 8316, "\u2581\uac8c\uc784\uc740": 4902, "\u2581\uac8c\uc784\uc744": 1905, "\u2581\uac8c\uc784\uc758": 5987, "\u2581\uac8c\uc784\uc774": 8569, "\u2581\uac8c\uc784\uc774\ub2e4": 17251, "\u2581\uac8c\uc784\uc785\ub2c8\ub2e4": 19995, "\u2581\uac8c\uc7ac": 10112, "\u2581\uaca8": 16907, "\u2581\uaca8\ub0e5": 23168, "\u2581\uaca8\ub4dc\ub791\uc774": 19517, "\u2581\uaca8\uc6b0": 8752, "\u2581\uaca8\uc6b8": 3337, "\u2581\uaca8\uc6b8\uc5d0": 16890, "\u2581\uaca8\uc6b8\ucca0": 30783, "\u2581\uaca9": 4175, "\u2581\uaca9\ub824": 4416, "\u2581\uaca9\ub82c": 23042, "\u2581\uaca9\ub82c\ud55c": 24997, "\u2581\uaca9\ub9ac": 11750, "\u2581\uaca9\uc5b8": 31298, "\u2581\uaca9\uc790": 17841, "\u2581\uaca9\ucc28": 22057, "\u2581\uaca9\ud22c": 30700, "\u2581\uaca9\ud310\ub36e\uac1c": 25970, "\u2581\uacaa": 11159, "\u2581\uacaa\uac8c": 21179, "\u2581\uacaa\uace0": 6927, "\u2581\uacaa\ub294": 9699, "\u2581\uacaa\uc5b4": 19894, "\u2581\uacaa\uc5c8": 26031, "\u2581\uacaa\uc5c8\ub2e4": 26862, "\u2581\uacaa\uc5c8\ub358": 30628, "\u2581\uacaa\uc5c8\uc2b5\ub2c8\ub2e4": 30781, "\u2581\uacaa\uc740": 14921, "\u2581\uacaa\uc744": 20117, "\u2581\uacac": 6925, "\u2581\uacac\uace0": 11169, "\u2581\uacac\uace0\ud55c": 11768, "\u2581\uacac\ub38c": 18613, "\u2581\uacac\ub514": 11762, "\u2581\uacac\ub51c": 11281, "\u2581\uacac\ubcf8": 17032, "\u2581\uacac\uc778": 20052, "\u2581\uacac\uc801": 10710, "\u2581\uacac\ud559": 27697, "\u2581\uacac\ud574": 3583, "\u2581\uacac\ud574\ub97c": 18609, "\u2581\uacb0": 4817, "\u2581\uacb0\uacfc": 692, "\u2581\uacb0\uacfc\uac00": 5458, "\u2581\uacb0\uacfc\ub294": 4359, "\u2581\uacb0\uacfc\ub85c": 9120, "\u2581\uacb0\uacfc\ub97c": 1779, "\u2581\uacb0\uacfc\ubb3c": 13318, "\u2581\uacb0\uacfc\uc5d0": 6913, "\u2581\uacb0\uacfc\uc801\uc73c\ub85c": 9532, "\u2581\uacb0\uad6d": 988, "\u2581\uacb0\uad6d\uc5d0\ub294": 20890, "\u2581\uacb0\uad6d\uc5d4": 28726, "\u2581\uacb0\ub2e8": 21173, "\u2581\uacb0\ub2e8\ucf54": 30625, "\u2581\uacb0\ub860": 4274, "\u2581\uacb0\ub860\uc744": 14290, "\u2581\uacb0\ub860\uc801\uc73c\ub85c": 30280, "\u2581\uacb0\ub9d0": 14244, "\u2581\uacb0\ubc15": 17058, "\u2581\uacb0\uc131": 25754, "\u2581\uacb0\uc18d": 30378, "\u2581\uacb0\uc2b9": 21643, "\u2581\uacb0\uc2b9\uc804": 22882, "\u2581\uacb0\uc2e4": 24416, "\u2581\uacb0\uc2ec": 5036, "\u2581\uacb0\uc5ec": 27920, "\u2581\uacb0\uc758": 18487, "\u2581\uacb0\uc758\uc548": 28402, "\u2581\uacb0\uc810": 22077, "\u2581\uacb0\uc815": 947, "\u2581\uacb0\uc815\ub41c\ub2e4": 29193, "\u2581\uacb0\uc815\ub429\ub2c8\ub2e4": 26447, "\u2581\uacb0\uc815\uc5d0": 15869, "\u2581\uacb0\uc815\uc740": 14507, "\u2581\uacb0\uc815\uc744": 3903, "\u2581\uacb0\uc815\uc801": 23134, "\u2581\uacb0\uc815\uc801\uc778": 18604, "\u2581\uacb0\uc815\ud558\uae30": 24044, "\u2581\uacb0\uc815\ud558\ub294": 9996, "\u2581\uacb0\uc815\ud55c\ub2e4": 23462, "\u2581\uacb0\uc815\ud560": 9543, "\u2581\uacb0\uc815\ud569\ub2c8\ub2e4": 18776, "\u2581\uacb0\uc815\ud588\ub2e4": 15323, "\u2581\uacb0\uc815\ud588\uc2b5\ub2c8\ub2e4": 13466, "\u2581\uacb0\uc81c": 4328, "\u2581\uacb0\ucf54": 974, "\u2581\uacb0\ud54d": 15060, "\u2581\uacb0\ud568": 6946, "\u2581\uacb0\ud569": 2029, "\u2581\uacb0\ud569\ub41c": 22791, "\u2581\uacb0\ud569\ud558\uc5ec": 17644, "\u2581\uacb0\ud575": 24473, "\u2581\uacb0\ud63c": 992, "\u2581\uacb0\ud63c\uc0dd\ud65c": 30545, "\u2581\uacb0\ud63c\uc2dd": 3440, "\u2581\uacb0\ud63c\uc5ec\ubd80": 15929, "\u2581\uacb0\ud63c\uc740": 19970, "\u2581\uacb0\ud63c\uc744": 10634, "\u2581\uacb0\ud63c\ud55c": 20808, "\u2581\uacb0\ud63c\ud560": 24643, "\u2581\uacb0\ud63c\ud588\ub2e4": 25840, "\u2581\uacb8": 9720, "\u2581\uacb8\ube44": 25244, "\u2581\uacb8\uc190": 5412, "\u2581\uacb8\uc190\ud55c": 22211, "\u2581\uacb8\uc6a9": 30387, "\u2581\uacb8\ud5c8": 28771, "\u2581\uacb9": 23241, "\u2581\uacb9\uccd0": 24666, "\u2581\uacb9\uce58": 31164, "\u2581\uacbd": 1460, "\u2581\uacbd\uac10": 29594, "\u2581\uacbd\uac74": 8447, "\u2581\uacbd\uacc4": 4800, "\u2581\uacbd\uacc4\ub97c": 18970, "\u2581\uacbd\uacc4\uc120": 26778, "\u2581\uacbd\uace0": 1881, "\u2581\uacbd\uace0\ub97c": 14521, "\u2581\uacbd\uacfc": 21363, "\u2581\uacbd\uad00": 15145, "\u2581\uacbd\uae30": 2773, "\u2581\uacbd\uae30\uac00": 21191, "\u2581\uacbd\uae30\ub3c4": 15424, "\u2581\uacbd\uae30\ub97c": 8470, "\u2581\uacbd\uae30\uc5d0": 19784, "\u2581\uacbd\uae30\uc5d0\uc11c": 14233, "\u2581\uacbd\uae30\uc7a5": 7767, "\u2581\uacbd\ub3c4": 11378, "\u2581\uacbd\ub7c9": 13379, "\u2581\uacbd\ub825": 5427, "\u2581\uacbd\ub825\uc744": 10166, "\u2581\uacbd\ub828": 30876, "\u2581\uacbd\ub85c": 4630, "\u2581\uacbd\ub85c\ub97c": 10652, "\u2581\uacbd\ub9e4": 17303, "\u2581\uacbd\uba78": 21164, "\u2581\uacbd\ubc30": 7311, "\u2581\uacbd\ubcf4": 9505, "\u2581\uacbd\ube44": 12580, "\u2581\uacbd\ube44\uc6d0": 28813, "\u2581\uacbd\uc0ac": 14903, "\u2581\uacbd\uc545": 9048, "\u2581\uacbd\uc5f0": 22365, "\u2581\uacbd\uc601": 4142, "\u2581\uacbd\uc601\uc790": 24426, "\u2581\uacbd\uc601\uc9c4": 16299, "\u2581\uacbd\uc601\ud559": 25384, "\u2581\uacbd\uc678": 10580, "\u2581\uacbd\uc678\ud558\ub294": 23966, "\u2581\uacbd\uc6b0": 140, "\u2581\uacbd\uc6b0\uac00": 6080, "\u2581\uacbd\uc6b0\ub294": 8556, "\u2581\uacbd\uc6b0\ub3c4": 13242, "\u2581\uacbd\uc6b0\ub97c": 15234, "\u2581\uacbd\uc6b0\uc5d0": 1856, "\u2581\uacbd\uc6b0\uc5d0\ub294": 2778, "\u2581\uacbd\uc6b0\uc5d0\ub3c4": 7744, "\u2581\uacbd\uc6b0\uc5d0\ub9cc": 11781, "\u2581\uacbd\uc720": 25753, "\u2581\uacbd\uc774": 15882, "\u2581\uacbd\uc791": 21112, "\u2581\uacbd\uc7c1": 1858, "\u2581\uacbd\uc7c1\uac00\uaca9": 25990, "\u2581\uacbd\uc7c1\ub825": 13102, "\u2581\uacbd\uc7c1\ub825\uc744": 23704, "\u2581\uacbd\uc7c1\ub825\uc788\ub294": 23487, "\u2581\uacbd\uc7c1\uc0ac": 28326, "\u2581\uacbd\uc7c1\uc790": 13454, "\u2581\uacbd\uc804": 27509, "\u2581\uacbd\uc81c": 1338, "\u2581\uacbd\uc81c\ub97c": 20521, "\u2581\uacbd\uc81c\uc801": 4432, "\u2581\uacbd\uc81c\uc801\uc73c\ub85c": 23242, "\u2581\uacbd\uc81c\uc801\uc778": 20023, "\u2581\uacbd\uc81c\ud559": 14287, "\u2581\uacbd\uc81c\ud559\uc790": 23102, "\u2581\uacbd\uc8fc": 4787, "\u2581\uacbd\ucc30": 2190, "\u2581\uacbd\ucc30\uad00": 18055, "\u2581\uacbd\ucc30\uc11c": 23838, "\u2581\uacbd\ucc30\uc740": 12689, "\u2581\uacbd\ucc30\uc774": 13690, "\u2581\uacbd\uccad": 19255, "\u2581\uacbd\uce58": 20260, "\u2581\uacbd\uce58\ub97c": 22590, "\u2581\uacbd\ud0c4": 30385, "\u2581\uacbd\ud5a5": 7211, "\u2581\uacbd\ud5a5\uc774": 7226, "\u2581\uacbd\ud5d8": 818, "\u2581\uacbd\ud5d8\uacfc": 12983, "\u2581\uacbd\ud5d8\uc5d0": 12532, "\u2581\uacbd\ud5d8\uc740": 13282, "\u2581\uacbd\ud5d8\uc744": 1691, "\u2581\uacbd\ud5d8\uc774": 4840, "\u2581\uacbd\ud5d8\ud558\uace0": 21110, "\u2581\uacbd\ud5d8\ud558\ub294": 21389, "\u2581\uacbd\ud5d8\ud55c": 22073, "\u2581\uacbd\ud5d8\ud560": 12323, "\u2581\uacbd\ud654": 19575, "\u2581\uacc1": 11987, "\u2581\uacc1\ub4e4": 30352, "\u2581\uacc1\uc5d0": 7941, "\u2581\uacc4": 3542, "\u2581\uacc4\uace1": 10240, "\u2581\uacc4\uae09": 7414, "\u2581\uacc4\uae30": 6617, "\u2581\uacc4\ub2e8": 8227, "\u2581\uacc4\ub780": 11166, "\u2581\uacc4\ub7b5": 30948, "\u2581\uacc4\ub7c9": 25823, "\u2581\uacc4\uba85": 9238, "\u2581\uacc4\uba85\uc744": 20779, "\u2581\uacc4\ubabd": 23672, "\u2581\uacc4\uc0b0": 2022, "\u2581\uacc4\uc0b0\uae30": 12541, "\u2581\uacc4\uc0b0\ud560": 25506, "\u2581\uacc4\uc138\uc694": 22670, "\u2581\uacc4\uc168": 11770, "\u2581\uacc4\uc168\ub2e4": 25732, "\u2581\uacc4\uc168\uc2b5\ub2c8\ub2e4": 29176, "\u2581\uacc4\uc18d": 365, "\u2581\uacc4\uc18d\ub418\uace0": 25140, "\u2581\uacc4\uc18d\ub418\ub294": 23595, "\u2581\uacc4\uc18d\ud560": 21787, "\u2581\uacc4\uc18d\ud574\uc11c": 4198, "\u2581\uacc4\uc218": 11766, "\u2581\uacc4\uc2b9": 19169, "\u2581\uacc4\uc2dc": 1588, "\u2581\uacc4\uc2dc\ub294": 11047, "\u2581\uacc4\uc2dc\ub2c8\ub77c": 20832, "\u2581\uacc4\uc2dc\ub41c": 26502, "\u2581\uacc4\uc2dc\ub85d": 16337, "\u2581\uacc4\uc2dc\uba70": 22942, "\u2581\uacc4\uc2e0": 3431, "\u2581\uacc4\uc2e0\uac00\uc694": 16093, "\u2581\uacc4\uc2e0\ub2e4": 14665, "\u2581\uacc4\uc2e0\ub2e4\uba74": 25193, "\u2581\uacc4\uc2e4": 15080, "\u2581\uacc4\uc2ec": 19245, "\u2581\uacc4\uc2ed\ub2c8\uae4c": 11547, "\u2581\uacc4\uc2ed\ub2c8\ub2e4": 7566, "\u2581\uacc4\uc57d": 1996, "\u2581\uacc4\uc57d\uc11c": 21351, "\u2581\uacc4\uc57d\uc5d0": 19243, "\u2581\uacc4\uc57d\uc744": 6489, "\u2581\uacc4\uc5f4": 20974, "\u2581\uacc4\uc5f4\uc0ac": 17113, "\u2581\uacc4\uc808": 6923, "\u2581\uacc4\uc815": 2466, "\u2581\uacc4\uc815\uc5d0": 8549, "\u2581\uacc4\uc815\uc73c\ub85c": 20683, "\u2581\uacc4\uc815\uc744": 5207, "\u2581\uacc4\uc815\uc774": 16051, "\u2581\uacc4\uc88c": 6584, "\u2581\uacc4\uc88c\ub97c": 21550, "\u2581\uacc4\uce21": 20495, "\u2581\uacc4\uce35": 7413, "\u2581\uacc4\ud1b5": 21858, "\u2581\uacc4\ud68d": 862, "\u2581\uacc4\ud68d\uc5d0": 9924, "\u2581\uacc4\ud68d\uc740": 8845, "\u2581\uacc4\ud68d\uc744": 3384, "\u2581\uacc4\ud68d\uc774": 8379, "\u2581\uacc4\ud68d\uc774\ub2e4": 24095, "\u2581\uacc4\ud68d\ud558\uace0": 19566, "\u2581\uace0": 232, "\u2581\uace0\uac08": 27997, "\u2581\uace0\uac15\ub3c4": 17729, "\u2581\uace0\uac1c": 12999, "\u2581\uace0\uac1d": 685, "\u2581\uace0\uac1d\uacfc": 11078, "\u2581\uace0\uac1d\uaed8\uc11c\ub294": 11950, "\u2581\uace0\uac1d\ub2d8": 13119, "\u2581\uace0\uac1d\ub2d8\uaed8": 28549, "\u2581\uace0\uac1d\ub2d8\uaed8\uc11c": 3054, "\u2581\uace0\uac1d\ub2d8\uc740": 25954, "\u2581\uace0\uac1d\ub2d8\uc758": 14434, "\u2581\uace0\uac1d\ub4e4\uc5d0\uac8c": 15542, "\u2581\uace0\uac1d\ub4e4\uc758": 24610, "\u2581\uace0\uac1d\ub4e4\uc774": 18569, "\u2581\uace0\uac1d\uc0ac": 26688, "\u2581\uace0\uac1d\uc13c\ud130": 25101, "\u2581\uace0\uac1d\uc5d0\uac8c": 4317, "\u2581\uace0\uac1d\uc740": 5701, "\u2581\uace0\uac1d\uc744": 4815, "\u2581\uace0\uac1d\uc758": 2538, "\u2581\uace0\uac1d\uc774": 2991, "\u2581\uace0\uac1d\uc9c0\uc6d0": 23782, "\u2581\uace0\uace0\ud559": 14733, "\u2581\uace0\uadc0\ud55c": 22421, "\u2581\uace0\uae09": 2304, "\u2581\uace0\uae09\uc2a4\ub7ec\uc6b4": 25488, "\u2581\uace0\uae30": 5287, "\u2581\uace0\uae30\ub97c": 13173, "\u2581\uace0\uae30\uc640": 17810, "\u2581\uace0\ub09c": 6703, "\u2581\uace0\ub09c\uc744": 15575, "\u2581\uace0\ub2a5\ub960": 22852, "\u2581\uace0\ub300": 2165, "\u2581\uace0\ub3c4": 4846, "\u2581\uace0\ub3c4\ub85c": 22176, "\u2581\uace0\ub3c5": 20134, "\u2581\uace0\ub4e0": 22558, "\u2581\uace0\ub4f1": 9792, "\u2581\uace0\ub4f1\ud559\uad50": 6523, "\u2581\uace0\ub4f1\ud559\uc0dd": 26941, "\u2581\uace0\ub515": 26107, "\u2581\uace0\ub798": 13677, "\u2581\uace0\ub824": 1803, "\u2581\uace0\ub824\ud558\uc2ed\uc2dc\uc624": 29199, "\u2581\uace0\ub824\ud558\uc5ec": 23833, "\u2581\uace0\ub824\ud560": 16014, "\u2581\uace0\ub824\ud574": 18878, "\u2581\uace0\ub824\ud574\uc57c": 12013, "\u2581\uace0\ub974": 10047, "\u2581\uace0\ub978": 27859, "\u2581\uace0\ub9ac": 9870, "\u2581\uace0\ub9b0\ub3c4": 10200, "\u2581\uace0\ub9bd": 9825, "\u2581\uace0\ub9c8\uc6b4": 29047, "\u2581\uace0\ub9c8\uc6cc": 9208, "\u2581\uace0\ub9c8\uc6cc\uc694": 12602, "\u2581\uace0\ub9d9": 19458, "\u2581\uace0\ub9d9\uac8c": 26819, "\u2581\uace0\ub9d9\ub2e4": 22562, "\u2581\uace0\ub9d9\uc2b5\ub2c8\ub2e4": 17448, "\u2581\uace0\ubaa8": 23708, "\u2581\uace0\ubb34": 3638, "\u2581\uace0\ubb38": 7712, "\u2581\uace0\ubbfc": 4187, "\u2581\uace0\ubc00\ub3c4": 26087, "\u2581\uace0\ubc1c": 17940, "\u2581\uace0\ubc31": 6904, "\u2581\uace0\ubca0": 23144, "\u2581\uace0\uc0c1\ud55c": 30944, "\u2581\uace0\uc0dd": 11957, "\u2581\uace0\uc131\ub2a5": 6356, "\u2581\uace0\uc18c": 14835, "\u2581\uace0\uc18d": 4775, "\u2581\uace0\uc18d\ub3c4\ub85c": 8672, "\u2581\uace0\uc18d\uc778\ud130\ub137": 28572, "\u2581\uace0\uc218": 14084, "\u2581\uace0\uc2a4\ub8e9": 24660, "\u2581\uace0\uc544": 14239, "\u2581\uace0\uc548": 14061, "\u2581\uace0\uc548\ub41c": 28004, "\u2581\uace0\uc555": 12688, "\u2581\uace0\uc591": 25562, "\u2581\uace0\uc591\uc774": 2948, "\u2581\uace0\uc591\uc774\uac00": 16548, "\u2581\uace0\uc591\uc774\ub294": 13521, "\u2581\uace0\uc591\uc774\ub97c": 19529, "\u2581\uace0\uc5f4": 18684, "\u2581\uace0\uc628": 15386, "\u2581\uace0\uc6a9": 3158, "\u2581\uace0\uc6a9\uc8fc": 9063, "\u2581\uace0\uc6b4": 26881, "\u2581\uace0\uc6d0": 25327, "\u2581\uace0\uc704": 13687, "\u2581\uace0\uc720": 5582, "\u2581\uace0\uc720\uc758": 19722, "\u2581\uace0\uc758\uc801": 25175, "\u2581\uace0\uc791": 21666, "\u2581\uace0\uc7a5": 9846, "\u2581\uace0\uc804": 5330, "\u2581\uace0\uc804\uc555": 24775, "\u2581\uace0\uc804\uc801\uc778": 7433, "\u2581\uace0\uc815": 3472, "\u2581\uace0\uc815\ub41c": 23258, "\u2581\uace0\uc815\ubc00": 27576, "\u2581\uace0\uc870": 23816, "\u2581\uace0\uc8fc\ud30c": 21237, "\u2581\uace0\uc9c0": 13024, "\u2581\uace0\uc9d1": 14206, "\u2581\uace0\ucc29": 19483, "\u2581\uace0\uccb4": 17456, "\u2581\uace0\uccd0": 10691, "\u2581\uace0\ucd94": 26361, "\u2581\uace0\uce58": 8799, "\u2581\uace0\uce60": 20191, "\u2581\uace0\uce68": 18193, "\u2581\uace0\ud1b5": 1651, "\u2581\uace0\ud1b5\uacfc": 22806, "\u2581\uace0\ud1b5\ubc1b": 16286, "\u2581\uace0\ud1b5\uc2a4\ub7ec\uc6b4": 17621, "\u2581\uace0\ud1b5\uc2a4\ub7fd": 28613, "\u2581\uace0\ud1b5\uc744": 5227, "\u2581\uace0\ud488\uc9c8": 4066, "\u2581\uace0\ud488\uc9c8\uc758": 12988, "\u2581\uace0\ud574\uc0c1": 30903, "\u2581\uace0\ud574\uc0c1\ub3c4": 22014, "\u2581\uace0\ud5a5": 6165, "\u2581\uace0\ud608\uc555": 24461, "\u2581\uace0\ud654\uc9c8": 19300, "\u2581\uace0\ud6a8\uc728": 29853, "\u2581\uace1": 3764, "\u2581\uace1\ubb3c": 11179, "\u2581\uace1\uc120": 12172, "\u2581\uace1\uc2dd": 16666, "\u2581\uace1\uc740": 21196, "\u2581\uace1\uc744": 18661, "\u2581\uace4": 10636, "\u2581\uace4\uacbd": 19105, "\u2581\uace4\ub780": 15300, "\u2581\uace4\ucda9": 9289, "\u2581\uace7": 525, "\u2581\uace7\ubc14\ub85c": 14192, "\u2581\uace8": 4319, "\u2581\uace8\uaca9": 27262, "\u2581\uace8\ub3d9\ud488": 29521, "\u2581\uace8\ub4dc": 4377, "\u2581\uace8\ub4e0": 8306, "\u2581\uace8\ub77c": 14497, "\u2581\uace8\ubaa9": 22267, "\u2581\uace8\uc218": 27321, "\u2581\uace8\uc808": 26833, "\u2581\uace8\uc9dc\uae30": 14440, "\u2581\uace8\ud310\uc9c0": 30755, "\u2581\uace8\ud504": 2754, "\u2581\uacf0": 6317, "\u2581\uacf0\ud321\uc774": 24056, "\u2581\uacf1": 7121, "\u2581\uacf1\ud558\uae30": 10330, "\u2581\uacf3": 852, "\u2581\uacf3\uacf3": 25110, "\u2581\uacf3\uacf3\uc5d0": 19256, "\u2581\uacf3\uacf3\uc5d0\uc11c": 21556, "\u2581\uacf3\uacfc": 21783, "\u2581\uacf3\uc5d0": 1816, "\u2581\uacf3\uc5d0\ub294": 20982, "\u2581\uacf3\uc5d0\uc11c": 1416, "\u2581\uacf3\uc73c\ub85c": 4402, "\u2581\uacf3\uc740": 5443, "\u2581\uacf3\uc744": 4731, "\u2581\uacf3\uc758": 16980, "\u2581\uacf3\uc774": 3511, "\u2581\uacf3\uc774\ub2e4": 15695, "\u2581\uacf3\uc785\ub2c8\ub2e4": 6950, "\u2581\uacf5": 938, "\u2581\uacf5\uac04": 1764, "\u2581\uacf5\uac04\uacfc": 21578, "\u2581\uacf5\uac04\uc5d0": 11905, "\u2581\uacf5\uac04\uc5d0\uc11c": 13084, "\u2581\uacf5\uac04\uc73c\ub85c": 21455, "\u2581\uacf5\uac04\uc740": 17336, "\u2581\uacf5\uac04\uc744": 3725, "\u2581\uacf5\uac04\uc774": 6528, "\u2581\uacf5\uac10": 9575, "\u2581\uacf5\uac1c": 1676, "\u2581\uacf5\uac1c\ub3d9\uc601\uc0c1": 7630, "\u2581\uacf5\uac1c\ub418\uc9c0": 28590, "\u2581\uacf5\uac1c\uc801": 22411, "\u2581\uacf5\uac1c\uc801\uc73c\ub85c": 12944, "\u2581\uacf5\uaca9": 1274, "\u2581\uacf5\uaca9\ub825": 28184, "\u2581\uacf5\uaca9\uc5d0": 19009, "\u2581\uacf5\uaca9\uc744": 8117, "\u2581\uacf5\uaca9\uc790": 21974, "\u2581\uacf5\uaca9\uc801\uc778": 24796, "\u2581\uacf5\uacbd": 16094, "\u2581\uacf5\uace0": 23335, "\u2581\uacf5\uacf5": 2686, "\u2581\uacf5\uacf5\uc5f0": 30186, "\u2581\uacf5\uad6c": 5928, "\u2581\uacf5\uad70": 12945, "\u2581\uacf5\uae09": 644, "\u2581\uacf5\uae09\ub9dd": 19781, "\u2581\uacf5\uae09\uc5c5\uccb4": 11264, "\u2581\uacf5\uae09\uc790": 5043, "\u2581\uacf5\uae09\ud558\ub294": 22023, "\u2581\uacf5\uae09\ud560": 22449, "\u2581\uacf5\uae30": 1412, "\u2581\uacf5\uae30\ub97c": 12303, "\u2581\uacf5\ub3d9": 2427, "\u2581\uacf5\ub3d9\uc73c\ub85c": 18377, "\u2581\uacf5\ub3d9\uccb4": 3914, "\u2581\uacf5\ub7b5": 30252, "\u2581\uacf5\ub8e1": 10171, "\u2581\uacf5\ub9bd": 26646, "\u2581\uacf5\ubaa8": 19787, "\u2581\uacf5\ubb34\uc6d0": 16231, "\u2581\uacf5\ubc31": 18278, "\u2581\uacf5\ubd80": 2881, "\u2581\uacf5\ubd80\ub97c": 12212, "\u2581\uacf5\ubd80\ud558\uace0": 16953, "\u2581\uacf5\ubd80\ud558\ub294": 18316, "\u2581\uacf5\ubd80\ud560": 21742, "\u2581\uacf5\uc0ac": 6288, "\u2581\uacf5\uc0b0\ub2f9": 18732, "\u2581\uacf5\uc0b0\uc8fc\uc758": 13301, "\u2581\uacf5\uc0b0\uc8fc\uc758\uc790": 24650, "\u2581\uacf5\uc0c1": 17263, "\u2581\uacf5\uc138": 27953, "\u2581\uacf5\uc2dd": 1098, "\u2581\uacf5\uc2dd\uc801\uc73c\ub85c": 7784, "\u2581\uacf5\uc2dd\uc801\uc778": 13716, "\u2581\uacf5\uc555": 27918, "\u2581\uacf5\uc5b8": 26737, "\u2581\uacf5\uc5c5": 11112, "\u2581\uacf5\uc5f0": 3492, "\u2581\uacf5\uc5f0\uc744": 14446, "\u2581\uacf5\uc608": 17679, "\u2581\uacf5\uc608\ud488": 31155, "\u2581\uacf5\uc6a9": 8209, "\u2581\uacf5\uc6a9\uc601\uc5ed": 20421, "\u2581\uacf5\uc6d0": 1903, "\u2581\uacf5\uc6d0\uc5d0\uc11c": 19134, "\u2581\uacf5\uc720": 1221, "\u2581\uacf5\uc720\ud558\uace0": 10991, "\u2581\uacf5\uc720\ud558\uae30": 18860, "\u2581\uacf5\uc720\ud558\ub294": 10355, "\u2581\uacf5\uc720\ud560": 9299, "\u2581\uacf5\uc720\ud569\ub2c8\ub2e4": 19774, "\u2581\uacf5\uc744": 12422, "\u2581\uacf5\uc758": 7669, "\u2581\uacf5\uc758\ud68c": 26648, "\u2581\uacf5\uc775": 29975, "\u2581\uacf5\uc778": 12744, "\u2581\uacf5\uc791": 10939, "\u2581\uacf5\uc7a5": 1193, "\u2581\uacf5\uc7a5\uc5d0\uc11c": 11534, "\u2581\uacf5\uc7a5\uc740": 19204, "\u2581\uacf5\uc7a5\uc744": 13995, "\u2581\uacf5\uc815": 2772, "\u2581\uacf5\uc815\ud55c": 11588, "\u2581\uacf5\uc81c": 25406, "\u2581\uacf5\uc874": 22262, "\u2581\uacf5\uc8fc": 7635, "\u2581\uacf5\uc8fc\ub2d8": 29776, "\u2581\uacf5\uc911": 5646, "\u2581\uacf5\uc9c0": 9581, "\u2581\uacf5\uc9c0\uc0ac\ud56d": 20492, "\u2581\uacf5\uc9dc": 19838, "\u2581\uacf5\ud1b5": 8614, "\u2581\uacf5\ud1b5\ub41c": 27817, "\u2581\uacf5\ud1b5\uc801": 24824, "\u2581\uacf5\ud1b5\uc810": 18134, "\u2581\uacf5\ud3c9": 11059, "\u2581\uacf5\ud3ec": 4184, "\u2581\uacf5\ud45c": 27087, "\u2581\uacf5\ud559": 4559, "\u2581\uacf5\ud56d": 1073, "\u2581\uacf5\ud56d\uae4c\uc9c0": 9279, "\u2581\uacf5\ud56d\uc5d0": 6820, "\u2581\uacf5\ud56d\uc5d0\uc11c": 3046, "\u2581\uacf5\ud56d\uc740": 17643, "\u2581\uacf5\ud5c8": 19248, "\u2581\uacf5\ud5cc": 10406, "\u2581\uacf5\ud654\uad6d": 3111, "\u2581\uacf5\ud654\ub2f9": 14023, "\u2581\uacf5\ud669": 27911, "\u2581\uacf5\ud734\uc77c": 20542, "\u2581\uacfc": 109, "\u2581\uacfc\uac70": 3262, "\u2581\uacfc\uac70\ub97c": 18590, "\u2581\uacfc\uac70\uc5d0": 6952, "\u2581\uacfc\uac70\uc640": 24247, "\u2581\uacfc\uac70\uc758": 8939, "\u2581\uacfc\ub3c4": 12358, "\u2581\uacfc\ub3c4\ud55c": 15049, "\u2581\uacfc\ubaa9": 11483, "\u2581\uacfc\ubd80": 12108, "\u2581\uacfc\uc18c\ud3c9\uac00": 24849, "\u2581\uacfc\uc218\uc6d0": 31120, "\u2581\uacfc\uc2e4": 17967, "\u2581\uacfc\uc5f0": 2123, "\u2581\uacfc\uc77c": 4179, "\u2581\uacfc\uc789": 21939, "\u2581\uacfc\uc7a5": 13909, "\u2581\uacfc\uc815": 2205, "\u2581\uacfc\uc815\uc5d0": 9321, "\u2581\uacfc\uc815\uc5d0\uc11c": 4428, "\u2581\uacfc\uc815\uc740": 5950, "\u2581\uacfc\uc815\uc744": 3171, "\u2581\uacfc\uc815\uc758": 13740, "\u2581\uacfc\uc815\uc774": 10818, "\u2581\uacfc\uc81c": 6276, "\u2581\uacfc\ud14c\ub9d0\ub77c": 28855, "\u2581\uacfc\ud559": 1152, "\u2581\uacfc\ud559\uacfc": 20307, "\u2581\uacfc\ud559\uc740": 17603, "\u2581\uacfc\ud559\uc758": 17490, "\u2581\uacfc\ud559\uc790": 4177, "\u2581\uacfc\ud559\uc790\ub4e4": 23641, "\u2581\uacfc\ud559\uc790\ub4e4\uc740": 10713, "\u2581\uacfc\ud559\uc790\ub4e4\uc774": 19471, "\u2581\uacfc\ud559\uc801": 7125, "\u2581\uacfc\ud559\uc801\uc778": 20857, "\u2581\uad00": 1302, "\u2581\uad00\uac1c": 27637, "\u2581\uad00\uac1d": 13906, "\u2581\uad00\uacc4": 1051, "\u2581\uad00\uacc4\uac00": 6669, "\u2581\uad00\uacc4\ub294": 10901, "\u2581\uad00\uacc4\ub97c": 2484, "\u2581\uad00\uacc4\uc5c6\uc774": 11063, "\u2581\uad00\uacc4\uc5d0": 9127, "\u2581\uad00\uacc4\uc5d0\uc11c": 18208, "\u2581\uad00\uacc4\uc790": 11986, "\u2581\uad00\uacc4\uc790\ub4e4": 30893, "\u2581\uad00\uad11": 2021, "\u2581\uad00\uad11\uac1d": 8949, "\u2581\uad00\uad11\uac1d\ub4e4": 25496, "\u2581\uad00\uad11\uba85\uc18c": 19906, "\u2581\uad00\uad11\uc9c0": 10197, "\u2581\uad00\ub150": 12799, "\u2581\uad00\ub300": 11419, "\u2581\uad00\ub78c": 13527, "\u2581\uad00\ub78c\uac1d": 31204, "\u2581\uad00\ub828": 572, "\u2581\uad00\ub828\ub418\uc5b4": 17444, "\u2581\uad00\ub828\ub41c": 1643, "\u2581\uad00\ub828\uc131": 26064, "\u2581\uad00\ub828\uc774": 5492, "\u2581\uad00\ub828\ud558\uc5ec": 4714, "\u2581\uad00\ub828\ud558\uc5ec\uad11\uace0": 31280, "\u2581\uad00\ub828\ud55c": 14554, "\u2581\uad00\ub828\ud574": 21616, "\u2581\uad00\ub828\ud574\uc11c": 22188, "\u2581\uad00\ub840": 15459, "\u2581\uad00\ub8cc": 18016, "\u2581\uad00\ub9ac": 420, "\u2581\uad00\ub9ac\ub97c": 7853, "\u2581\uad00\ub9ac\uc5d0": 18913, "\u2581\uad00\ub9ac\uc790": 2435, "\u2581\uad00\ub9ac\uc790\uac00": 19504, "\u2581\uad00\ub9ac\uc790\ub294": 17779, "\u2581\uad00\ub9ac\uc790\uc5d0\uac8c": 27632, "\u2581\uad00\ub9ac\ud558\uace0": 14257, "\u2581\uad00\ub9ac\ud558\ub294": 8383, "\u2581\uad00\ub9ac\ud560": 11395, "\u2581\uad00\ub9ac\ud569\ub2c8\ub2e4": 22091, "\u2581\uad00\ubb38": 29026, "\u2581\uad00\uc138": 13330, "\u2581\uad00\uc2b5": 8240, "\u2581\uad00\uc2ec": 1688, "\u2581\uad00\uc2ec\uc0ac": 8128, "\u2581\uad00\uc2ec\uc744": 2536, "\u2581\uad00\uc2ec\uc774": 2914, "\u2581\uad00\uc2ec\uc788\ub294": 27624, "\u2581\uad00\uc5ec": 8730, "\u2581\uad00\uc6a9": 11633, "\u2581\uad00\uc6a9\uacfc": 23589, "\u2581\uad00\uc7a5": 27710, "\u2581\uad00\uc808": 14619, "\u2581\uad00\uc808\uc5fc": 25071, "\u2581\uad00\uc810": 5157, "\u2581\uad00\uc810\uc5d0\uc11c": 6648, "\u2581\uad00\uc81c\uc0ac": 15341, "\u2581\uad00\uc911": 23135, "\u2581\uad00\ucc30": 2941, "\u2581\uad00\ucc30\uc790": 25381, "\u2581\uad00\uce21": 8537, "\u2581\uad00\ud1b5": 21345, "\u2581\uad00\ud558\uc5ec": 2099, "\u2581\uad00\ud55c": 521, "\u2581\uad00\ud560": 15369, "\u2581\uad00\ud560\uad8c": 27925, "\u2581\uad00\ud574": 1882, "\u2581\uad00\ud574\uc11c": 9402, "\u2581\uad00\ud574\uc11c\ub294": 13832, "\u2581\uad00\ud589": 12637, "\u2581\uad04\ud638": 28951, "\u2581\uad11": 2213, "\u2581\uad11\uacbd": 13166, "\u2581\uad11\uace0": 1355, "\u2581\uad11\uace0\ub97c": 7618, "\u2581\uad11\uace0\uc8fc": 24931, "\u2581\uad11\uae30": 27064, "\u2581\uad11\ub300": 16635, "\u2581\uad11\ub300\uc5ed": 29433, "\u2581\uad11\ub300\ud55c": 22291, "\u2581\uad11\ub3c4": 12377, "\u2581\uad11\ub3d9": 21697, "\u2581\uad11\uba85": 24393, "\u2581\uad11\ubb3c": 21754, "\u2581\uad11\ubc94\uc704": 12676, "\u2581\uad11\ubc94\uc704\ud558\uac8c": 18709, "\u2581\uad11\ubc94\uc704\ud55c": 4802, "\u2581\uad11\ubd80": 24709, "\u2581\uad11\uc0b0": 8603, "\u2581\uad11\uc120": 13232, "\u2581\uad11\uc12c\uc720": 10149, "\u2581\uad11\uc18d": 20264, "\u2581\uad11\uc57c": 14404, "\u2581\uad11\uc57c\uc5d0\uc11c": 24076, "\u2581\uad11\uc5c5": 26050, "\u2581\uad11\uc6d0": 20371, "\u2581\uad11\uc7a5": 4305, "\u2581\uad11\uc800\uc6b0": 7072, "\u2581\uad11\uc8fc": 16837, "\u2581\uad11\ud0dd": 8170, "\u2581\uad11\ud559": 6436, "\u2581\uad1c\ucc2e": 10807, "\u2581\uad1c\ucc2e\ub2e4": 21692, "\u2581\uad1c\ucc2e\uc2b5\ub2c8\ub2e4": 26002, "\u2581\uad1c\ucc2e\uc544": 7768, "\u2581\uad1c\ucc2e\uc544\uc694": 13815, "\u2581\uad1c\ucc2e\uc558": 29791, "\u2581\uad1c\ucc2e\uc740": 10363, "\u2581\uad1c\ucc2e\uc744": 21717, "\u2581\uad34": 9265, "\u2581\uad34\ub85c\uc6b4": 30949, "\u2581\uad34\ub85c\uc6c0": 17952, "\u2581\uad34\ub85c\uc6cc": 28068, "\u2581\uad34\ub86d": 19953, "\u2581\uad34\ub86d\uac8c": 25183, "\u2581\uad34\ub86d\ud788": 19959, "\u2581\uad34\ub86d\ud788\ub294": 22461, "\u2581\uad34\ub86d\ud798": 23070, "\u2581\uad34\ubb3c": 3869, "\u2581\uad49\uc7a5": 24245, "\u2581\uad49\uc7a5\ud55c": 18501, "\u2581\uad49\uc7a5\ud788": 4549, "\u2581\uad50": 2440, "\u2581\uad50\uacfc\uc11c": 23479, "\u2581\uad50\uad6c": 25173, "\u2581\uad50\ub2e8": 29863, "\u2581\uad50\ub300": 26662, "\u2581\uad50\ub3c4\uc18c": 11280, "\u2581\uad50\ub7c9": 17429, "\u2581\uad50\ub828": 24074, "\u2581\uad50\ub958": 7746, "\u2581\uad50\ub9ac": 7846, "\u2581\uad50\ub9cc": 11052, "\u2581\uad50\ubb18": 26621, "\u2581\uad50\ubcf5": 7308, "\u2581\uad50\uc0ac": 2897, "\u2581\uad50\uc218": 2862, "\u2581\uad50\uc218\ub294": 16835, "\u2581\uad50\uc218\ub2d8": 19118, "\u2581\uad50\uc218\uc9c4": 25842, "\u2581\uad50\uc2e4": 9798, "\u2581\uad50\uc5ed": 22528, "\u2581\uad50\uc678": 22595, "\u2581\uad50\uc721": 574, "\u2581\uad50\uc721\uc5d0": 17803, "\u2581\uad50\uc721\uc740": 17889, "\u2581\uad50\uc721\uc744": 5055, "\u2581\uad50\uc721\uc758": 15211, "\u2581\uad50\uc778": 22737, "\u2581\uad50\uc7a5": 24993, "\u2581\uad50\uc7ac": 22103, "\u2581\uad50\uc815": 8010, "\u2581\uad50\uc81c": 10136, "\u2581\uad50\uc9c1\uc6d0": 29841, "\u2581\uad50\uc9c1\uc790": 12991, "\u2581\uad50\ucc28": 8384, "\u2581\uad50\uccb4": 4242, "\u2581\uad50\ud1a0": 9008, "\u2581\uad50\ud1b5": 2460, "\u2581\uad50\ud1b5\uc0ac\uace0": 29149, "\u2581\uad50\ud1b5\ud3b8": 22879, "\u2581\uad50\ud5a5\uace1": 29812, "\u2581\uad50\ud658": 2680, "\u2581\uad50\ud65c": 29335, "\u2581\uad50\ud669": 4495, "\u2581\uad50\ud68c": 1159, "\u2581\uad50\ud68c\uac00": 10503, "\u2581\uad50\ud68c\ub294": 7084, "\u2581\uad50\ud68c\ub97c": 8729, "\u2581\uad50\ud68c\uc5d0": 8501, "\u2581\uad50\ud68c\uc5d0\uc11c": 14325, "\u2581\uad50\ud68c\uc640": 22361, "\u2581\uad50\ud68c\uc758": 6700, "\u2581\uad50\ud6c8": 3285, "\u2581\uad50\ud6c8\uc744": 10951, "\u2581\uad6c": 583, "\u2581\uad6c\uac04": 13980, "\u2581\uad6c\uac15": 13504, "\u2581\uad6c\uac15\uc139\uc2a4": 21240, "\u2581\uad6c\uacbd": 6483, "\u2581\uad6c\uae00": 3618, "\u2581\uad6c\uae00\uc740": 20717, "\u2581\uad6c\uae08": 22375, "\u2581\uad6c\uae09\ucc28": 25062, "\u2581\uad6c\ub0b4": 26209, "\u2581\uad6c\ub2e8": 27731, "\u2581\uad6c\ub369\uc774": 20075, "\u2581\uad6c\ub3c5": 6434, "\u2581\uad6c\ub3c5\uc790": 19348, "\u2581\uad6c\ub3d9": 7708, "\u2581\uad6c\ub450": 5163, "\u2581\uad6c\ub984": 5358, "\u2581\uad6c\ub984\uc774": 21532, "\u2581\uad6c\ub9ac": 4623, "\u2581\uad6c\ub9e4": 1345, "\u2581\uad6c\ub9e4\ub97c": 20429, "\u2581\uad6c\ub9e4\uc790": 7588, "\u2581\uad6c\ub9e4\ud558\uae30": 25105, "\u2581\uad6c\ub9e4\ud55c": 20765, "\u2581\uad6c\ub9e4\ud560": 11797, "\u2581\uad6c\uba4d": 4695, "\u2581\uad6c\uba4d\uc744": 14756, "\u2581\uad6c\uba4d\uc774": 23533, "\u2581\uad6c\ubb38": 20471, "\u2581\uad6c\ubcc4": 5172, "\u2581\uad6c\ubd80\ub7ec": 31027, "\u2581\uad6c\ubd80\ub824": 31354, "\u2581\uad6c\ubd80\ub9ac": 23173, "\u2581\uad6c\ubd84": 4705, "\u2581\uad6c\ube44": 19019, "\u2581\uad6c\ube44\ub418\uc5b4": 18303, "\u2581\uad6c\uc0ac": 16589, "\u2581\uad6c\uc0c1": 20288, "\u2581\uad6c\uc11d": 15188, "\u2581\uad6c\uc131": 1076, "\u2581\uad6c\uc131\ub418\uc5b4": 5397, "\u2581\uad6c\uc131\ub41c": 6221, "\u2581\uad6c\uc131\ub41c\ub2e4": 27517, "\u2581\uad6c\uc131\ub429\ub2c8\ub2e4": 13841, "\u2581\uad6c\uc131\uc694\uc18c": 22580, "\u2581\uad6c\uc131\uc6d0": 7487, "\u2581\uad6c\uc131\uc6d0\ub4e4": 27211, "\u2581\uad6c\uc131\uc744": 19445, "\u2581\uad6c\uc131\ud558\ub294": 13948, "\u2581\uad6c\uc131\ud560": 20865, "\u2581\uad6c\uc138\uc8fc": 20071, "\u2581\uad6c\uc18d": 9660, "\u2581\uad6c\uc18d\ub825": 30208, "\u2581\uad6c\uc2ac": 21972, "\u2581\uad6c\uc57d": 14607, "\u2581\uad6c\uc5ed": 3121, "\u2581\uad6c\uc6b4": 24530, "\u2581\uad6c\uc6d0": 1533, "\u2581\uad6c\uc6d0\ubc1b": 13994, "\u2581\uad6c\uc6d0\uc744": 6420, "\u2581\uad6c\uc6d0\uc790": 18084, "\u2581\uad6c\uc6d0\ud560": 24601, "\u2581\uad6c\uc785": 2098, "\u2581\uad6c\uc785\ud558\uae30": 26217, "\u2581\uad6c\uc785\ud558\ub294": 19854, "\u2581\uad6c\uc785\ud558\uc2e0": 21686, "\u2581\uad6c\uc785\ud55c": 22619, "\u2581\uad6c\uc785\ud560": 7813, "\u2581\uad6c\uc808": 7010, "\u2581\uad6c\uc81c": 11884, "\u2581\uad6c\uc870": 1343, "\u2581\uad6c\uc870\ub294": 16021, "\u2581\uad6c\uc870\ub97c": 9087, "\u2581\uad6c\uc870\ubb3c": 12270, "\u2581\uad6c\uc8fc": 20198, "\u2581\uad6c\uc9c1": 28134, "\u2581\uad6c\uccb4": 18551, "\u2581\uad6c\uccb4\uc801": 17489, "\u2581\uad6c\uccb4\uc801\uc73c\ub85c": 12868, "\u2581\uad6c\uccb4\uc801\uc778": 8760, "\u2581\uad6c\uccb4\ud654": 28825, "\u2581\uad6c\ucd95": 2635, "\u2581\uad6c\ucd95\ud558\uace0": 19342, "\u2581\uad6c\ucd95\ud558\ub294": 19347, "\u2581\uad6c\ucd95\ud560": 25559, "\u2581\uad6c\ucd9c": 9009, "\u2581\uad6c\ud0c0": 24280, "\u2581\uad6c\ud558\uace0": 15103, "\u2581\uad6c\ud558\uae30": 13064, "\u2581\uad6c\ud558\ub294": 7420, "\u2581\uad6c\ud558\ub2e4": 22799, "\u2581\uad6c\ud558\ub77c": 19072, "\u2581\uad6c\ud558\uc9c0": 22303, "\u2581\uad6c\ud560": 5839, "\u2581\uad6c\ud574": 11702, "\u2581\uad6c\ud604": 3682, "\u2581\uad6c\ud604\ud558\ub294": 25916, "\u2581\uad6c\ud604\ud560": 23835, "\u2581\uad6c\ud638": 13073, "\u2581\uad6c\ud68d": 13554, "\u2581\uad6d": 2697, "\u2581\uad6d\uac00": 819, "\u2581\uad6d\uac00\uac00": 12695, "\u2581\uad6d\uac00\ub294": 14719, "\u2581\uad6d\uac00\ub300\ud45c\ud300": 26289, "\u2581\uad6d\uac00\ub4e4": 12366, "\u2581\uad6d\uac00\ub4e4\uc740": 24340, "\u2581\uad6d\uac00\ub4e4\uc774": 22864, "\u2581\uad6d\uac00\ub97c": 12505, "\u2581\uad6d\uac00\uc5d0": 8185, "\u2581\uad6d\uac00\uc5d0\uc11c": 5368, "\u2581\uad6d\uac00\uc640": 18739, "\u2581\uad6d\uac00\uc758": 4612, "\u2581\uad6d\uac00\uc801": 22350, "\u2581\uad6d\uacbd": 4707, "\u2581\uad6d\uae30": 21723, "\u2581\uad6d\ub0b4": 2693, "\u2581\uad6d\ub0b4\uc678": 19037, "\u2581\uad6d\ub9bd": 2820, "\u2581\uad6d\ub9bd\uacf5\uc6d0": 13364, "\u2581\uad6d\ubb34\ubd80": 29410, "\u2581\uad6d\ubbfc": 3287, "\u2581\uad6d\ubbfc\ub4e4": 12675, "\u2581\uad6d\ubbfc\uc758": 19170, "\u2581\uad6d\ubc29": 18148, "\u2581\uad6d\ubc29\ubd80": 21924, "\u2581\uad6d\uc601": 29205, "\u2581\uad6d\uc655": 19841, "\u2581\uad6d\uc7a5": 25639, "\u2581\uad6d\uc801": 12896, "\u2581\uad6d\uc81c": 565, "\u2581\uad6d\uc81c\uacf5\ud56d": 8415, "\u2581\uad6d\uc81c\ubc95": 27470, "\u2581\uad6d\uc81c\uc0ac\ud68c": 28400, "\u2581\uad6d\uc81c\uc801": 12194, "\u2581\uad6d\uc81c\uc801\uc73c\ub85c": 16328, "\u2581\uad6d\uc81c\uc801\uc778": 8772, "\u2581\uad6d\ud1a0": 28112, "\u2581\uad6d\ud55c": 21585, "\u2581\uad6d\ud55c\ub418\uc9c0": 28578, "\u2581\uad6d\ud68c": 13151, "\u2581\uad6d\ud68c\uc758\uc6d0": 26302, "\u2581\uad70": 2093, "\u2581\uad70\ub2e8": 22259, "\u2581\uad70\ub300": 2898, "\u2581\uad70\ub300\uac00": 20369, "\u2581\uad70\ub300\ub97c": 12642, "\u2581\uad70\ub370": 23225, "\u2581\uad70\uc0ac": 4284, "\u2581\uad70\uc0ac\ub825": 29123, "\u2581\uad70\uc0ac\uc801": 17636, "\u2581\uad70\uc778": 7452, "\u2581\uad70\uc778\ub4e4": 19783, "\u2581\uad70\uc8fc": 15884, "\u2581\uad70\uc911": 9760, "\u2581\uad70\ud568": 18191, "\u2581\uad73": 17421, "\u2581\uad73\uac74": 23176, "\u2581\uad73\uac8c": 8824, "\u2581\uad73\uc5b4": 28696, "\u2581\uad73\uc774": 11624, "\u2581\uad74": 5806, "\u2581\uad74\uace1": 30961, "\u2581\uad74\ub7ec": 28602, "\u2581\uad74\ubcf5": 14399, "\u2581\uad74\uc695": 23859, "\u2581\uad74\uc808": 30800, "\u2581\uad74\ucc29\uae30": 18215, "\u2581\uad76\uc8fc\ub9ac": 27658, "\u2581\uad76\uc8fc\ub9b0": 25680, "\u2581\uad76\uc8fc\ub9bc": 21491, "\u2581\uad7d": 8374, "\u2581\uad7d\ud788": 30384, "\u2581\uad7f": 10419, "\u2581\uad81": 8382, "\u2581\uad81\uadf9": 19241, "\u2581\uad81\uadf9\uc801": 18831, "\u2581\uad81\uadf9\uc801\uc73c\ub85c": 9642, "\u2581\uad81\uadf9\uc801\uc778": 19057, "\u2581\uad81\uae08": 5893, "\u2581\uad81\uae08\ud55c": 17671, "\u2581\uad81\uae08\ud569\ub2c8\ub2e4": 22140, "\u2581\uad81\uae08\ud574": 8966, "\u2581\uad81\uc804": 5970, "\u2581\uad81\ud54d": 19910, "\u2581\uad8c": 2612, "\u2581\uad8c\uace0": 6723, "\u2581\uad8c\ub2a5": 8579, "\u2581\uad8c\ub2a5\uacfc": 25528, "\u2581\uad8c\ub825": 4801, "\u2581\uad8c\ub825\uc744": 10907, "\u2581\uad8c\ub9ac": 2759, "\u2581\uad8c\ub9ac\uac00": 7461, "\u2581\uad8c\ub9ac\ub97c": 4169, "\u2581\uad8c\ub9ac\uc640": 20268, "\u2581\uad8c\uba74": 26807, "\u2581\uad8c\uc138": 6742, "\u2581\uad8c\uc704": 5440, "\u2581\uad8c\uc704\ub97c": 23648, "\u2581\uad8c\uc720": 21547, "\u2581\uad8c\uc775": 30537, "\u2581\uad8c\uc7a5": 4748, "\u2581\uad8c\uc7a5\ud569\ub2c8\ub2e4": 14798, "\u2581\uad8c\ucd1d": 26204, "\u2581\uad8c\ud22c": 25708, "\u2581\uad8c\ud55c": 5276, "\u2581\uad8c\ud55c\uc744": 6242, "\u2581\uad8c\ud55c\uc774": 11173, "\u2581\uad8c\ud569\ub2c8\ub2e4": 26887, "\u2581\uada4": 9432, "\u2581\uada4\ub3c4": 7540, "\u2581\uadc0": 1657, "\u2581\uadc0\uac00": 19773, "\u2581\uadc0\uac78\uc774": 28374, "\u2581\uadc0\uad6d": 29581, "\u2581\uadc0\ub97c": 7990, "\u2581\uadc0\uc0ac": 11118, "\u2581\uadc0\uc2e0": 9325, "\u2581\uadc0\uc5d0": 18733, "\u2581\uadc0\uc5ec\uc6b4": 3118, "\u2581\uadc0\uc5fd": 22506, "\u2581\uadc0\uc871": 15939, "\u2581\uadc0\uc911": 18063, "\u2581\uadc0\uc911\ud55c": 10941, "\u2581\uadc0\ucc2e": 25869, "\u2581\uadc0\ucc2e\uac8c": 28192, "\u2581\uadc0\ud558": 8432, "\u2581\uadc0\ud558\uac00": 3699, "\u2581\uadc0\ud558\ub294": 6425, "\u2581\uadc0\ud558\uc5d0\uac8c": 10905, "\u2581\uadc0\ud558\uc640": 23623, "\u2581\uadc0\ud558\uc758": 720, "\u2581\uadc0\ud55c": 17700, "\u2581\uadc0\ud658": 19695, "\u2581\uaddc": 10722, "\u2581\uaddc\uaca9": 10435, "\u2581\uaddc\ub840": 16696, "\u2581\uaddc\ubaa8": 3762, "\u2581\uaddc\ubaa8\uc758": 7080, "\u2581\uaddc\ubc94": 19303, "\u2581\uaddc\ube57": 26611, "\u2581\uaddc\uc728": 26127, "\u2581\uaddc\uc815": 2490, "\u2581\uaddc\uc815\uc5d0": 16530, "\u2581\uaddc\uc815\uc744": 13715, "\u2581\uaddc\uc81c": 3723, "\u2581\uaddc\uce59": 3298, "\u2581\uaddc\uce59\uc5d0": 21185, "\u2581\uaddc\uce59\uc740": 18320, "\u2581\uaddc\uce59\uc744": 7838, "\u2581\uaddc\uce59\uc774": 18770, "\u2581\uade0": 17139, "\u2581\uade0\ub4f1": 28076, "\u2581\uade0\uc5f4": 17027, "\u2581\uade0\uc77c": 20843, "\u2581\uade0\ud615": 3441, "\u2581\uade0\ud615\uc744": 7944, "\u2581\uadf8": 18, "\u2581\uadf8\uac00": 332, "\u2581\uadf8\uac70": 7778, "\u2581\uadf8\uac74": 1584, "\u2581\uadf8\uac78": 2521, "\u2581\uadf8\uac83": 632, "\u2581\uadf8\uac83\uacfc": 21343, "\u2581\uadf8\uac83\ub3c4": 9337, "\u2581\uadf8\uac83\ub4e4": 17130, "\u2581\uadf8\uac83\ub4e4\uc740": 8653, "\u2581\uadf8\uac83\ub4e4\uc744": 7291, "\u2581\uadf8\uac83\ub4e4\uc774": 13273, "\u2581\uadf8\uac83\uc5d0": 2829, "\u2581\uadf8\uac83\uc73c\ub85c": 10219, "\u2581\uadf8\uac83\uc740": 173, "\u2581\uadf8\uac83\uc744": 319, "\u2581\uadf8\uac83\uc758": 2641, "\u2581\uadf8\uac83\uc774": 708, "\u2581\uadf8\uac8c": 1392, "\u2581\uadf8\uacf3": 3696, "\u2581\uadf8\uacf3\uc5d0": 5138, "\u2581\uadf8\uacf3\uc5d0\uc11c": 6561, "\u2581\uadf8\uacf3\uc740": 21366, "\u2581\uadf8\ub098\ub9c8": 20498, "\u2581\uadf8\ub098\uc800\ub098": 29522, "\u2581\uadf8\ub0a0": 2804, "\u2581\uadf8\ub0e5": 805, "\u2581\uadf8\ub140": 4594, "\u2581\uadf8\ub140\uac00": 1823, "\u2581\uadf8\ub140\ub294": 550, "\u2581\uadf8\ub140\ub4e4": 27915, "\u2581\uadf8\ub140\ub97c": 3076, "\u2581\uadf8\ub140\uc5d0\uac8c": 5926, "\u2581\uadf8\ub140\uc640": 10486, "\u2581\uadf8\ub140\uc758": 711, "\u2581\uadf8\ub188": 19916, "\u2581\uadf8\ub294": 118, "\u2581\uadf8\ub298": 13104, "\u2581\uadf8\ub2e4\uc74c": 18352, "\u2581\uadf8\ub2e4\uc9c0": 13286, "\u2581\uadf8\ub300": 3841, "\u2581\uadf8\ub300\uac00": 7859, "\u2581\uadf8\ub300\ub294": 6462, "\u2581\uadf8\ub300\ub4e4\uc740": 25858, "\u2581\uadf8\ub300\ub4e4\uc758": 30075, "\u2581\uadf8\ub300\ub85c": 1582, "\u2581\uadf8\ub300\ub97c": 10544, "\u2581\uadf8\ub300\uc5d0\uac8c": 9716, "\u2581\uadf8\ub300\uc758": 7441, "\u2581\uadf8\ub3d9\uc548": 9619, "\u2581\uadf8\ub4e4": 915, "\u2581\uadf8\ub4e4\uacfc": 4149, "\u2581\uadf8\ub4e4\ub3c4": 16101, "\u2581\uadf8\ub4e4\ub85c": 14169, "\u2581\uadf8\ub4e4\ub9cc": 26771, "\u2581\uadf8\ub4e4\uc5d0": 9906, "\u2581\uadf8\ub4e4\uc5d0\uac8c": 957, "\u2581\uadf8\ub4e4\uc740": 168, "\u2581\uadf8\ub4e4\uc744": 621, "\u2581\uadf8\ub4e4\uc758": 271, "\u2581\uadf8\ub4e4\uc774": 288, "\u2581\uadf8\ub54c": 1577, "\u2581\uadf8\ub54c\uae4c\uc9c0": 25542, "\u2581\uadf8\ub54c\ubd80\ud130": 24523, "\u2581\uadf8\ub54c\uc5d0": 15391, "\u2581\uadf8\ub77c": 14781, "\u2581\uadf8\ub77c\ub098\ub2e4": 24857, "\u2581\uadf8\ub798": 1758, "\u2581\uadf8\ub798\ub3c4": 3021, "\u2581\uadf8\ub798\uc11c": 264, "\u2581\uadf8\ub798\uc57c": 8649, "\u2581\uadf8\ub798\uc694": 9262, "\u2581\uadf8\ub798\ud504": 8937, "\u2581\uadf8\ub798\ud53d": 3689, "\u2581\uadf8\ub79c\ub4dc": 3742, "\u2581\uadf8\ub79c\ud2b8": 25265, "\u2581\uadf8\ub7a8": 11691, "\u2581\uadf8\ub7ac": 6179, "\u2581\uadf8\ub7ac\ub2e4": 20633, "\u2581\uadf8\ub7ac\ub354\ub2c8": 25270, "\u2581\uadf8\ub7ac\ub358": 20263, "\u2581\uadf8\ub7ac\uc5b4": 28133, "\u2581\uadf8\ub7ec": 2876, "\u2581\uadf8\ub7ec\uace0": 8027, "\u2581\uadf8\ub7ec\uae30": 13942, "\u2581\uadf8\ub7ec\ub098": 104, "\u2581\uadf8\ub7ec\ub294": 17692, "\u2581\uadf8\ub7ec\ub2c8": 4390, "\u2581\uadf8\ub7ec\ub2c8\uae4c": 3970, "\u2581\uadf8\ub7ec\ub2e4": 12430, "\u2581\uadf8\ub7ec\ub2e4\uac00": 15720, "\u2581\uadf8\ub7ec\ub358": 16099, "\u2581\uadf8\ub7ec\uba74": 1186, "\u2581\uadf8\ub7ec\uba74\uc11c": 7690, "\u2581\uadf8\ub7ec\ubbc0\ub85c": 707, "\u2581\uadf8\ub7ec\uc790": 4761, "\u2581\uadf8\ub7ec\uc9c0": 13645, "\u2581\uadf8\ub7ec\ud558\ub2e4": 19557, "\u2581\uadf8\ub7ec\ud55c": 516, "\u2581\uadf8\ub7ec\ud569\ub2c8\ub2e4": 26470, "\u2581\uadf8\ub7f0": 275, "\u2581\uadf8\ub7f0\ub370": 701, "\u2581\uadf8\ub7f0\ub370\ub3c4": 13190, "\u2581\uadf8\ub7f0\uc989": 13137, "\u2581\uadf8\ub7f4": 2390, "\u2581\uadf8\ub7fc": 1300, "\u2581\uadf8\ub7fc\uc5d0\ub3c4": 3785, "\u2581\uadf8\ub807": 8354, "\u2581\uadf8\ub807\uac8c": 336, "\u2581\uadf8\ub807\uace0": 19427, "\u2581\uadf8\ub807\uae30": 6164, "\u2581\uadf8\ub807\ub2e4": 5476, "\u2581\uadf8\ub807\ub2e4\uace0": 5757, "\u2581\uadf8\ub807\ub2e4\uba74": 1635, "\u2581\uadf8\ub807\ub4ef": 28996, "\u2581\uadf8\ub807\ub4ef\uc774": 27519, "\u2581\uadf8\ub807\uc2b5\ub2c8\ub2e4": 4536, "\u2581\uadf8\ub807\uc8e0": 10476, "\u2581\uadf8\ub807\uc9c0": 1353, "\u2581\uadf8\ub807\uc9c0\ub9cc": 3665, "\u2581\uadf8\ub808": 14713, "\u2581\uadf8\ub808\uace0\ub9ac": 24671, "\u2581\uadf8\ub808\uc774": 8914, "\u2581\uadf8\ub808\uc774\uc2a4": 26919, "\u2581\uadf8\ub808\uc774\uc5c4": 29956, "\u2581\uadf8\ub808\uc774\ud2b8": 18667, "\u2581\uadf8\ub824": 8594, "\u2581\uadf8\ub824\uc9c4": 25939, "\u2581\uadf8\ub85c": 12631, "\u2581\uadf8\ub8e8": 20726, "\u2581\uadf8\ub8f9": 1016, "\u2581\uadf8\ub8f9\uc5d0": 10281, "\u2581\uadf8\ub8f9\uc740": 8632, "\u2581\uadf8\ub8f9\uc744": 10595, "\u2581\uadf8\ub8f9\uc758": 6983, "\u2581\uadf8\ub8f9\uc774": 15590, "\u2581\uadf8\ub97c": 687, "\u2581\uadf8\ub987": 5435, "\u2581\uadf8\ub9ac": 2189, "\u2581\uadf8\ub9ac\uace0": 66, "\u2581\uadf8\ub9ac\uace4": 29555, "\u2581\uadf8\ub9ac\uae30": 20823, "\u2581\uadf8\ub9ac\ub294": 20112, "\u2581\uadf8\ub9ac\ub4dc": 16581, "\u2581\uadf8\ub9ac\uc2a4": 2505, "\u2581\uadf8\ub9ac\uc2a4\ub3c4": 952, "\u2581\uadf8\ub9ac\uc2a4\ub3c4\uad50": 10527, "\u2581\uadf8\ub9ac\uc2a4\ub3c4\uad50\uad6d": 10889, "\u2581\uadf8\ub9ac\uc2a4\ub3c4\uaed8": 29213, "\u2581\uadf8\ub9ac\uc2a4\ub3c4\uaed8\uc11c": 11958, "\u2581\uadf8\ub9ac\uc2a4\ub3c4\uc758": 5297, "\u2581\uadf8\ub9ac\uc2a4\ub3c4\uc778": 1007, "\u2581\uadf8\ub9ac\uc2a4\uc5b4": 10612, "\u2581\uadf8\ub9ac\uc2a4\uc778": 21630, "\u2581\uadf8\ub9ac\uc6cc": 11813, "\u2581\uadf8\ub9ac\ud558\uba74": 7923, "\u2581\uadf8\ub9ac\ud558\uc5ec": 3204, "\u2581\uadf8\ub9b0": 3707, "\u2581\uadf8\ub9b4": 13230, "\u2581\uadf8\ub9bc": 1527, "\u2581\uadf8\ub9bc\uc740": 17129, "\u2581\uadf8\ub9bc\uc744": 6410, "\u2581\uadf8\ub9bc\uc790": 7405, "\u2581\uadf8\ub9bd": 15700, "\u2581\uadf8\ub9cc": 4130, "\u2581\uadf8\ub9cc\ub450": 15617, "\u2581\uadf8\ub9cc\ud07c": 4942, "\u2581\uadf8\ubb3c": 16026, "\u2581\uadf8\ubcf4\ub2e4": 13095, "\u2581\uadf8\ubd84": 607, "\u2581\uadf8\ubd84\uaed8": 11993, "\u2581\uadf8\ubd84\uaed8\uc11c": 7513, "\u2581\uadf8\ubd84\uaed8\uc11c\ub294": 17890, "\u2581\uadf8\ubd84\uc5d0\uac8c": 20140, "\u2581\uadf8\ubd84\uc740": 3175, "\u2581\uadf8\ubd84\uc744": 6279, "\u2581\uadf8\ubd84\uc758": 2334, "\u2581\uadf8\ubd84\uc774": 5969, "\u2581\uadf8\uc57c\ub9d0\ub85c": 23550, "\u2581\uadf8\uc5d0\uac8c": 1201, "\u2581\uadf8\uc640": 3115, "\u2581\uadf8\uc758": 189, "\u2581\uadf8\uc800": 2719, "\u2581\uadf8\uc911": 6459, "\u2581\uadf8\ucabd": 23659, "\u2581\uadf8\ucc98\ub7fc": 10319, "\u2581\uadf8\uce58\ub9cc": 31045, "\u2581\uadf8\uce58\uc9c0": 26336, "\u2581\uadf8\ud1a0\ub85d": 10353, "\u2581\uadf8\ud6c4": 21214, "\u2581\uadf9": 3092, "\u2581\uadf9\ub2e8": 20384, "\u2581\uadf9\ub2e8\uc801": 22599, "\u2581\uadf9\ub2e8\uc801\uc73c\ub85c": 27614, "\u2581\uadf9\ub2e8\uc801\uc778": 21350, "\u2581\uadf9\ub300\ud654": 13086, "\u2581\uadf9\ub3c4\ub85c": 23861, "\u2581\uadf9\ubcf5": 4933, "\u2581\uadf9\ubcf5\ud558\uae30": 28707, "\u2581\uadf9\ubcf5\ud560": 25509, "\u2581\uadf9\uc18c\uc218": 30929, "\u2581\uadf9\uc2ec": 28623, "\u2581\uadf9\uc7a5": 4462, "\u2581\uadf9\uc801\uc73c\ub85c": 24793, "\u2581\uadf9\uc801\uc778": 23728, "\u2581\uadf9\ud55c": 22390, "\u2581\uadfc": 3905, "\u2581\uadfc\uac70": 3252, "\u2581\uadfc\uac70\ub97c": 20130, "\u2581\uadfc\uac70\ud55c": 22080, "\u2581\uadfc\ub300": 22479, "\u2581\uadfc\ub370": 3277, "\u2581\uadfc\ub85c\uc790": 13583, "\u2581\uadfc\ubb34": 3784, "\u2581\uadfc\ubc29": 12769, "\u2581\uadfc\ubcf8": 14264, "\u2581\uadfc\ubcf8\uc801": 26356, "\u2581\uadfc\ubcf8\uc801\uc73c\ub85c": 13773, "\u2581\uadfc\ubcf8\uc801\uc778": 10774, "\u2581\uadfc\uc0ac": 24939, "\u2581\uadfc\uc2ec": 12584, "\u2581\uadfc\uc6d0": 5132, "\u2581\uadfc\uc721": 2605, "\u2581\uadfc\uc808": 27279, "\u2581\uadfc\uc811": 10087, "\u2581\uadfc\ucc98": 3528, "\u2581\uadfc\ucc98\uc5d0": 2812, "\u2581\uadfc\ucc98\uc5d0\uc11c": 21597, "\u2581\uadfc\ucc98\uc758": 9461, "\u2581\uae00": 1452, "\u2581\uae00\uaf34": 3767, "\u2581\uae00\ub77c\uc2a4": 29015, "\u2581\uae00\ub77c\uc2a4\uace0": 27601, "\u2581\uae00\ub798\uc2a4": 19161, "\u2581\uae00\ub80c": 23199, "\u2581\uae00\ub85c": 16858, "\u2581\uae00\ub85c\ub9ac\ud640": 18139, "\u2581\uae00\ub85c\ubc8c": 1860, "\u2581\uae00\ub9ac": 24685, "\u2581\uae00\uc384": 13860, "\u2581\uae00\uc384\uc694": 26016, "\u2581\uae00\uc4f0\uae30": 16698, "\u2581\uae00\uc4f4\uc774": 20064, "\u2581\uae00\uc528": 27417, "\u2581\uae00\uc5d0\uc11c": 22401, "\u2581\uae00\uc740": 15721, "\u2581\uae00\uc744": 3595, "\u2581\uae00\uc774": 17404, "\u2581\uae00\uc790": 7802, "\u2581\uae01": 21160, "\u2581\uae08": 1285, "\u2581\uae08\uace0": 2910, "\u2581\uae08\uae30": 21920, "\u2581\uae08\ub9ac": 27820, "\u2581\uae08\uba54\ub2ec": 25362, "\u2581\uae08\ubc1c": 2162, "\u2581\uae08\ubc1c\uc758": 11626, "\u2581\uae08\ubc29": 13042, "\u2581\uae08\uc18d": 1613, "\u2581\uae08\uc2dd": 18011, "\u2581\uae08\uc561": 6117, "\u2581\uae08\uc561\uc740": 19372, "\u2581\uae08\uc561\uc744": 12922, "\u2581\uae08\uc5f0": 5869, "\u2581\uae08\uc694\uc77c": 4813, "\u2581\uae08\uc735": 2134, "\u2581\uae08\uc9c0": 2648, "\u2581\uae08\uc9c0\ub418\uc5b4": 23300, "\u2581\uae08\uc9c0\ub41c": 24794, "\u2581\uae08\ud615": 13049, "\u2581\uae09": 4560, "\u2581\uae09\uaca9": 14173, "\u2581\uae09\ub8cc": 6954, "\u2581\uae09\uc131": 24159, "\u2581\uae09\uc18d": 11991, "\u2581\uae09\uc18d\ud55c": 20706, "\u2581\uae09\uc218": 23931, "\u2581\uae09\uc2dd": 24830, "\u2581\uae09\uc5ec": 15135, "\u2581\uae09\uc99d": 25091, "\u2581\uae09\uc9c4\uc801": 28680, "\u2581\uae09\ud589": 27585, "\u2581\uae09\ud788": 20186, "\u2581\uae0d\uc815": 25516, "\u2581\uae0d\uc815\uc801": 5453, "\u2581\uae0d\uc815\uc801\uc73c\ub85c": 22922, "\u2581\uae0d\uc815\uc801\uc778": 6474, "\u2581\uae0d\ud73c": 13056, "\u2581\uae30": 591, "\u2581\uae30\uac00\ube44\ud2b8": 29636, "\u2581\uae30\uac04": 1002, "\u2581\uae30\uac04\ub3d9\uc548": 27701, "\u2581\uae30\uac04\uc5d0": 12691, "\u2581\uae30\uac04\uc740": 11188, "\u2581\uae30\uac04\uc744": 13484, "\u2581\uae30\uac04\uc774": 13393, "\u2581\uae30\uac11": 23091, "\u2581\uae30\uacc4": 505, "\u2581\uae30\uacc4\uac00": 19985, "\u2581\uae30\uacc4\ub294": 8418, "\u2581\uae30\uacc4\ub85c": 19863, "\u2581\uae30\uacc4\ub97c": 5619, "\u2581\uae30\uacc4\uc124\ube44": 28676, "\u2581\uae30\uacc4\uc2dd": 27325, "\u2581\uae30\uacc4\uc758": 15263, "\u2581\uae30\uacc4\uc7a5\uce58": 13060, "\u2581\uae30\uacc4\uc801": 10921, "\u2581\uae30\uacc4\uc801\uc778": 22537, "\u2581\uae30\uad00": 1723, "\u2581\uae30\uad00\uc5d0": 16984, "\u2581\uae30\uad00\uc740": 22100, "\u2581\uae30\uad00\uc758": 16730, "\u2581\uae30\uad6c": 4663, "\u2581\uae30\uadfc": 16897, "\u2581\uae30\uae08": 9667, "\u2581\uae30\uae30": 3194, "\u2581\uae30\uae30\ub97c": 12871, "\u2581\uae30\uae30\uc5d0": 18307, "\u2581\uae30\uae30\uc5d0\uc11c": 16977, "\u2581\uae30\uaebc\uc774": 4781, "\u2581\uae30\ub0b4": 24505, "\u2581\uae30\ub150": 4269, "\u2581\uae30\ub150\uad00": 25618, "\u2581\uae30\ub150\ubb3c": 19227, "\u2581\uae30\ub150\ube44": 21134, "\u2581\uae30\ub150\uc2dd": 25725, "\u2581\uae30\ub150\uc77c": 14207, "\u2581\uae30\ub150\ud488": 21782, "\u2581\uae30\ub2a5": 861, "\u2581\uae30\ub2a5\uacfc": 11898, "\u2581\uae30\ub2a5\uc131": 22862, "\u2581\uae30\ub2a5\uc5d0": 11352, "\u2581\uae30\ub2a5\uc73c\ub85c": 18233, "\u2581\uae30\ub2a5\uc740": 5859, "\u2581\uae30\ub2a5\uc744": 1192, "\u2581\uae30\ub2a5\uc758": 15411, "\u2581\uae30\ub2a5\uc774": 4987, "\u2581\uae30\ub2e4\ub824": 7194, "\u2581\uae30\ub2e4\ub824\uc57c": 14376, "\u2581\uae30\ub2e4\ub838": 20578, "\u2581\uae30\ub2e4\ub838\ub2e4": 20837, "\u2581\uae30\ub2e4\ub9ac": 6035, "\u2581\uae30\ub2e4\ub9ac\uace0": 3390, "\u2581\uae30\ub2e4\ub9ac\ub294": 7494, "\u2581\uae30\ub2e4\ub9ac\uba70": 27602, "\u2581\uae30\ub2e4\ub9ac\uc9c0": 20983, "\u2581\uae30\ub2e4\ub9b0": 31003, "\u2581\uae30\ub2e4\ub9b0\ub2e4": 26619, "\u2581\uae30\ub2e4\ub9b4": 9615, "\u2581\uae30\ub2e4\ub9bc": 28063, "\u2581\uae30\ub2e4\ub9bd\ub2c8\ub2e4": 21892, "\u2581\uae30\ub300": 1596, "\u2581\uae30\ub300\ub97c": 15278, "\u2581\uae30\ub300\ud558\uace0": 15161, "\u2581\uae30\ub300\ud558\ub294": 20207, "\u2581\uae30\ub300\ud558\uc9c0": 21672, "\u2581\uae30\ub300\ud560": 15962, "\u2581\uae30\ub300\ud569\ub2c8\ub2e4": 17368, "\u2581\uae30\ub3c4": 767, "\u2581\uae30\ub3c4\ub294": 15710, "\u2581\uae30\ub3c4\ud558\uace0": 22726,
[...]
