{"!": 54, "!!": 4122, "!!!": 7522, "!\"": 1793, "!)": 9000, "!\u201d": 1189, "!\u3011\"": 30589, "\"": 115, "\")": 5618, "\").": 13206, "\".": 1143, "\">": 5035, "\"?": 12694, "#": 3440, "$": 803, "$1": 16812, "%": 1806, "%)": 8162, "%1$": 23763, "&": 816, "'": 18, "(": 291, "()": 6259, "(...)": 29494, "(0)": 29348, "(1": 9403, "(1)": 11883, "(10": 18930, "(12": 26428, "(18": 26134, "(19": 25477, "(2": 9580, "(2)": 16118, "(20": 24380, "(3": 15224, "(3)": 22072, "(4": 14387, "(5": 17140, "(6": 21288, "(7": 21801, "(8": 23246, "(9": 25834, ")": 40, "),": 486, ").": 316, "):": 3049, ");": 4564, "*": 768, "**": 21945, "***": 26896, "*1": 7846, "*10": 20749, "*2": 12396, "*3": 16460, "+": 771, "++": 8302, "+00:00": 22917, "+1": 18405, "+2": 21839, ",": 4, ",\"": 1124, ",000,000": 9059, ",400": 14064, ",\u201d": 441, "-": 19, "--": 2159, "---": 11814, "----------------": 26178, "-0": 7179, "-00": 10704, "-001": 24097, "-01": 6723, "-02": 7542, "-03": 9301, "-03-2": 29147, "-04": 9545, "-05": 11741, "-05-": 22343, "-06": 13401, "-06-": 21920, "-07": 10040, "-08": 9057, "-09": 9558, "-1": 1827, "-10": 2454, "-100": 9202, "-1000": 20083, "-11": 3809, "-12": 3302, "-120": 20518, "-13": 6168, "-14": 6772, "-15": 4703, "-150": 17929, "-16": 5983, "-17": 6550, "-18": 5744, "-19": 3831, "-2": 2930, "-20": 3793, "-200": 12167, "-2000": 18769, "-2016": 23379, "-2017": 19771, "-2018": 19886, "-2019": 13646, "-21": 8060, "-22": 8216, "-23": 8552, "-24": 7998, "-240": 20604, "-25": 7792, "-26": 10041, "-27": 11621, "-28": 11225, "-29": 13218, "-3": 3451, "-30": 6133, "-300": 15481, "-31": 14075, "-32": 14331, "-33": 17538, "-34": 12405, "-35": 11926, "-36": 18024, "-39": 20622, "-4": 3259, "-40": 8789, "-400": 19806, "-45": 14022, "-47": 19985, "-48": 21401, "-5": 2644, "-50": 10422, "-500": 17572, "-6": 3314, "-60": 8952, "-7": 5838, "-70": 16029, "-75": 20111, "-8": 2939, "-80": 13782, "-800": 21409, "-85": 22704, "-9": 5218, "-90": 17910, ".": 3, ".\"": 138, ".'\"": 11928, ".*": 7344, "...": 109, "...\"": 11954, "...............": 23040, "...\u201d": 12473, ".0%": 17136, ".000": 11666, ".01.20": 27038, ".02.20": 24402, ".03.2017": 31848, ".06.201": 25934, ".08.201": 29313, ".09.201": 29987, ".11.20": 28340, ".12.201": 29491, ".5+": 8850, ".99": 8102, ".[": 4276, ".[1": 14557, ".[1]": 8471, ".[2]": 12441, ".[3]": 15885, ".[4]": 18995, ".[5]": 19508, ".\u2019\u201d": 5721, ".\u201d": 76, ".\u201d\u2014": 9903, "/": 96, "/0": 17883, "/01/": 21988, "/02/": 31277, "/02/201": 29656, "/03/201": 29621, "/04/201": 30295, "/06": 25681, "/06/20": 29537, "/07/2": 28628, "/08/": 22483, "/1": 4878, "/10": 6935, "/100": 19592, "/11": 13617, "/12": 10493, "/13": 21983, "/14": 21522, "/15": 7734, "/16": 15021, "/18": 21599, "/19": 21402, "/2": 7000, "/20": 12279, "/2014": 22574, "/2015": 19540, "/2016": 23518, "/2017": 18747, "/2018": 19708, "/2019": 24523, "/22": 10211, "/24": 17791, "/25": 20003, "/3": 8901, "/30": 18478, "/4": 7750, "/5": 9050, "/50": 18210, "/6": 11479, "/60": 21822, "/7": 14620, "/8": 6685, "/9": 18293, "0": 1294, "0-1": 19159, "0-7": 26904, "0.0": 7038, "0.00": 7031, "0.000": 22022, "0.1": 9734, "0.2": 11055, "0.20": 31407, "0.3": 10667, "0.4": 18383, "0.45": 31691, "0.5": 10812, "0.6": 15665, "0.7": 17589, "0.8": 15886, "0.9": 16457, "00": 4761, "00,000": 8169, "000": 7056, "0000": 7629, "00000": 20535, "000000": 25544, "0001": 24421, "001": 8364, "002": 15026, "003": 18142, "004": 19473, "005": 19418, "006": 22556, "007": 15442, "008": 18477, "009": 23486, "00:00": 19774, "01": 2993, "010": 15091, "011": 20487, "015": 20291, "016": 25679, "018": 22739, "019": 24791, "02": 3590, "020": 14856, "024": 24640, "025": 20398, "028": 25490, "029": 27045, "02:02": 30947, "03": 3769, "030": 15764, "031": 23394, "03:01": 26750, "04": 3479, "04.201": 28346, "040": 17950, "04:00": 14730, "04:30": 30196, "04:58": 22709, "04:59": 16643, "05": 3083, "050": 16614, "05:06": 23807, "05:15": 27799, "05:16": 31563, "05:29": 25042, "05:45": 29867, "06": 4216, "06)": 21055, "060": 16944, "06:03": 28839, "06:07": 20806, "06:10": 16327, "06:13": 25853, "06:17": 31694, "06:23": 31699, "07": 3607, "07.201": 27491, "070": 20157, "075": 22745, "07:04": 30641, "07:20": 29870, "07:45": 30322, "07:56": 29324, "08": 4042, "08)": 19389, "080": 16467, "08:01": 7188, "08:04": 27044, "09": 4037, "09)": 25461, "09:54": 31246, "09:57": 30975, "09:59": 28664, "0:06": 20423, "0:10": 29836, "0\u00b0": 6200, "1": 281, "1%": 6616, "1)": 4110, "1,000": 12668, "1,500": 30974, "1-1": 17283, "1-2": 23977, "1-4": 18509, "1-7": 25296, "1.0": 11331, "1.00": 23827, "1.1": 9149, "1.2": 9790, "1.3": 13169, "1.4": 12406, "1.5": 6277, "1.6": 13789, "1.7": 16475, "1.8": 16040, "1.9": 20324, "1/": 17012, "1/2": 18776, "10": 808, "10%": 23592, "10)": 11472, "10,000": 22089, "100": 2156, "100%": 16527, "1000": 7084, "101": 9035, "102": 13362, "103": 12635, "104": 13186, "105": 11005, "106": 12612, "107": 17051, "108": 12875, "1080": 21080, "109": 13794, "10:01": 19802, "11": 1499, "11)": 12576, "110": 8401, "1100": 24918, "111": 11580, "112": 15559, "113": 19857, "114": 18012, "115": 16793, "116": 17121, "117": 14299, "118": 15449, "119": 16447, "12": 1270, "12)": 13807, "120": 6575, "1200": 14536, "121": 19773, "122": 17766, "123": 11334, "1234": 24409, "124": 16704, "125": 9251, "1250": 25641, "126": 17047, "127": 17851, "128": 12005, "129": 15648, "13": 1855, "13)": 14160, "130": 9060, "131": 15438, "132": 20656, "133": 15612, "134": 16895, "13485": 31231, "135": 13692, "136": 15485, "137": 17952, "138": 17622, "139": 17784, "14": 1878, "14)": 14100, "140": 10525, "14001": 21178, "141": 19001, "143": 20964, "144": 16638, "145": 15454, "146": 20864, "147": 22342, "148": 20539, "149": 18124, "15": 1594, "15)": 16400, "150": 5949, "1500": 17704, "151": 19875, "152": 22059, "153": 21279, "154": 22242, "155": 12286, "156": 18833, "157": 19661, "158": 20058, "159": 19500, "16": 1800, "16)": 13255, "160": 7535, "1600": 23775, "161": 19742, "162": 23364, "164": 19790, "165": 21249, "166": 19795, "167": 23622, "168": 15606, "169": 14560, "16949": 27819, "17": 1724, "17)": 13595, "170": 11317, "171": 21502, "172": 22417, "173": 17830, "174": 17934, "175": 15262, "176": 18794, "177": 17157, "178": 18862, "179": 21133, "18": 1698, "18)": 14989, "180": 8697, "1800": 21371, "181": 18303, "182": 20556, "183": 22029, "184": 22064, "185": 15498, "186": 20437, "187": 20081, "188": 14622, "189": 17707, "19": 2054, "19)": 11683, "190": 15048, "1900": 28502, "191": 21980, "192": 20327, "194": 17285, "195": 15431, "196": 20127, "197": 19193, "198": 16856, "199": 19211, "1:06": 26934, "2": 208, "2%": 7223, "2)": 2783, "2,000": 11871, "2,500": 29690, "2-": 12206, "2-1": 19693, "2-2": 21367, "2-3": 21398, "2-4": 17510, "2.0": 10280, "2.00": 22759, "2.1": 9221, "2.2": 12948, "2.3": 12851, "2.4": 13008, "2.5": 6567, "2.5%": 30023, "2.6": 17448, "2.7": 14965, "2.8": 15298, "2.9": 21523, "2/": 12562, "20": 1468, "20%": 25694, "20)": 15113, "20,000": 19495, "200": 2583, "2000": 8569, "2002": 23626, "2003": 21415, "2004": 21032, "2005": 21975, "2006": 22487, "2007": 18767, "2008": 16582, "2009": 16448, "201": 14077, "2010": 14187, "2011": 13808, "2012": 13484, "2013": 13077, "2014": 14393, "2015": 9992, "2016": 11274, "2017": 11281, "2018": 9750, "2019": 9849, "202": 17507, "2020": 12512, "203": 15236, "204": 18668, "205": 14901, "206": 20425, "207": 21168, "208": 20006, "209": 20256, "21": 2256, "21)": 13168, "210": 11815, "211": 22210, "212": 16649, "213": 16857, "214": 21381, "215": 20866, "216": 19138, "219": 18978, "22": 2549, "22)": 14739, "220": 7212, "221": 19974, "222": 14954, "223": 22348, "225": 18784, "226": 22954, "227": 19040, "228": 17861, "229": 21359, "23": 2839, "23)": 14377, "230": 13470, "231": 23333, "232": 10503, "233": 19411, "234": 21053, "235": 12424, "236": 22503, "237": 24564, "238": 23259, "239": 23091, "24": 1932, "24)": 14541, "240": 10708, "242": 21852, "244": 21977, "245": 21959, "246": 24268, "247": 23508, "248": 22987, "25": 1992, "25)": 13006, "250": 6560, "2500": 22726, "251": 23999, "254": 23647, "255": 20073, "256": 17565, "259": 24781, "26": 3438, "26)": 11775, "260": 15938, "261": 22992, "262": 19892, "263": 23612, "264": 10427, "265": 12222, "266": 19583, "267": 23727, "268": 19551, "269": 18956, "27": 3162, "27)": 12078, "270": 17664, "271": 21078, "272": 21838, "273": 22120, "274": 24005, "275": 17620, "276": 19588, "277": 19396, "278": 23886, "279": 20559, "28": 3257, "28)": 16890, "280": 12689, "283": 23975, "2835": 30669, "284": 24273, "285": 20661, "286": 26133, "287": 22286, "288": 22275, "289": 24369, "29": 2595, "29)": 11164, "290": 14332, "293": 22109, "295": 19891, "296": 20412, "297": 23864, "298": 21856, "299": 21963, "2:06": 20413, "2\u00b0": 21046, "3": 282, "3%": 6350, "3)": 4374, "3,000": 11481, "3-": 9719, "3-5": 19610, "3-6": 25696, "3-7": 25849, "3.0": 14496, "3.00": 25866, "3.1": 12509, "3.2": 14065, "3.3": 11499, "3.4": 19468, "3.5": 9122, "3.6": 16007, "3.7": 17335, "3.8": 20331, "3.9": 19586, "3/": 9588, "30": 1942, "30%": 25073, "30)": 13243, "30,000": 20737, "300": 3269, "3000": 11879, "301": 13472, "302": 20759, "303": 17614, "304": 8412, "305": 14871, "306": 18377, "307": 20944, "308": 24313, "309": 21588, "30\u00b0": 27337, "31": 4360, "31)": 12543, "310": 13876, "312": 21741, "315": 21476, "316": 11513, "318": 21519, "32": 2193, "32)": 13515, "320": 9691, "321": 20187, "325": 20100, "326": 22833, "327": 21606, "328": 25512, "33": 3358, "33)": 12215, "330": 14980, "331": 24154, "333": 19639, "334": 25389, "335": 18843, "336": 23081, "339": 24089, "34": 4642, "34)": 13860, "340": 18569, "341": 25167, "343": 22753, "344": 24103, "345": 13655, "346": 21802, "347": 24476, "348": 23992, "349": 24150, "35": 2328, "35)": 13497, "350": 8912, "355": 19491, "356": 25009, "357": 25034, "359": 24264, "36": 3868, "36)": 13645, "360": 11294, "361": 24631, "363": 25861, "365": 18228, "37": 3412, "37)": 13750, "370": 16954, "371": 24608, "373": 26560, "375": 15926, "376": 25686, "377": 23123, "378": 25060, "379": 24753, "38": 3220, "38)": 11920, "380": 11248, "381": 26168, "384": 26612, "385": 23130, "386": 22571, "387": 25517, "389": 26999, "39": 3175, "39)": 12953, "390": 23255, "393": 26414, "394": 24881, "397": 28469, "398": 26920, "399": 22730, "3:06": 24766, "4": 344, "4%": 6773, "4)": 3985, "4,000": 11649, "4,500": 23979, "4-1": 24769, "4-2": 26726, "4.0": 17288, "4.00": 21949, "4.1": 15699, "4.10": 31437, "4.2": 15629, "4.3": 19679, "4.4": 16326, "4.5": 10768, "4.6": 17422, "4.7": 22344, "4.8": 19423, "4.9": 21835, "40": 2250, "40)": 16086, "40,000": 23875, "400": 4905, "4000": 17006, "401": 20709, "402": 23649, "403": 23851, "404": 20703, "405": 23866, "406": 21633, "409": 25985, "40\u00b0": 16585, "41": 4474, "41)": 14307, "410": 17935, "411": 24147, "415": 23447, "42": 3493, "42)": 14131, "420": 16956, "426": 27076, "428": 25618, "43": 4694, "43)": 13413, "430": 18116, "431": 22716, "433": 21142, "434": 26610, "436": 24856, "438": 26866, "44": 3806, "44)": 13952, "440": 14384, "441": 27177, "443": 24014, "444": 23217, "445": 22481, "446": 25778, "447": 25675, "448": 25016, "45": 2277, "45)": 14166, "450": 11613, "451": 24177, "459": 25662, "46": 5054, "46)": 14726, "460": 13498, "463": 24317, "466": 26121, "467": 26333, "468": 24300, "469": 26294, "47": 6003, "47)": 15566, "470": 19241, "471": 25999, "472": 28817, "473": 25228, "474": 28504, "475": 21738, "476": 26160, "477": 24757, "478": 26101, "479": 24157, "48": 3745, "48)": 14755, "480": 16150, "484": 28353, "485": 13003, "487": 28511, "489": 27626, "49": 3256, "49)": 16250, "490": 18926, "494": 25782, "496": 27376, "497": 28187, "499": 27833, "4:06": 24299, "4\u00b0": 26102, "5": 413, "5%": 5505, "5)": 4747, "5,000": 6472, "5-3": 22862, "5-7": 23574, "5-9": 27535, "5.0": 17939, "5.00": 14782, "5.1": 19603, "5.3": 19512, "5.4": 14195, "5.5": 14137, "5.6": 16064, "5.7": 17416, "5.8": 22690, "5.9": 21582, "50": 1814, "50%": 19605, "50)": 16696, "50*": 23872, "50,000": 9757, "500": 2850, "5000": 12130, "501": 18780, "505": 22246, "509": 25177, "50\u00b0": 19563, "51": 3746, "51)": 16331, "510": 18214, "511": 23522, "512": 16439, "516": 23209, "52": 4228, "52)": 15316, "520": 16325, "525": 20537, "53": 3891, "53)": 15488, "530": 21928, "531": 24736, "536": 21146, "537": 27790, "54": 3971, "54)": 15728, "540": 20434, "541": 28000, "543": 27451, "545": 24628, "546": 27191, "547": 25527, "548": 27083, "55": 3102, "55)": 15945, "550": 11502, "555": 17770, "559": 26486, "56": 3413, "56)": 16214, "560": 17090, "568": 28460, "569": 27494, "57": 4675, "57)": 15707, "570": 21749, "571": 26929, "574": 21870, "575": 24780, "576": 28979, "577": 24123, "578": 29014, "579": 27997, "58": 3819, "58)": 17021, "580": 15929, "583": 27380, "585": 23836, "588": 26566, "589": 30315, "59": 5406, "59)": 14286, "591": 28830, "592": 23719, "594": 27349, "595": 26482, "596": 26147, "598": 26465, "5:06": 30971, "5:2": 20960, "5\u00b0": 7586, "6": 582, "6%": 6554, "6)": 6802, "6,000": 12575, "6,500": 31557, "6-1": 24169, "6-7": 27015, "6-9": 22478, "6.0": 22474, "6.00": 27385, "6.1": 17504, "6.2": 19648, "6.3": 14559, "6.4": 15017, "6.5": 13781, "6.6": 15408, "6.7": 15433, "6.8": 17792, "6.9": 20044, "60": 2137, "60)": 15554, "60,000": 23115, "600": 3359, "6000": 15421, "601": 14449, "603": 21085, "606": 18632, "608": 25625, "609": 25029, "60\u00b0": 18949, "61": 3979, "61)": 15581, "610": 18219, "616": 23694, "62": 4636, "62)": 15546, "620": 17340, "622": 19651, "625": 19914, "626": 27370, "63": 5062, "63)": 17346, "630": 19618, "631": 27681, "633": 27232, "634": 28855, "635": 24451, "636": 28836, "638": 25519, "64": 2680, "64)": 14567, "640": 15659, "646": 25811, "647": 29866, "648": 26905, "65": 2129, "65)": 14304, "650": 11681, "656": 27069, "657": 25469, "659": 28762, "66": 3515, "66)": 14973, "660": 19133, "666": 23569, "667": 27367, "668": 28355, "669": 28035, "67": 3683, "67)": 15382, "670": 18701, "673": 26132, "675": 22501, "676": 23957, "677": 26295, "678": 27474, "679": 29680, "68": 4379, "68)": 16462, "680": 16243, "682": 25651, "683": 28879, "685": 27326, "686": 26166, "687": 26484, "688": 23707, "689": 27072, "69": 4854, "69)": 14988, "690": 21728, "693": 26770, "696": 21903, "698": 30494, "699": 27532, "6:06": 26592, "6\u00b0": 28493, "7": 749, "7%": 7348, "7)": 7006, "7,000": 14078, "7,500": 30783, "7-8": 25211, "7-9": 20761, "7.0": 22861, "7.00": 27837, "7.1": 20310, "7.2": 20921, "7.3": 16051, "7.4": 16653, "7.5": 11373, "7.6": 20416, "7.7": 18217, "7.8": 23581, "7.9": 20442, "70": 3183, "70%": 28498, "70)": 17838, "70,000": 21938, "700": 4863, "7000": 26783, "701": 22090, "703": 19967, "704": 24674, "705": 25746, "706": 24716, "707": 26634, "708": 22180, "709": 24315, "70\u00b0": 28182, "71": 6445, "71)": 17131, "710": 21634, "72": 4929, "72)": 14727, "720": 14631, "725": 25216, "726": 30018, "727": 24610, "728": 29154, "729": 27537, "73": 6330, "73)": 14436, "730": 19231, "731": 28692, "735": 26312, "737": 19141, "74": 5065, "74)": 15480, "740": 21619, "742": 26437, "744": 27028, "746": 29373, "747": 23015, "748": 27857, "75": 3386, "75,000": 29992, "750": 11169, "751": 28239, "754": 27821, "755": 17043, "757": 27951, "76": 5814, "76)": 19150, "760": 19585, "763": 27614, "765": 25825, "766": 27652, "767": 29832, "768": 20179, "769": 26341, "77": 7076, "77)": 15157, "770": 22729, "771": 27696, "772": 28294, "773": 30001, "775": 22238, "776": 24684, "777": 15579, "778": 24910, "779": 28503, "78": 7125, "78)": 16969, "780": 19070, "781": 28326, "783": 29367, "784": 28508, "785": 28026, "787": 23597, "788": 27667, "789": 23777, "79": 6389, "79)": 15107, "790": 19706, "791": 28174, "792": 25368, "793": 28683, "794": 26413, "797": 27383, "799": 25320, "7:06": 26116, "7:2": 25812, "7\u00b0": 28695, "8": 588, "8%": 6326, "8)": 8145, "8,000": 12960, "8-9": 23769, "8.0": 23403, "8.00": 23770, "8.1": 19261, "8.3": 25072, "8.4": 23871, "8.5": 15513, "8.6": 25185, "8.7": 26933, "8.8": 25083, "8.9": 28623, "80": 2816, "80%": 30019, "80)": 14511, "80,000": 17178, "800": 3851, "8000": 20173, "801": 19104, "805": 26013, "806": 27060, "807": 26755, "808": 25338, "80\u00b0": 26631, "81": 4091, "81)": 15539, "810": 20086, "82": 4511, "82)": 16074, "820": 20747, "826": 24571, "83": 5420, "83)": 17730, "831": 26745, "834": 27163, "836": 24891, "84": 5008, "84)": 16464, "840": 21171, "841": 28010, "843": 26928, "846": 28688, "848": 23251, "849": 28515, "85": 5647, "85)": 15851, "850": 14855, "851": 26893, "852": 25840, "853": 25186, "854": 27184, "855": 24877, "858": 27995, "859": 26334, "86": 3546, "86)": 15161, "862": 26286, "866": 22943, "868": 23104, "869": 28022, "87": 5717, "87)": 16988, "870": 20102, "871": 23767, "872": 24575, "873": 25484, "875": 23276, "876": 22878, "877": 22811, "878": 27016, "879": 22721, "88": 4189, "88)": 15198, "880": 16596, "882": 21525, "885": 23813, "886": 20069, "888": 12360, "889": 21618, "89": 6559, "89)": 14255, "890": 25826, "893": 29123, "894": 27796, "895": 28033, "896": 29499, "897": 28705, "898": 25673, "899": 25935, "8:00": 28295, "8:17": 30639, "8:2": 25383, "8\u00b0": 23512, "9": 1065, "9%": 7302, "9)": 10054, "9,000": 14870, "9-2": 29152, "9.0": 26847, "9.00": 23402, "9.1": 24468, "9.2": 23766, "9.3": 27059, "9.4": 28509, "9.5": 20658, "9.6": 25303, "9.7": 27369, "9.8": 20117, "9.9": 20072, "9.99": 16180, "90": 3030, "90%": 25962, "90)": 14569, "90,000": 28632, "900": 5998, "9000": 24096, "9001": 10056, "9001:2008": 23671, "901": 20765, "905": 21141, "906": 28157, "907": 28036, "908": 27697, "909": 23757, "91": 4506, "91)": 16497, "910": 21868, "92": 4858, "92)": 16378, "920": 23085, "925": 22591, "926": 30328, "928": 26785, "93": 5615, "93)": 16538, "930": 23726, "938": 30350, "94": 5466, "94)": 16532, "940": 24028, "947": 29638, "949": 28023, "95": 2835, "95%": 24274, "95)": 15279, "950": 19499, "959": 28445, "96": 4479, "96)": 16302, "960": 14012, "969": 30026, "97": 6185, "97)": 15932, "970": 25373, "971": 28856, "975": 29001, "976": 28995, "977": 25950, "978": 27969, "979": 28990, "98": 4156, "98)": 20928, "980": 18129, "985": 28173, "988": 29869, "99": 4285, "99%": 27668, "99)": 19599, "990": 22073, "997": 30489, "999": 11956, "9999": 30512, "9:00": 30323, "9:17": 30644, "9:9": 31559, ":": 20, ":+86": 31796, "://": 4385, ":00": 2989, ":01": 4286, ":02": 5045, ":03": 4669, ":04": 4874, ":05": 4294, ":07": 4104, ":08": 4610, ":09": 4999, ":1": 3144, ":1-3": 16516, ":10": 1982, ":11": 1985, ":12": 2520, ":12-14": 29694, ":13": 3164, ":14": 2402, ":15": 2463, ":16": 2340, ":16:19": 18924, ":17": 2533, ":18": 2151, ":19": 2058, ":20": 2212, ":21": 2465, ":22": 2493, ":23": 2521, ":24": 2630, ":25": 2626, ":26": 2891, ":27": 3054, ":28": 2706, ":29": 3019, ":3": 4434, ":30": 2723, ":31": 2979, ":32": 3729, ":33": 3519, ":34": 3508, ":35": 3609, ":36": 3691, ":37": 3522, ":38": 3846, ":39": 3599, ":4": 3473, ":4-6": 30314, ":4.0.30319": 20780, ":40": 3475, ":41": 4493, ":42": 4071, ":43": 4016, ":44": 3866, ":45": 3673, ":46": 4437, ":47": 4127, ":48": 4134, ":49": 4439, ":5": 3670, ":5.2": 28866, ":50": 4090, ":51": 4731, ":52": 5300, ":53": 4814, ":54": 5011, ":55": 4542, ":56": 4780, ":57": 4671, ":58": 4198, ":59": 4170, ":6": 3742, ":6.1": 23381, ":7": 3939, ":7.1": 24876, ":8": 4112, ":9": 4085, ";": 75, "<": 8395, "</": 5656, "</s>": 2, "<s>": 1, "<unk>": 0, "=": 2978, "=\"": 5344, "=\"%(": 20462, "=\"1": 17300, "=\"2": 18189, "=\"3": 25860, "=\"4": 27486, ">": 1200, "><": 25154, ">>": 22945, "?": 23, "?\"": 724, "???": 16595, "?\u2019\u201d": 23484, "?\u201d": 510, "@": 2084, "A": 220, "AA": 7311, "AB": 8279, "ABLE": 12269, "AC": 4268, "ACE": 10014, "ACH": 13787, "ACK": 11406, "ACT": 14767, "AD": 4639, "ADA": 19195, "ADE": 15565, "AF": 12697, "AG": 9130, "AGE": 8006, "AH": 7953, "AI": 10392, "AIDS": 27071, "AIR": 17644, "AK": 13518, "AKA": 27066, "AL": 2366, "ALL": 10174, "AM": 4014, "AMA": 21860, "AMP": 22948, "AN": 5920, "ANA": 18798, "ANCE": 12774, "AND": 10659, "ANG": 8347, "ANN": 28339, "ANT": 12056, "AO": 16577, "AP": 5469, "API": 16815, "APP": 22131, "AQ": 19057, "AR": 4362, "ARA": 25047, "ARD": 12312, "ART": 13375, "ARY": 20493, "AS": 5031, "ASX": 24020, "AT": 4605, "ATA": 13010, "ATCH": 30514, "ATE": 8460, "ATED": 27375, "ATH": 19263, "ATING": 28787, "ATION": 7039, "ATOR": 23505, "ATT": 21747, "AU": 11880, "AUD": 26937, "AVE": 17194, "AWA": 22725, "AWG": 18242, "AX": 15061, "AY": 9395, "AZ": 16128, "Ab": 18664, "About": 12471, "Abraham": 28333, "Access": 23488, "According": 28168, "Account": 31709, "Act": 24133, "Active": 26763, "Activity": 31097, "Acts": 4933, "Actually": 29852, "Ad": 9157, "Adam": 28343, "Add": 19347, "Address": 29349, "Adult": 21592, "Advanced": 25495, "Africa": 26302, "After": 11374, "Ah": 14618, "Air": 12868, "Airwheel": 30186, "Al": 5636, "All": 3484, "Allah": 17259, "Also": 22462, "Although": 23604, "Aluminum": 28167, "Always": 27222, "Am": 10738, "America": 24748, "American": 8337, "An": 6181, "Anal": 27473, "And": 1554, "Android": 22576, "Angel": 26628, "Ann": 23774, "Another": 27846, "Answer": 29667, "Anti": 22749, "Any": 15283, "Anyone": 26913, "App": 8098, "Applause": 3523, "Application": 24895, "AppsApk": 29742, "April": 18662, "Ar": 10593, "Arab": 24442, "Archive": 27507, "Are": 6727, "Arm": 17619, "Around": 10066, "Art": 13399, "Article": 31261, "As": 4221, "Asia": 22115, "Asian": 27033, "Ask": 26887, "At": 7493, "Attribute": 24664, "Audio": 28675, "August": 19014, "Australia": 17403, "Auto": 21939, "Automatic": 29508, "Available": 31256, "Awake": 25982, "Azur": 28350, "B": 309, "BA": 5112, "BASE": 20957, "BB": 14004, "BC": 6188, "BD": 18036, "BE": 11391, "BELL": 31702, "BER": 12511, "BET": 22685, "BI": 8113, "BIT": 22222, "BL": 14035, "BLE": 20877, "BM": 14625, "BN": 16784, "BO": 7003, "BOARD": 29833, "BODY": 28989, "BOX": 20593, "BP": 18941, "BPH": 29526, "BR": 9205, "BRA": 28042, "BS": 5285, "BT": 13275, "BTC": 23715, "BU": 13370, "BURG": 28449, "BY": 19043, "Ba": 8816, "Babe": 12038, "Baby": 29016, "Babylon": 29347, "Back": 16503, "Backpackers": 30502, "Ball": 26442, "Bank": 22973, "Bar": 14418, "Base": 21875, "Based": 19126, "Basic": 29872, "Be": 3329, "Beautiful": 30795, "Beauty": 31416, "Because": 10200, "Bedroom": 10428, "Before": 23100, "Behold": 13076, "Beijing": 30798, "Believe": 30007, "Benz": 23497, "Best": 13907, "Better": 26915, "Bi": 14578, "Big": 19078, "Bill": 28499, "Bit": 19425, "Black": 13392, "Blessed": 23984, "Block": 28175, "Blue": 13815, "Blurb": 13798, "Bo": 10015, "Board": 31105, "Boo": 25949, "Boobs": 10550, "Book": 13277, "Bookings": 9066, "Both": 27791, "Box": 6411, "Boy": 25061, "Br": 9215, "Brazil": 30649, "Breakfast": 30005, "Brien": 30809, "Bring": 21603, "British": 31257, "Brother": 27663, "Brown": 30343, "Browse": 28490, "Bs": 16660, "Bu": 10133, "Build": 19395, "Business": 20935, "But": 2304, "Buy": 24104, "By": 7622, "C": 230, "CA": 5289, "CAD": 21166, "CAM": 24148, "CAN": 24004, "CAP": 24167, "CAR": 20443, "CAS": 26002, "CAT": 25068, "CBM": 28464, "CC": 3913, "CCA": 29655, "CD": 8810, "CE": 4548, "CENT": 25831, "CF": 16729, "CH": 3364, "CHANG": 28653, "CI": 8544, "CK": 10179, "CKET": 28304, "CL": 7534, "CM": 7071, "CN": 14785, "CO": 4627, "CODE": 29539, "COM": 8670, "CON": 12860, "COP": 26769, "COR": 19972, "CP": 7753, "CR": 8563, "CS": 7451, "CT": 7582, "CU": 13287, "CY": 19044, "Cafe": 6860, "Cal": 19562, "California": 30009, "Call": 17130, "Cam": 14014, "Can": 5174, "Cap": 17040, "Car": 9231, "Card": 24743, "Care": 19415, "Carlton": 28012, "Cast": 23840, "Casting": 20956, "Cat": 20329, "Cause": 15821, "Cellular": 24560, "Center": 27679, "Central": 26468, "Centre": 25193, "Ch": 10548, "Cha": 13611, "Chain": 29175, "Change": 22578, "Channel": 29847, "Chapter": 30336, "Char": 14575, "Che": 17125, "Check": 13762, "Chi": 25324, "Chief": 31579, "Child": 24897, "Children": 24284, "China": 9299, "Chinese": 18073, "Chlo": 31569, "Choose": 31574, "Christ": 19110, "Christian": 13495, "Christmas": 31099, "City": 14841, "Cl": 12966, "Class": 23895, "Classic": 26649, "Clean": 26558, "Clear": 29167, "Click": 16846, "Close": 21600, "Cloud": 18173, "Co": 4758, "Code": 24570, "Coin": 16790, "Col": 14736, "Cola": 24553, "Color": 20851, "Colossians": 19113, "Com": 7040, "Come": 8339, "Command": 29859, "Comment": 21841, "Commerce": 24282, "Communicat": 29879, "Comp": 20020, "Company": 23603, "Compare": 11463, "Computer": 31095, "Con": 5176, "Config": 28458, "Connect": 21374, "Connell": 29497, "Connor": 25606, "Contact": 17728, "Content": 26620, "Continue": 23233, "Control": 21042, "Cookies": 29672, "Copyright": 21590, "Cor": 14487, "Correct": 31251, "Could": 23982, "Count": 19569, "Course": 31252, "Cr": 13771, "CrMo": 29626, "Create": 26917, "Credit": 11462, "Crypt": 28357, "Cryptocurrencies": 30675, "Cu": 12297, "Currencies": 31504, "Current": 28843, "Cursed": 30786, "Custom": 25150, "Customer": 27869, "Cycle": 31572, "D": 231, "DA": 5887, "DASH": 30330, "DAY": 21697, "DB": 10867, "DC": 5987, "DD": 11091, "DE": 7011, "DEN": 21998, "DER": 12790, "DEX": 16658, "DF": 12786, "DI": 6645, "DIA": 29181, "DL": 14591, "DM": 7506, "DN": 12675, "DNS": 25540, "DO": 9960, "DOM": 30126, "DOS": 26493, "DOWN": 29463, "DP": 8165, "DR": 7462, "DS": 4756, "DT": 15121, "DU": 18119, "DVD": 19422, "DY": 18042, "Da": 14655, "Dan": 2555, "Daniel": 16826, "Data": 13735, "Date": 19328, "David": 22710, "Day": 10584, "De": 4412, "Dear": 25525, "Death": 30345, "Dec": 24168, "December": 21591, "Default": 31833, "Delete": 22081, "Description": 30650, "Design": 16750, "Deut": 17061, "Deuteronomy": 17562, "Develop": 25048, "Di": 9518, "Diagram": 26440, "Did": 10018, "Digital": 28334, "Direct": 24245, "Director": 29698, "Dis": 12173, "Discover": 31581, "Display": 31271, "Do": 1945, "Doctor": 30510, "Document": 29846, "Does": 15173, "Don": 5242, "Dong": 21526, "Double": 23489, "Down": 27676, "Download": 22077, "Downtown": 31839, "Dr": 13819, "Draw": 28020, "Drive": 14648, "Dupe": 17917, "E": 410, "EA": 8491, "EAN": 19814, "EAR": 10961, "EAS": 17375, "EC": 4647, "ECT": 15436, "ED": 2818, "EE": 8274, "EEL": 24323, "EEN": 20000, "EEP": 21071, "EF": 14888, "EG": 11469, "EI": 15366, "EK": 14214, "EL": 4587, "EM": 7050, "EMA": 17783, "EMS": 21304, "EN": 4486, "ENCE": 16395, "END": 15639, "ENG": 16186, "ENS": 17753, "ENT": 5824, "EO": 11512, "EP": 7688, "ER": 2296, "ERN": 19059, "ERS": 10563, "ES": 4045, "ESS": 15199, "EST": 8678, "ET": 5897, "ETH": 27465, "EU": 13911, "EUR": 21806, "EVE": 17054, "EVER": 16866, "EVO": 28938, "EX": 6307, "EY": 15176, "Each": 22471, "Earth": 26624, "East": 21684, "Easy": 14638, "Eccl": 23493, "Ecclesiastes": 17642, "Edge": 30505, "Edit": 24175, "Education": 29505, "El": 12779, "Electric": 27064, "Element": 31100, "Employ": 27327, "En": 11934, "End": 24764, "Energy": 28844, "Engine": 30178, "English": 11221, "Enter": 25992, "Entrepreneurship": 30334, "Eph": 19793, "Ephesians": 10802, "Error": 29850, "Europe": 27658, "European": 22316, "Even": 13313, "Event": 19673, "Every": 9894, "Everybody": 29858, "Everyone": 17327, "Everything": 16542, "Ex": 4159, "Excellent": 25654, "Except": 29335, "Exception": 28507, "Exodus": 14742, "Express": 25502, "Extremely": 28860, "Eye": 24936, "Ezek": 25271, "Ezekiel": 24128, "F": 398, "FA": 6605, "FC": 7975, "FE": 8660, "FF": 11522, "FI": 9031, "FIC": 25688, "FIL": 23728, "FL": 12584, "FLEX": 30953, "FM": 13167, "FO": 14769, "FOR": 21073, "FORM": 22961, "FP": 10311, "FR": 15882, "FRIEND": 31944, "FS": 9158, "FT": 8436, "FTA": 23487, "FU": 26117, "FUL": 23109, "FX": 13355, "Facebook": 28847, "Factory": 23102, "Faith": 28669, "Family": 25822, "Fast": 26410, "Father": 17487, "Fe": 11648, "Fear": 24914, "Feature": 29346, "February": 22707, "Festival": 31995, "Fi": 1577, "Figure": 30794, "File": 14441, "Film": 30348, "Find": 19355, "Fire": 21848, "First": 12967, "Flash": 22970, "Flex": 27233, "Flix": 4757, "Flow": 24306, "Follow": 22839, "Food": 27854, "Foot": 30506, "Footnote": 15646, "Footnotes": 11023, "For": 2070, "Forex": 25667, "Form": 18318, "Formatted": 29501, "Four": 26782, "Fox": 18333, "Frame": 30503, "France": 22581, "Frank": 29171, "Free": 7390, "French": 21483, "Fri": 23243, "Friday": 26627, "Friend": 27056, "Friendly": 23996, "From": 8542, "Front": 30965, "Fuchs": 31986, "Full": 18375, "G": 363, "GA": 5936, "GB": 3292, "GC": 17369, "GE": 8078, "GEN": 24864, "GER": 19075, "GF": 11948, "GG": 18134, "GH": 15726, "GHz": 13050, "GIS": 20048, "GL": 19316, "GM": 14940, "GMT": 27181, "GN": 14452, "GO": 8250, "GP": 11163, "GPS": 26167, "GR": 10680, "GRAPH": 31981, "GS": 10719, "GSM": 28136, "GT": 20669, "GU": 19327, "Ga": 12328, "Gal": 18044, "Galatians": 16055, "Gallery": 31714, "Game": 21387, "Games": 22455, "Gb": 22361, "GbE": 26247, "Gbps": 18557, "Gen": 7754, "General": 15052, "Genesis": 6743, "George": 31417, "Germain": 26751, "German": 20282, "Germany": 24602, "Get": 12166, "Getting": 5802, "Gift": 30653, "Gil": 22364, "Girl": 20560, "Give": 14793, "Glass": 31717, "Global": 23857, "Glory": 31708, "Go": 4882, "God": 3177, "Good": 9408, "Google": 25344, "Governing": 21011, "Government": 31837, "Grand": 25498, "Graph": 31410, "Great": 18472, "Greek": 30646, "Green": 20177, "Group": 26136, "Gu": 7904, "Guard": 21716, "Guide": 30190, "H": 562, "HA": 8322, "HAM": 28693, "HAN": 12272, "HC": 14775, "HD": 7090, "HE": 15533, "HEA": 21238, "HEL": 26325, "HER": 19124, "HI": 15965, "HK": 20511, "HL": 13685, "HO": 6237, "HP": 11338, "HQ": 23568, "HR": 15089, "HS": 9510, "HT": 15874, "HTML": 12545, "HU": 17752, "HY": 20988, "HZ": 9938, "Ha": 6704, "Habakkuk": 27546, "Haggai": 31553, "Half": 30803, "Hamster": 5454, "Han": 22960, "Hand": 21861, "Hanwha": 31564, "Happy": 19652, "Har": 23197, "Hard": 28029, "Hav": 31562, "Have": 9086, "He": 1576, "Health": 21484, "Hear": 17377, "Heb": 13190, "Hebrews": 9513, "Hello": 20301, "Help": 18928, "Her": 20628, "Here": 13416, "Hewlett": 26207, "Hey": 14051, "Hi": 10132, "High": 9904, "His": 12585, "History": 29352, "Hit": 10631, "Ho": 8014, "Hold": 26340, "Home": 14121, "Honey": 26762, "Hong": 28177, "Hongqiao": 31700, "Host": 19065, "Hot": 17617, "Hotel": 12181, "Hour": 26641, "House": 17646, "How": 2412, "However": 22318, "Hu": 16252, "Hub": 25627, "Human": 23490, "Hz": 6174, "I": 164, "IA": 6413, "IAL": 18241, "IAN": 17017, "IC": 4616, "ICA": 25387, "ICAL": 16974, "ICE": 8677, "ICO": 15690, "ICS": 18365, "ID": 4240, "IDA": 25796, "IDE": 13850, "IE": 9400, "IEC": 15894, "IES": 11464, "IF": 8911, "IFF": 22479, "IFICATION": 29699, "IG": 8450, "IGHT": 11998, "II": 9177, "III": 17334, "IL": 5183, "IM": 6751, "IN": 2585, "INA": 14241, "INE": 11038, "INFO": 26635, "ING": 2236, "INO": 25004, "INS": 21833, "INT": 13150, "IO": 8551, "ION": 7045, "IP": 4138, "IPS": 19198, "IR": 7527, "IRA": 28479, "IRE": 18145, "IS": 4990, "ISA": 22529, "ISCO": 29155, "ISE": 15935, "ISH": 18873, "ISM": 22804, "ISO": 13034, "ISS": 16764, "IST": 9219, "IT": 3833, "ITE": 15500, "ITY": 10626, "IV": 10583, "IVE": 7806, "IX": 9508, "If": 1392, "Image": 29862, "In": 1228, "Indeed": 22209, "India": 28352, "Indian": 26600, "Indonesia": 31836, "Industrial": 31695, "Info": 27223, "Information": 30180, "Install": 29006, "Instance": 31070, "Inter": 17459, "InterContinental": 26021, "Intercontinental": 18534, "International": 19966, "Internet": 25053, "Invest": 30504, "IoT": 26629, "Is": 5978, "Isa": 13790, "Isaiah": 7516, "Israel": 22971, "It": 1021, "Italian": 28676, "Italy": 31426, "J": 963, "JA": 20653, "JI": 19844, "JO": 24270, "JP": 24790, "JPN": 29328, "JPY": 12863, "JU": 23359, "Jack": 25197, "Jalan": 30663, "James": 13955, "January": 22312, "Japan": 17063, "Japanese": 13759, "Je": 15022, "Jehovah": 9862, "Jer": 22124, "Jeremiah": 21041, "Jesus": 9128, "Jewish": 30796, "Jews": 31262, "Jo": 10713, "Job": 11746, "John": 3244, "Joseph": 31993, "Joshua": 30177, "Judg": 26491, "July": 20936, "Jun": 28149, "June": 20516, "Just": 10639, "K": 408, "KA": 13025, "KB": 7540, "KE": 8813, "KEN": 26464, "KG": 9064, "KGS": 27483, "KHz": 23745, "KI": 12665, "KIN": 23978, "KING": 14752, "KJV": 24695, "KM": 22835, "KO": 14127, "KR": 22469, "KRW": 25201, "KS": 16747, "KU": 19323, "KVA": 21796, "KW": 7149, "KY": 14389, "Keep": 13865, "Key": 16508, "Kg": 15476, "Ki": 15686, "King": 16079, "Kit": 22667, "Kitakyushu": 31849, "Km": 17200, "Know": 21601, "Ko": 21299, "Korea": 18615, "Korean": 21625, "Ku": 25468, "Kwacha": 23045, "L": 474, "LA": 4941, "LAN": 15829, "LAND": 14391, "LAS": 18888, "LAST": 24793, "LAUGH": 31187, "LB": 20773, "LC": 7357, "LCD": 28686, "LD": 9501, "LE": 3685, "LED": 12149, "LES": 16674, "LESS": 25518, "LET": 18856, "LEY": 30349, "LF": 15306, "LI": 7164, "LIC": 20990, "LIM": 28320, "LIN": 19612, "LINE": 23261, "LING": 24624, "LINK": 21147, "LL": 5497, "LLE": 25493, "LM": 8297, "LO": 6219, "LOC": 22000, "LOG": 17697, "LON": 23929, "LOW": 19391, "LP": 10930, "LS": 6101, "LT": 7853, "LTD": 14538, "LU": 11192, "LY": 5238, "La": 6098, "Lab": 16357, "Language": 30793, "Lanzarote": 24179, "Large": 28677, "Last": 13445, "Latest": 30969, "Latin": 30174, "Laughter": 1996, "Law": 26332, "Le": 7536, "Lead": 27517, "Learn": 18002, "Leave": 30804, "Legal": 30188, "Let": 4229, "Level": 29861, "Leviticus": 28165, "Li": 9817, "Life": 12094, "Light": 21280, "Like": 18199, "Limited": 30648, "Line": 17099, "Link": 11026, "Linux": 20400, "Liquid": 31990, "List": 24573, "Listen": 19326, "Little": 24755, "Live": 20477, "Lo": 9455, "Local": 25824, "Location": 31425, "Lock": 22949, "Log": 15762, "Long": 20968, "Look": 8683, "Lord": 9083, "Lost": 26144, "Louis": 31582, "Love": 9852, "Low": 22582, "Ltd": 3666, "Lu": 22065, "Luc": 27861, "Luke": 4754, "Lust": 4172, "M": 404, "MA": 3069, "MAN": 10805, "MARK": 24767, "MASTER": 28305, "MAT": 26638, "MATE": 28999, "MAX": 18028, "MB": 5160, "MC": 7475, "MD": 10777, "ME": 4352, "MEDIA": 30170, "MEM": 31084, "MENT": 9007, "MER": 20051, "MF": 16804, "MG": 14689, "MHZ": 28158, "MHz": 10894, "MI": 7024, "MIC": 24450, "MIN": 16343, "MISSION": 31772, "MIT": 18792, "ML": 9855, "MM": 4748, "MO": 4314, "MON": 21505, "MP": 3748, "MPEG": 31273, "MPa": 19865, "MR": 18172, "MS": 4199, "MT": 10343, "MU": 16043, "MY": 19052, "Ma": 6687, "Mac": 15309, "Machine": 30179, "Made": 26158, "Mag": 21869, "Mail": 19321, "Main": 20920, "Mainland": 19264, "Make": 15042, "Malachi": 23640, "Malley": 30198, "Man": 6633, "Manager": 29509, "Many": 16110, "Map": 17241, "Mar": 8785, "March": 19245, "Mark": 9425, "Market": 26150, "Mass": 27504, "Master": 15863, "Material": 24896, "Matt": 5859, "Matthew": 3246, "Max": 17053, "May": 10817, "Maybe": 20938, "Mbps": 14025, "Me": 2914, "Media": 26477, "Medical": 30968, "Men": 13233, "Message": 29007, "Messianic": 21107, "Mexico": 31711, "Mhz": 28279, "Mi": 11310, "Michael": 31712, "Micro": 26625, "Microsoft": 30799, "Middle": 31266, "Mil": 19608, "Min": 10996, "Mini": 25172, "Miss": 26780, "Mo": 6981, "Mobile": 23985, "MobileFirst": 29523, "Mod": 22615, "Model": 24596, "Mom": 18811, "Mon": 12381, "Monday": 29517, "Money": 24131, "Month": 28687, "More": 8148, "Moses": 22456, "Most": 15976, "Mother": 24441, "Mount": 28682, "Movie": 25499, "Movs": 14287, "Mpa": 13148, "Mr": 19228, "Mu": 21276, "Muhammad": 27214, "Multi": 23898, "Music": 12743, "Muslim": 30959, "My": 2286, "N": 541, "NA": 5378, "NAM": 28697, "NAME": 16634, "NASDAQ": 31942, "NB": 19917, "NC": 7282, "ND": 8776, "NDA": 23970, "NE": 11131, "NER": 20562, "NES": 21763, "NESS": 18590, "NET": 5661, "NEW": 26139, "NEY": 27853, "NF": 17695, "NG": 11619, "NI": 10261, "NIC": 22203, "NING": 19118, "NK": 13579, "NN": 13121, "NO": 5881, "NOT": 26767, "NP": 12962, "NR": 18515, "NS": 8432, "NT": 8223, "NU": 12976, "NV": 13085, "NX": 20303, "NY": 13493, "NYSE": 29359, "NZ": 17762, "Na": 10810, "Name": 7089, "National": 23097, "Natural": 29158, "Nearly": 13698, "Net": 12956, "Network": 26327, "Never": 16769, "New": 5926, "News": 17599, "Next": 12470, "Ni": 17352, "Night": 22852, "No": 2003, "Nobody": 26307, "Non": 15890, "Normal": 28671, "North": 17405, "Not": 7353, "Note": 15772, "Nothing": 19201, "Notice": 31104, "November": 20720, "Now": 5127, "Nu": 24434, "NuVid": 8087, "Number": 19207, "O": 578, "OB": 16940, "OBE": 25855, "OC": 8209, "OD": 9556, "ODM": 17042, "OEM": 23619, "OFF": 26342, "OFFICIAL": 29881, "OIL": 29318, "OK": 9384, "OL": 4558, "OLD": 20504, "OLE": 22984, "OM": 10740, "ON": 5798, "ONE": 8540, "ONG": 8576, "ONY": 26173, "OO": 8839, "OOM": 21067, "OON": 30957, "OP": 8028, "OR": 3902, "ORE": 17914, "ORS": 23528, "ORY": 22580, "OS": 3723, "OST": 14104, "OT": 7181, "OTT": 19783, "OUND": 24397, "OUR": 14564, "OUS": 19034, "OUT": 24777, "OVA": 27314, "OVER": 19080, "OW": 10118, "OYA": 28518, "Object": 28668, "Oct": 28684, "October": 22313, "Of": 11944, "Off": 21281, "Office": 21375, "Official": 19114, "Oh": 5570, "Okay": 21950, "Old": 17160, "On": 4938, "Once": 21385, "One": 4533, "Online": 29361, "Only": 14490, "Op": 19197, "Open": 4103, "Opera": 29612, "Option": 17488, "Or": 9176, "Order": 27850, "Osaka": 28491, "Other": 7805, "Our": 4657, "Out": 12999, "Outdoor": 28849, "Over": 15232, "Owner": 31412, "P": 431, "PA": 4370, "PAR": 26859, "PC": 3488, "PCS": 17592, "PD": 11372, "PDF": 8655, "PE": 5444, "PER": 11774, "PET": 24636, "PEX": 29323, "PF": 16463, "PG": 17181, "PH": 14428, "PHE": 30319, "PHI": 30000, "PI": 12603, "PIN": 24740, "PL": 8261, "PLUS": 30808, "PM": 6332, "PO": 5904, "PON": 23687, "POP": 29362, "PORT": 9811, "POS": 22468, "PP": 6819, "PR": 8160, "PRESS": 27522, "PRO": 15649, "PS": 6145, "PSK": 26330, "PT": 7643, "PU": 14540, "PVC": 20063, "Pa": 6360, "Pacific": 17485, "Pack": 16166, "Pad": 18039, "Page": 20122, "Panel": 29350, "Paper": 30017, "Paradox": 29774, "Paris": 31431, "Park": 24003, "Part": 12652, "Party": 27859, "Pass": 20827, "Password": 31423, "Paul": 22698, "Pay": 16592, "Payment": 30193, "Peace": 14979, "People": 8188, "Per": 14746, "Perfect": 26787, "Perhaps": 27217, "Personal": 28013, "Peter": 28496, "Phase": 31991, "Phil": 15830, "Philippians": 19861, "Phone": 19760, "Photo": 18385, "Pi": 17158, "Picture": 2482, "Pictures": 11066, "Piece": 29157, "Place": 27371, "Plan": 19819, "Plastic": 31418, "Play": 15054, "Player": 22980, "Please": 3956, "Plus": 18221, "Po": 8195, "Point": 15141, "Polish": 31267, "Poly": 24626, "Pop": 24730, "Porn": 2532, "Porno": 3335, "Port": 14814, "Post": 20216, "Power": 13208, "Pr": 21727, "Pre": 11506, "Present": 29673, "President": 23990, "Press": 16574, "Preview": 30191, "Previous": 28487, "Price": 27373, "Prim": 28827, "Prince": 29172, "Print": 26485, "Privacy": 27363, "Private": 30338, "Pro": 4998, "Product": 13867, "Professional": 29159, "Program": 27848, "Project": 30657, "Promotional": 21491, "Protect": 27219, "Prov": 11424, "Proverbs": 6478, "Ps": 9289, "Psalm": 4415, "Pu": 14896, "Public": 27218, "Q": 1492, "QUE": 22237, "Qaeda": 27917, "Qua": 27087, "Quality": 23856, "Queen": 24898, "Quick": 27215, "Qur": 26897, "R": 626, "RA": 5576, "RAIL": 25632, "RAIN": 30945, "RAM": 15937, "RAN": 16101, "RATION": 24435, "RAY": 25773, "RB": 17256, "RC": 6324, "RD": 10995, "RE": 4234, "RED": 19108, "REL": 28994, "REN": 22803, "RES": 16814, "RF": 14512, "RH": 19488, "RI": 6088, "RIA": 25617, "RIC": 22715, "RIDGE": 31661, "RING": 17961, "RIP": 25363, "RIS": 18520, "RL": 12125, "RM": 13219, "RN": 19135, "RNA": 24550, "RO": 4528, "ROM": 13803, "RON": 12060, "ROUND": 31068, "RP": 6191, "RS": 5640, "RT": 7287, "RU": 14262, "RUS": 24580, "RW": 21031, "RY": 9470, "Ra": 9600, "Rabbi": 30651, "Radio": 31265, "Rank": 31428, "Ray": 19870, "Re": 2995, "Read": 3947, "Real": 19353, "Receptacle": 29882, "Recommend": 23531, "Recover": 23742, "Red": 13700, "Ref": 25851, "Reg": 18763, "Rejoice": 21784, "Remember": 20066, "Remov": 27339, "Repair": 30801, "Repent": 30946, "Report": 29683, "Request": 30802, "Research": 30658, "Resource": 27665, "Restaurant": 31989, "Return": 27511, "Rev": 11385, "Revelation": 7891, "Review": 29681, "Ri": 20030, "Right": 17915, "Ro": 5388, "Road": 23373, "Robot": 31103, "Rock": 27234, "Rom": 11086, "Roman": 26784, "Romans": 7380, "Room": 18846, "Royce": 31690, "Ru": 15403, "Run": 23554, "Russia": 28483, "Russian": 24134, "S": 128, "SA": 4367, "SAN": 20232, "SAS": 25200, "SB": 14892, "SC": 4895, "SD": 6386, "SE": 4252, "SEC": 21865, "SEL": 22107, "SEN": 24622, "SER": 20532, "SF": 12393, "SH": 7714, "SHI": 12632, "SHIP": 25652, "SI": 6640, "SIA": 21509, "SIL": 23842, "SIS": 21758, "SK": 10449, "SL": 10130, "SM": 7865, "SN": 16971, "SO": 9175, "SOFT": 27356, "SON": 10264, "SP": 4962, "SQL": 24120, "SR": 11797, "SS": 4662, "SSC": 23743, "ST": 2262, "STAR": 20976, "STER": 24568, "SU": 9159, "SUZU": 29602, "SYS": 27338, "Sa": 10671, "Safe": 17511, "Saharan": 30020, "Saint": 29163, "Sample": 29670, "San": 18625, "Sat": 23885, "Satan": 25988, "Saturday": 26300, "Save": 14614, "Saxon": 26329, "Say": 20983, "Sc": 15365, "School": 25050, "Science": 28331, "Screen": 31096, "Script": 17726, "Sea": 20079, "Search": 17064, "Season": 28852, "Sec": 27039, "Second": 28332, "Secure": 31432, "Security": 28673, "See": 5878, "Select": 24867, "Self": 27068, "Send": 23635, "Sensing": 31696, "Seoul": 25820, "September": 21373, "Series": 23234, "Serv": 28145, "Server": 25508, "Service": 16748, "Set": 16639, "Sex": 14964, "Sha": 12369, "Shaanxi": 30083, "Shaft": 11799, "Shame": 22459, "Shanghai": 28845, "Share": 17141, "Sharing": 16126, "She": 5903, "Shi": 17204, "Shift": 26759, "Shin": 26746, "Shirt": 30185, "Shop": 25381, "Short": 26912, "Should": 23601, "Show": 310, "Shrine": 12639, "Si": 12817, "Sign": 23010, "Silver": 29669, "Sim": 17386, "Since": 17408, "Singapore": 22838, "Single": 23607, "Site": 19421, "Size": 24011, "Small": 26622, "Smart": 22346, "So": 3343, "Social": 23741, "Soft": 20620, "Software": 31270, "Some": 9222, "Something": 30963, "Sometimes": 24129, "Son": 20018, "Sorry": 21834, "Sound": 30015, "Source": 19761, "South": 14327, "Space": 23987, "Spanish": 27840, "Speak": 23854, "Special": 23368, "Specific": 31834, "Speed": 23099, "Sphere": 27689, "Sports": 26630, "Spring": 29161, "St": 5619, "Stand": 28501, "Standard": 23369, "Star": 11126, "Start": 20428, "State": 25362, "Station": 25074, "Stay": 21836, "Steel": 30183, "Step": 24768, "Still": 31578, "Stock": 27510, "Stop": 17870, "Storage": 31575, "Store": 29364, "Stream": 29343, "Strike": 28672, "Student": 30792, "Studio": 23738, "Study": 30960, "Style": 27509, "Su": 12876, "Sub": 18464, "Suite": 23863, "Summer": 27372, "Sun": 18278, "Sunday": 26471, "Super": 18753, "Suppl": 26596, "Support": 21712, "Surely": 20402, "Sweet": 29671, "Sync": 23101, "System": 18072, "T": 352, "TA": 4521, "TAG": 28470, "TAIN": 24722, "TAN": 27352, "TB": 9984, "TC": 8456, "TCH": 28154, "TE": 7235, "TEC": 17417, "TECH": 12162, "TED": 19430, "TEK": 29377, "TEL": 17735, "TEN": 21694, "TER": 7525, "TES": 18715, "TEX": 20189, "TF": 14890, "TH": 6035, "THAI": 30172, "THE": 18500, "THER": 16373, "THETIC": 28420, "TI": 8115, "TIA": 19878, "TIC": 17789, "TIME": 30781, "TING": 13948, "TION": 7276, "TL": 11966, "TLE": 23714, "TM": 2043, "TMs": 9033, "TO": 4957, "TON": 12464, "TOP": 20419, "TOR": 17470, "TOWN": 30281, "TP": 6203, "TR": 9053, "TRA": 11776, "TREE": 30811, "TRO": 20664, "TS": 4225, "TSU": 25471, "TT": 11864, "TU": 9914, "TURE": 16081, "TV": 5249, "TX": 17198, "TY": 8723, "Ta": 11618, "Tag": 27366, "Take": 10389, "Talk": 18855, "Taste": 30011, "Tax": 21649, "Tea": 21164, "Teacher": 25497, "Tech": 12771, "Technical": 31573, "Technology": 29010, "Teen": 19979, "Tele": 28859, "Tell": 16741, "Temp": 30660, "Tempered": 27010, "Term": 17872, "Test": 18882, "Text": 21390, "Th": 4700, "Thank": 13546, "Thanks": 21458, "That": 4000, "The": 308, "Their": 25766, "Then": 6290, "There": 2365, "Therefore": 15379, "These": 9272, "They": 2892, "Think": 23859, "Third": 29855, "This": 1398, "Those": 14744, "Thou": 23128, "Though": 25379, "Three": 23739, "Through": 24417, "Thus": 22985, "Ti": 12024, "Time": 7191, "Titus": 27508, "To": 2767, "Today": 10517, "Tokyo": 29013, "Toll": 24145, "Tool": 18279, "Top": 17682, "Total": 26311, "Touch": 27519, "Track": 26914, "Trade": 18195, "Traditional": 30335, "Train": 25959, "Trans": 14010, "Translated": 27034, "Travel": 24416, "Tree": 25217, "Tri": 19205, "True": 29345, "Truly": 28486, "Trust": 25467, "Truth": 30962, "Tu": 25604, "Tube": 717, "Tuber": 3874, "Tuesday": 31255, "Turn": 23606, "Two": 16423, "Type": 18369, "U": 1308, "UA": 17139, "UAL": 20942, "UB": 13754, "UC": 13106, "UCK": 25640, "UD": 16258, "UE": 11875, "UFF": 31087, "UG": 16469, "UI": 12467, "UK": 13094, "UL": 6830, "ULAR": 31221, "UM": 6602, "UN": 6354, "UNE": 27525, "UNG": 16996, "UNT": 22604, "UP": 11575, "UPS": 24151, "UR": 5749, "URA": 21967, "URE": 15685, "US": 3890, "USA": 15703, "USB": 20704, "USD": 8445, "USE": 13192, "USER": 26573, "UT": 9087, "UTC": 25392, "UTE": 27231, "UV": 21636, "UX": 16594, "Ultra": 31260, "Un": 7639, "Under": 23862, "Unfortunately": 30797, "Unit": 27528, "United": 15773, "University": 31577, "Unix": 20846, "Until": 29513, "Up": 10464, "Upcoming": 31985, "Update": 26142, "Updating": 27294, "Use": 18394, "User": 14356, "V": 323, "VA": 9599, "VAC": 14154, "VC": 13345, "VDC": 17279, "VE": 8924, "VER": 13289, "VI": 10237, "VIA": 31279, "VIEW": 19472, "VIS": 22832, "VISION": 26827, "VM": 17010, "VO": 12578, "VPN": 14052, "VR": 11227, "Value": 30501, "Vengeance": 31505, "Venue": 31413, "Verily": 30176, "Verse": 31840, "Version": 23988, "Very": 23257, "Vi": 13868, "Video": 14381, "View": 10137, "Visa": 27026, "Vision": 30187, "Visit": 31841, "Voice": 30004, "Vol": 18808, "W": 380, "WA": 11324, "WAN": 20848, "WARE": 29873, "WAY": 17439, "WC": 18081, "WE": 13158, "WEB": 21274, "WELL": 26876, "WF": 18774, "WH": 19656, "WIN": 26281, "WINDOWS": 31289, "WON": 25482, "WOO": 28699, "WORK": 28484, "WP": 17381, "WR": 23018, "WS": 14613, "Wait": 22974, "Walk": 29356, "Wall": 20429, "War": 16734, "Ware": 25463, "Was": 24136, "Watch": 22708, "Water": 18370, "Watt": 30964, "Wave": 27855, "Way": 27081, "We": 637, "Web": 12453, "Welcome": 23855, "Well": 6627, "West": 20228, "Western": 24593, "What": 1229, "Whatever": 21488, "When": 2693, "Where": 6770, "Whether": 3633, "Which": 20843, "While": 18471, "Whisper": 27793, "White": 8866, "Who": 4569, "Whoever": 21953, "Why": 2885, "Wild": 31583, "Will": 12604, "William": 31706, "Win": 19496, "Windows": 11427, "Wire": 24758, "Wise": 24470, "With": 7418, "Without": 24288, "Woe": 27520, "Woman": 30184, "Women": 26301, "Word": 25823, "Work": 12727, "Working": 16872, "World": 12544, "Would": 20842, "Write": 27862, "X": 603, "XL": 19259, "XP": 20422, "XT": 16931, "XVideos": 15259, "XX": 21797, "XXX": 25593, "Xclusive": 28505, "Y": 954, "YOU": 28466, "YU": 19671, "Yahweh": 31713, "Ye": 23086, "Yeah": 19654, "Year": 17650, "Yellow": 29668, "Yes": 6632, "Yet": 25043, "You": 843, "Young": 18854, "Your": 6005, "Yu": 24750, "Z": 1068, "ZE": 16314, "ZY": 29332, "ZZ": 22847, "Zephaniah": 26652, "Zero": 16255, "Zilla": 3458, "Zip": 28005, "Zog": 16175, "[": 2653, "[10]": 17163, "[11]": 16210, "[12]": 16767, "[13]": 18656, "[14]": 19747, "[15]": 21682, "[16]": 23460, "[17]": 20587, "[18]": 20049, "[19]": 24083, "[1]": 12640, "[20]": 24237, "[21]": 25455, "[22]": 25594, "[23]": 27781, "[24]": 22794, "[25]": 27156, "[26]": 25753, "[27]": 28777, "[28]": 28781, "[29]": 28792, "[2]": 15826, "[30]": 29625, "[31]": 31821, "[32]": 29810, "[33]": 30462, "[34]": 30936, "[35]": 31552, "[36]": 31687, "[3]": 19787, "[45]": 31394, "[4]": 19860, "[5]": 24312, "[6]": 10866, "[7]": 12669, "[8]": 13373, "[9]": 13667, "\\": 4781, "\\'": 14947, "\\\\": 21156, "]": 161, "][": 21410, "]]": 13118, "^": 16967, "^^": 29991, "^{": 31064, "_": 594, "__": 18381, "____": 25473, "_{": 29502, "`": 5358, "a": 136, "aaaa": 29378, "ab": 3176, "aba": 9778, "abba": 21181, "abbreviated": 31439, "abi": 11700, "abilities": 23095, "ability": 2661, "able": 445, "ably": 4081, "about": 9624, "above": 31264, "absorb": 31571, "ac": 2208, "aca": 18453, "accelerat": 21419, "accept": 28680, "access": 20182, "according": 25981, "account": 31274, "ace": 8793, "aceae": 31229, "ach": 4011, "ache": 8934, "achi": 15374, "acious": 18096, "ack": 6698, "aco": 15280, "acre": 16918, "act": 4255, "actic": 13052, "action": 5776, "activate": 23964, "active": 8730, "activity": 18716, "acy": 9364, "ad": 1721, "ada": 4599, "add": 16770, "added": 22127, "addon": 26154, "address": 29652, "addy": 21499, "ade": 5602, "adi": 11894, "adian": 26492, "adjustable": 31415, "admin": 22215, "ado": 6407, "ador": 17803, "ae": 6680, "af": 5088, "aff": 7374, "after": 13643, "ag": 5110, "aga": 8356, "agan": 16309, "agawa": 20861, "age": 1132, "aged": 12614, "agent": 24430, "ager": 15537, "agged": 18612, "agging": 14091, "agh": 24325, "agi": 15918, "aging": 9824, "agne": 28833, "agnostic": 30204, "ago": 9828, "agon": 13577, "ah": 1882, "ahu": 20955, "ai": 5765, "aiah": 16775, "aid": 15063, "ain": 10727, "air": 3772, "aire": 10134, "ais": 14605, "aj": 11082, "ak": 2091, "aka": 5527, "ake": 7960, "aker": 15878, "aki": 5385, "ako": 17706, "aku": 8543, "al": 252, "ala": 6052, "alconies": 27143, "aldehyde": 31850, "ale": 7163, "ali": 7469, "alia": 13940, "alien": 27171, "align": 23390, "alized": 20112, "all": 2563, "allow": 17418, "ally": 2079, "alo": 16313, "alone": 16743, "also": 11688, "alter": 18483, "although": 27852, "aluminum": 31094, "alysis": 27698, "am": 1111, "ama": 4273, "amateur": 29510, "amba": 17380, "ambi": 21843, "ambo": 23013, "ame": 8757, "american": 30961, "ami": 5446, "amide": 18890, "amine": 10339, "amo": 17932, "amp": 6251, "an": 438, "ana": 2314, "analysis": 29354, "ance": 1978, "ancy": 10128, "and": 666, "anda": 9004, "ander": 12462, "ando": 20557, "androlone": 17142, "ane": 4898, "ang": 1979, "anga": 20235, "angel": 18693, "angle": 15771, "angled": 23747, "angzhou": 28663, "ani": 4649, "ania": 13045, "animal": 29357, "ankoz": 17370, "ann": 14267, "anna": 15147, "ano": 4133, "anol": 28138, "ans": 8210, "answer": 31430, "ant": 1385, "anta": 10752, "ante": 13329, "anti": 11116, "ants": 5954, "anu": 23241, "any": 9730, "anza": 20597, "ao": 5592, "ap": 3105, "apa": 16446, "apartment": 30659, "aph": 13262, "app": 4407, "apping": 20878, "application": 29677, "appointed": 26618, "appropriate": 29811, "approved": 27182, "approx": 30791, "approximately": 29853, "aq": 15181, "ar": 1010, "ara": 3392, "arch": 9877, "ard": 2908, "ardo": 21392, "are": 4664, "ari": 3867, "aria": 10685, "arian": 9312, "aries": 6247, "arily": 19465, "ario": 16048, "ark": 11256, "arm": 8591, "aro": 11881, "around": 16152, "arr": 21837, "arra": 17802, "arrow": 14948, "art": 5357, "ary": 1488, "as": 1077, "asa": 11991, "asaki": 26617, "ase": 7910, "ash": 4912, "ashi": 9300, "asi": 14431, "asia": 19010, "asian": 27368, "ask": 14105, "aspx": 30580, "ass": 10582, "assa": 25371, "asse": 15024, "assemble": 31409, "assembly": 30006, "assi": 27316, "assist": 30002, "assuming": 31831, "aster": 11961, "astro": 20234, "at": 1134, "ata": 6208, "ate": 1219, "ated": 2153, "ategorize": 31805, "aternity": 31826, "ates": 10585, "ath": 3787, "atha": 21626, "ati": 6476, "atic": 10093, "ating": 2440, "atio": 27381, "ation": 679, "ations": 5607, "ative": 2849, "ato": 7446, "ator": 3149, "ators": 9419, "atory": 11404, "atrix": 25930, "atta": 17743, "attack": 20939, "atter": 14873, "ature": 14806, "atus": 23138, "au": 3551, "aud": 19751, "audi": 23881, "augh": 19591, "aught": 10966, "ault": 20643, "aunt": 17577, "aut": 20272, "author": 14636, "auto": 22303, "automatic": 27065, "av": 6859, "ava": 8114, "available": 19393, "avan": 21074, "aven": 13734, "average": 30508, "aves": 21248, "avi": 6749, "aving": 12103, "avo": 15231, "aw": 8886, "awa": 11340, "awaited": 28863, "aware": 23252, "away": 7178, "awn": 15621, "ax": 6709, "axial": 19898, "axis": 15697, "ay": 5023, "aya": 9574, "az": 4025, "azar": 17948, "azi": 13800, "azione": 26321, "azz": 20013, "b": 388, "ba": 1896, "bab": 16579, "bach": 15614, "back": 2965, "bad": 10809, "bag": 9657, "bah": 13671, "bai": 20395, "bak": 26310, "bal": 7917, "balance": 15768, "balancing": 18176, "ball": 5716, "ban": 9334, "band": 8154, "bang": 14419, "bank": 9505, "bao": 26008, "bar": 3101, "bara": 23230, "base": 9933, "based": 1638, "bashi": 11495, "bat": 8511, "bath": 24144, "bau": 21378, "bay": 15272, "bb": 5126, "bber": 16176, "bbie": 24785, "bbl": 21703, "bby": 16937, "bc": 18040, "be": 1321, "beam": 28180, "bear": 15145, "bearing": 21170, "beat": 21183, "beautiful": 31419, "beauty": 30010, "because": 18580, "beck": 25633, "bed": 5417, "bedroom": 22213, "bee": 16864, "before": 20723, "begotten": 24894, "bei": 15608, "being": 7002, "bel": 6669, "believe": 27062, "believers": 28162, "bell": 11758, "ben": 12386, "benz": 25977, "ber": 2808, "berg": 4834, "berry": 10958, "bert": 8035, "best": 17434, "bet": 11768, "better": 27526, "between": 25983, "bf": 26758, "bi": 3660, "bia": 13188, "bian": 10933, "bid": 14628, "bie": 14092, "big": 13673, "bike": 20024, "bil": 9415, "bile": 26450, "bility": 15510, "billion": 30016, "bin": 5197, "bing": 10852, "bio": 19995, "biotic": 18083, "bird": 14915, "birth": 22454, "bit": 2291, "biz": 25920, "bl": 11890, "bla": 10470, "black": 12911, "blade": 30162, "blank": 31272, "blast": 23559, "ble": 2964, "bler": 25084, "blin": 16019, "bling": 13339, "blo": 16650, "block": 10491, "blog": 23613, "blood": 23235, "blowjob": 31838, "blue": 16056, "bo": 2462, "board": 2870, "boat": 15373, "bodied": 29441, "body": 11541, "bok": 21602, "bol": 8604, "bolic": 24774, "bon": 12070, "bond": 22345, "bone": 20397, "boo": 16450, "book": 4401, "books": 13783, "boot": 19850, "bor": 12756, "border": 29353, "borg": 22044, "born": 6747, "borne": 15426, "boro": 23242, "borough": 15334, "bot": 8370, "both": 18022, "bottom": 31424, "bou": 19258, "bound": 12135, "bourg": 24584, "bourne": 24477, "bow": 24928, "box": 4062, "boy": 11311, "br": 4924, "bra": 7053, "brain": 24566, "brand": 6267, "bread": 26161, "break": 14937, "breaker": 27235, "breaking": 19994, "breath": 29856, "brew": 27684, "bri": 7655, "bridge": 9753, "bright": 26918, "bro": 9377, "broken": 24418, "brook": 19153, "brother": 25501, "bru": 13241, "brush": 21266, "bu": 3682, "buck": 27088, "bug": 18487, "build": 20776, "building": 10355, "built": 15571, "buk": 17543, "bul": 9423, "bull": 25526, "bun": 16617, "bur": 10152, "burg": 6813, "buri": 25984, "burn": 9085, "bury": 9452, "bus": 5752, "business": 20502, "but": 3536, "button": 26921, "buy": 22220, "by": 1920, "bye": 20830, "byte": 13105, "c": 393, "ca": 1533, "cable": 17443, "cad": 16879, "cade": 14380, "cademia": 22155, "caine": 25837, "cake": 12594, "cal": 5639, "call": 16171, "called": 6910, "cam": 7423, "camera": 30164, "camp": 19149, "campus": 27513, "can": 3341, "cancer": 29358, "cap": 9123, "capacity": 28009, "capital": 30655, "car": 3167, "carbon": 17645, "card": 7773, "care": 7641, "carton": 25669, "cas": 11448, "case": 8611, "cast": 6106, "cat": 7337, "cate": 13545, "catering": 10741, "cation": 14040, "cause": 13446, "cc": 5333, "cca": 9239, "cchia": 31276, "cchio": 29128, "cci": 14102, "ccio": 26156, "cco": 13674, "cd": 18387, "ce": 1944, "cea": 24465, "ceded": 30312, "cel": 10079, "cell": 9688, "cellular": 31585, "cen": 13647, "cene": 23579, "cent": 5600, "center": 15693, "centered": 20739, "central": 24916, "centre": 24171, "centric": 19022, "century": 7845, "cephal": 29814, "cept": 9156, "ception": 12630, "cer": 9707, "cert": 21152, "certain": 31570, "certified": 26303, "cess": 9776, "cession": 26006, "cetic": 30333, "cf": 20169, "ch": 1629, "cha": 4472, "chai": 27206, "chain": 15120, "chair": 22039, "chal": 23753, "champ": 26123, "chan": 9721, "chang": 15620, "change": 17521, "changing": 16222, "channel": 8506, "char": 11282, "character": 30498, "charge": 11320, "chase": 28141, "chat": 18009, "che": 3416, "check": 11985, "ched": 9039, "chel": 15142, "chem": 16053, "chemical": 17999, "chemistry": 28485, "chen": 7947, "cheng": 17087, "cheon": 13036, "cher": 5511, "ches": 7320, "chi": 2935, "chief": 27512, "chieving": 31110, "child": 15735, "children": 24283, "chin": 11018, "china": 24437, "ching": 9022, "chino": 21748, "chip": 18395, "chlor": 22197, "chloro": 25910, "cho": 4287, "choice": 29015, "chon": 18319, "chor": 28876, "chrom": 18530, "chrome": 23848, "chron": 19266, "cht": 12878, "chu": 7868, "church": 31249, "chy": 12567, "ci": 2124, "cia": 7680, "cial": 15622, "cid": 13387, "cie": 13078, "cient": 16662, "cigarette": 27659, "cil": 13895, "cine": 15955, "cing": 4897, "cino": 21239, "cio": 14030, "cip": 11442, "circ": 20870, "circuit": 29008, "cision": 18992, "citation": 15916, "citing": 21262, "city": 6832, "ck": 2744, "cke": 23698, "cker": 8799, "cl": 8920, "cla": 11930, "claim": 17512, "clar": 22585, "class": 4149, "cle": 9511, "clean": 19174, "clear": 19019, "click": 9872, "client": 25349, "clip": 22196, "clo": 18879, "clock": 8510, "close": 19123, "closed": 24146, "cloth": 24357, "cloud": 20175, "club": 19963, "clus": 18104, "clusive": 17519, "cm": 2351, "cn": 23001, "co": 871, "coat": 24619, "coated": 25532, "cock": 14217, "code": 7614, "coding": 24262, "coffee": 28488, "coin": 10341, "col": 9711, "cola": 22799, "cole": 22566, "coli": 26788, "collect": 26141, "collectively": 31704, "cological": 28183, "color": 8689, "colored": 19699, "colour": 30197, "com": 292, "coming": 12417, "command": 30194, "commerce": 12583, "commercial": 28846, "common": 24569, "commun": 16380, "communication": 29365, "comp": 13477, "company": 29675, "compatible": 11187, "complete": 17755, "compliant": 31411, "component": 30499, "computer": 23853, "con": 2102, "condensing": 31509, "condition": 16736, "conditioned": 14725, "conduct": 23860, "conf": 16436, "confidence": 26911, "confident": 31715, "config": 14271, "configuring": 27212, "connect": 19257, "connected": 23736, "conscious": 20497, "consider": 30003, "construct": 21604, "construed": 31957, "consuming": 26619, "contact": 22573, "content": 14395, "continent": 28666, "continue": 27063, "contract": 27843, "control": 10330, "controlled": 16825, "convenient": 26137, "convert": 30346, "cool": 13702, "cop": 21058, "copy": 18197, "cor": 10172, "cord": 14573, "core": 6447, "corn": 14633, "corp": 24449, "corporate": 24759, "corporation": 29659, "correct": 22433, "corrosion": 31092, "corrosive": 27114, "cost": 16947, "cott": 15734, "cou": 21912, "could": 28492, "count": 11021, "country": 20610, "couple": 30153, "course": 15509, "court": 23814, "cover": 11687, "cr": 11144, "cra": 8184, "crack": 30317, "craft": 11052, "cream": 15447, "crease": 21405, "creat": 15567, "create": 25591, "created": 25961, "creation": 26488, "credit": 22713, "crete": 27867, "crew": 29017, "cri": 9386, "criminal": 31988, "cription": 20614, "critical": 21260, "cro": 11080, "croft": 28780, "cross": 15569, "cry": 17172, "crypt": 21481, "cryptocurrencies": 16476, "crystalline": 21608, "ct": 7421, "cter": 24413, "ction": 6302, "ctn": 28315, "ctor": 10851, "ctuating": 31789, "cu": 6717, "cub": 15062, "cube": 26316, "cula": 25209, "cule": 24254, "culp": 27208, "cult": 27359, "cultural": 20293, "culture": 19657, "cum": 14098, "cup": 15787, "cur": 5166, "currency": 29527, "current": 16470, "curricula": 30465, "cus": 7456, "custom": 17916, "cut": 7715, "cute": 19432, "cutting": 28337, "cy": 6153, "cycl": 17355, "cycle": 15060, "cyclic": 29997, "cz": 19701, "d": 78, "dB": 14583, "da": 1426, "dad": 20601, "dae": 16409, "dah": 20595, "dai": 14866, "dal": 9201, "dale": 9699, "dam": 11050, "damaged": 31718, "dan": 5835, "dang": 22953, "dar": 9684, "dark": 27077, "data": 10977, "dataLayer": 29245, "date": 7378, "daughter": 27839, "day": 1648, "days": 7840, "db": 17729, "dder": 17959, "dding": 9848, "ddle": 10848, "ddy": 16377, "de": 1044, "dead": 21581, "deal": 18097, "death": 23646, "dec": 10686, "ded": 8282, "deemed": 14600, "deep": 24546, "def": 19137, "default": 28011, "defense": 30341, "defined": 12281, "definition": 29851, "degree": 14978, "del": 7749, "dela": 21138, "delete": 25841, "dem": 10754, "demand": 10462, "democratic": 30654, "den": 2231, "density": 31584, "dent": 7551, "depend": 19013, "dependent": 18298, "depth": 15708, "der": 2481, "dera": 26715, "des": 5367, "design": 20281, "designed": 22230, "desk": 20008, "destruct": 24290, "detect": 24285, "determination": 31835, "develop": 30955, "developed": 28338, "development": 24899, "device": 28014, "dex": 18177, "dging": 16863, "dh": 15638, "di": 2061, "dia": 5173, "dian": 13093, "dic": 4283, "did": 16876, "die": 9619, "dies": 9780, "different": 20501, "dig": 15471, "digit": 23983, "digital": 29682, "dimensional": 11917, "din": 8997, "dina": 23631, "dine": 18407, "ding": 3907, "dio": 13539, "dir": 16124, "direct": 9133, "directional": 17689, "dis": 5387, "disc": 23339, "disciplinary": 25829, "discipline": 31414, "discover": 24597, "disk": 28428, "display": 12546, "distance": 21140, "distribution": 31994, "dition": 18330, "dium": 13453, "div": 14756, "dle": 12710, "dler": 20745, "dling": 19232, "do": 1098, "doc": 16246, "dock": 27055, "document": 28842, "doers": 13244, "does": 22432, "dog": 14258, "dollar": 24415, "dolph": 25334, "dom": 5430, "domain": 25507, "dome": 24159, "don": 3989, "donald": 29646, "dong": 8675, "door": 11728, "dor": 8538, "dorf": 20521, "dori": 20496, "dot": 19578, "double": 18925, "doubt": 31842, "down": 4044, "download": 25666, "dr": 14663, "dra": 9148, "dragon": 28851, "draw": 19291, "dream": 21721, "dress": 11787, "dri": 10878, "drink": 26765, "drive": 18702, "driven": 14101, "driver": 23776, "driving": 26304, "dro": 15630, "drome": 29660, "drop": 15786, "dry": 13434, "du": 4529, "ducing": 19918, "duct": 9146, "due": 18016, "dust": 21751, "duty": 28016, "dy": 3029, "dynamic": 27660, "e": 133, "ea": 4923, "each": 11216, "eal": 13896, "ean": 10239, "ear": 7876, "earn": 26895, "earth": 23887, "ease": 12506, "easing": 15441, "east": 11514, "eastern": 24850, "easy": 20158, "eat": 14013, "eater": 22628, "eating": 21621, "eau": 11451, "eb": 6488, "ec": 5942, "ece": 23496, "ech": 9347, "eck": 11353, "econnaissance": 24180, "economic": 20719, "ect": 9917, "ectomy": 29308, "ed": 64, "edge": 8143, "edit": 13744, "education": 28848, "ee": 3187, "een": 13290, "eer": 15109, "ees": 11578, "ef": 7922, "eferred": 24176, "eff": 23843, "effect": 25341, "effective": 9363, "efficiency": 29506, "efficient": 13391, "eg": 3608, "ega": 14669, "egan": 21641, "egi": 23724, "ego": 17612, "eh": 9521, "ehydration": 31591, "ei": 5778, "eight": 15159, "eira": 16789, "either": 21044, "ek": 3216, "eki": 20266, "el": 1022, "ela": 10898, "elais": 27851, "ele": 7108, "elecommunication": 25644, "elected": 26124, "election": 24909, "electric": 10609, "electronic": 25653, "eli": 12455, "elia": 20121, "ell": 6189, "ella": 5889, "elle": 6912, "eller": 12150, "elli": 9569, "ello": 9428, "elo": 18870, "els": 8955, "em": 2123, "ema": 9435, "email": 19397, "ember": 22111, "eme": 21297, "ement": 8979, "emi": 12666, "emia": 16524, "eminent": 27792, "emolition": 31396, "emon": 12422, "empinski": 31698, "employment": 29156, "empty": 31576, "en": 521, "ena": 7751, "enabled": 21832, "enberg": 13103, "enburg": 20278, "ence": 2376, "enchant": 24934, "encia": 23363, "encies": 16459, "ency": 7230, "end": 2445, "ended": 15375, "ender": 8270, "endi": 24933, "ending": 9141, "endo": 22870, "endorf": 30518, "ene": 5971, "ened": 7406, "ener": 11033, "energ": 29166, "energy": 21379, "eng": 5250, "enger": 23065, "engine": 22587, "engineering": 30507, "eni": 15797, "enia": 27386, "ening": 7157, "enko": 18831, "eno": 13166, "ens": 4936, "ense": 6804, "ension": 15430, "ensis": 28654, "enstein": 20025, "ent": 1898, "ental": 20056, "ente": 16041, "enter": 15642, "ential": 11935, "ently": 18618, "entrepreneurship": 27981, "entry": 25838, "enza": 22812, "eo": 5729, "eon": 11148, "ep": 5028, "ephri": 29878, "ept": 11738, "eptic": 15025, "equ": 12493, "equipped": 24756, "er": 134, "era": 5329, "eration": 12159, "erator": 23020, "erg": 16008, "eri": 10394, "eria": 14753, "erial": 16701, "erie": 11466, "ering": 9366, "ern": 9260, "ero": 6879, "error": 22657, "erry": 26145, "ers": 396, "erson": 14812, "ert": 9536, "ery": 4832, "es": 246, "esca": 22947, "escence": 22590, "escent": 19375, "escu": 28869, "ese": 6949, "esh": 12777, "esi": 19351, "especially": 15111, "esque": 26490, "ess": 6782, "est": 1037, "esta": 22112, "established": 21723, "esteem": 12977, "ester": 10839, "et": 1682, "eta": 11682, "etc": 9829, "ete": 20028, "eter": 15948, "eth": 1295, "ethane": 23503, "ethenolone": 31726, "ether": 13336, "ethyl": 24460, "ethylene": 27080, "eti": 22075, "etic": 10407, "ets": 8201, "etsu": 23134, "ett": 8063, "etta": 12687, "ette": 5851, "etter": 27229, "etti": 17128, "etto": 15251, "eu": 7350, "eur": 10411, "eus": 13330, "ev": 4324, "eva": 13570, "even": 6617, "ever": 5119, "every": 14601, "everything": 28489, "evi": 14913, "evich": 29654, "evil": 19061, "evo": 18300, "evolution": 25836, "evolve": 31403, "evsky": 23566, "ew": 6434, "ewicz": 31954, "ex": 1784, "example": 27362, "except": 14777, "exchange": 30807, "excluding": 28007, "exclusive": 31429, "exe": 8493, "existence": 30024, "existent": 21157, "expand": 31434, "experience": 29341, "expo": 26171, "express": 22467, "extra": 22705, "extraterrestrial": 31727, "ey": 2883, "eye": 16092, "ez": 4458, "f": 699, "fa": 4601, "fab": 19240, "face": 8189, "facebook": 30806, "facing": 21956, "fact": 20062, "factor": 19401, "factory": 24906, "fail": 28003, "fair": 18410, "faith": 21951, "fall": 9335, "false": 30181, "family": 18838, "famous": 18574, "fan": 16506, "fang": 28691, "far": 8440, "fare": 22207, "fashioned": 23654, "fast": 13763, "fat": 20119, "father": 16330, "fe": 7267, "fearing": 22133, "feat": 25316, "feature": 29368, "fect": 13755, "fed": 20954, "fee": 24295, "feed": 15427, "feel": 25678, "fei": 22965, "fel": 24107, "feld": 15898, "fell": 23888, "fellow": 28850, "female": 30652, "fen": 20558, "feng": 20646, "fer": 3553, "ferrous": 30761, "fest": 15215, "fetched": 30325, "ff": 4400, "ffe": 16619, "ffer": 9026, "fi": 3753, "fiber": 22319, "fici": 13990, "fid": 16251, "fidelity": 20931, "field": 3689, "fight": 22119, "fighter": 25690, "fighting": 25066, "figure": 23268, "figuring": 22544, "fil": 18117, "file": 9404, "fill": 13040, "filled": 17921, "film": 17987, "filter": 28494, "filtration": 20130, "fin": 7319, "final": 20128, "find": 19782, "fine": 17965, "finger": 26499, "finished": 31248, "fire": 7204, "firefox": 18543, "firm": 14055, "first": 12688, "fish": 7197, "fit": 9124, "fitting": 28297, "five": 9859, "fix": 16964, "fjord": 29586, "fl": 10676, "flame": 29864, "flammable": 31728, "flash": 27224, "flat": 13286, "fledged": 31043, "flex": 19484, "flies": 26766, "flight": 21150, "flix": 27622, "flo": 16117, "floor": 26479, "flow": 10815, "flower": 11409, "flu": 16526, "fluoro": 29518, "fly": 15892, "fo": 7913, "focus": 26900, "focused": 24002, "fold": 7672, "foli": 29874, "folk": 29180, "follow": 25049, "fon": 15350, "foo": 26427, "food": 13922, "foot": 8971, "for": 1742, "force": 14427, "ford": 4489, "fore": 13466, "forgiving": 28171, "form": 5655, "format": 17611, "formatted": 28678, "formed": 17509, "formerly": 25655, "forming": 16816, "fort": 13517, "forward": 28015, "found": 16112, "founded": 22233, "founder": 18212, "four": 10092, "fps": 23618, "fr": 10124, "fra": 13419, "frag": 25797, "frame": 11680, "franc": 31830, "free": 2311, "frequency": 28670, "fresh": 30199, "fri": 16239, "friend": 14439, "friendliness": 31435, "friendly": 5772, "from": 4980, "front": 7284, "fruit": 18663, "ft": 3094, "fu": 5227, "fuck": 13632, "fuel": 22130, "ful": 1651, "full": 14446, "fully": 5222, "fulness": 11475, "fun": 13071, "function": 14322, "functional": 19081, "fur": 12101, "fuse": 21944, "fused": 18633, "fusing": 31106, "fusion": 16715, "g": 336, "ga": 2393, "gai": 27330, "gainst": 14333, "gal": 9660, "galactic": 31400, "gallery": 29849, "gam": 12559, "game": 8754, "gan": 5876, "gang": 18019, "gar": 4064, "gard": 14198, "gas": 10903, "gat": 15101, "gata": 22981, "gate": 5631, "gather": 29519, "gawa": 14912, "gay": 20211, "gb": 20010, "ge": 1556, "gear": 27070, "gee": 25956, "gel": 10182, "gen": 3287, "gene": 17570, "general": 25504, "generating": 14684, "generation": 11444, "genesis": 29490, "genetic": 30790, "gent": 9617, "ger": 2637, "gest": 13823, "get": 7091, "gg": 5190, "ggers": 26772, "ggie": 23650, "ggio": 24733, "ggling": 24691, "ggy": 12265, "gh": 8306, "ghi": 28302, "gi": 3513, "gia": 10940, "gic": 18601, "gie": 13357, "gift": 29018, "gil": 10703, "gin": 6531, "gina": 26014, "ging": 4994, "gio": 12588, "girl": 8454, "girlfriend": 10834, "git": 14594, "give": 18373, "given": 17581, "giving": 14245, "gla": 18025, "glass": 18772, "gle": 6783, "gler": 27005, "gli": 12372, "glia": 18220, "glio": 27868, "glo": 11043, "global": 27845, "glu": 19398, "gmail": 21991, "gna": 10570, "gni": 14192, "gno": 11786, "go": 1401, "god": 15341, "going": 17037, "gol": 21117, "gold": 23474, "gon": 9242, "gong": 23695, "good": 7253, "google": 27506, "got": 11806, "gov": 17464, "government": 28159, "governmental": 27226, "gr": 13801, "gra": 5076, "grad": 12087, "grade": 9317, "graduate": 24276, "graf": 29685, "grain": 22095, "gram": 7864, "grand": 16403, "grant": 22302, "graph": 11336, "graphic": 13838, "graphy": 18526, "grave": 23245, "gre": 7747, "great": 9485, "green": 11341, "gren": 28861, "gress": 13500, "gri": 12795, "grid": 25631, "grin": 25170, "gro": 13001, "ground": 11964, "group": 8357, "grove": 18416, "growing": 18840, "grown": 27220, "growth": 25194, "gsm": 7875, "gtag": 29151, "gu": 2165, "gua": 13737, "guan": 24915, "guard": 11280, "guchi": 21250, "gue": 6484, "gues": 16997, "gui": 18685, "guide": 23869, "gul": 24929, "gun": 10463, "gur": 20357, "gy": 5578, "h": 421, "ha": 1889, "hab": 12186, "habit": 24375, "hack": 18192, "had": 12772, "hah": 22176, "hai": 7459, "hair": 15372, "hak": 17691, "hal": 6631, "half": 17898, "hall": 13292, "ham": 3202, "hama": 19239, "han": 3974, "hana": 23509, "hand": 6112, "handed": 18827, "hang": 11220, "hap": 16867, "happy": 26983, "har": 5627, "hara": 12982, "hard": 7841, "hari": 22506, "harm": 21351, "hart": 17276, "has": 12126, "hat": 15601, "haus": 13340, "have": 11020, "haven": 27496, "having": 18773, "hawk": 17060, "hay": 16939, "he": 1555, "head": 4117, "headed": 21228, "health": 18582, "hear": 17576, "heart": 18604, "hearted": 11923, "heat": 12854, "hee": 14682, "heim": 12404, "hel": 13335, "held": 15102, "help": 16187, "hem": 12227, "hen": 10895, "heng": 16473, "her": 3128, "here": 17103, "hereinafter": 25149, "hhh": 26908, "hi": 3908, "hibition": 23024, "high": 7308, "hik": 22743, "hill": 8314, "him": 12391, "hin": 9979, "hinatungsten": 30748, "hip": 17657, "hir": 14205, "hira": 23352, "hiro": 17593, "his": 9174, "historic": 26910, "hit": 17602, "hl": 11699, "hmm": 21246, "hn": 8144, "ho": 2941, "hoe": 14273, "hof": 13524, "hol": 6733, "hold": 9708, "holder": 9012, "hole": 8179, "holy": 21194, "hom": 16184, "home": 8996, "hon": 10304, "hong": 23236, "hoo": 14904, "hood": 7315, "hook": 28025, "hop": 17374, "hopper": 16472, "hopping": 26451, "hor": 8731, "horn": 13305, "horse": 24012, "host": 5680, "hostel": 26483, "hot": 12105, "hotel": 6659, "hotels": 7334, "hou": 16371, "hound": 23589, "hour": 1968, "house": 2991, "hov": 24595, "how": 6623, "hp": 19800, "hr": 3862, "html": 11697, "http": 16541, "hu": 3533, "hua": 6863, "hub": 18272, "hui": 13979, "human": 11252, "humi": 27183, "hun": 12954, "hur": 13084, "hurst": 23125, "husband": 29351, "hutterstock": 31829, "hwa": 15944, "hy": 6746, "hydrate": 26456, "hydro": 20129, "hydroxy": 28308, "hypno": 30625, "hyun": 26924, "hz": 15499, "i": 260, "ia": 842, "iable": 15748, "iac": 17662, "iah": 7521, "ial": 3226, "iamo": 27957, "ian": 1311, "iana": 15303, "iano": 13710, "ians": 6375, "iate": 19494, "iated": 17800, "ib": 4900, "iba": 16201, "iber": 15815, "ibi": 18409, "ibility": 9268, "ible": 3565, "ibo": 19158, "ic": 677, "ica": 5719, "ical": 3535, "ically": 8340, "ication": 19358, "ice": 5751, "ich": 8679, "ichi": 10247, "ici": 13257, "icide": 15889, "ick": 5622, "icker": 22306, "ickle": 27636, "icle": 13031, "ico": 7309, "icon": 19344, "ics": 9152, "icular": 15876, "id": 2068, "ida": 6140, "ide": 4012, "iden": 14243, "idence": 27699, "idge": 29863, "idi": 13249, "iding": 12649, "ido": 9689, "ie": 1230, "ied": 8373, "iel": 8534, "ien": 9959, "ienne": 26143, "ient": 7971, "ier": 3123, "ies": 1701, "iest": 7825, "iety": 21534, "ieu": 25814, "ieving": 23350, "if": 2200, "ife": 15512, "ifer": 22991, "iff": 8224, "ific": 10067, "ification": 4351, "ified": 5111, "ifier": 11800, "ifies": 12282, "ify": 6643, "ifying": 10936, "ig": 3785, "iga": 12366, "igan": 19973, "ige": 12679, "iger": 26886, "igh": 11376, "ight": 5858, "igi": 19895, "ign": 5807, "ignano": 30327, "igo": 12708, "ih": 16235, "ii": 8383, "iii": 21414, "ij": 13960, "ija": 18853, "ijia": 30775, "ik": 3958, "ika": 6768, "ikan": 25005, "ike": 11447, "iki": 9438, "iko": 11794, "iku": 18756, "il": 1204, "ila": 10442, "ile": 4193, "iler": 16546, "ili": 7874, "ilia": 23476, "iling": 10489, "ility": 11949, "illa": 6774, "ille": 8637, "iller": 17191, "illi": 22305, "illian": 25952, "illion": 23560, "illo": 12514, "illon": 21996, "illumin": 31071, "illus": 21882, "ilo": 17931, "ily": 7260, "im": 1840, "ima": 6957, "image": 16154, "imba": 29174, "ime": 11847, "imi": 15221, "immable": 23894, "imo": 14117, "imp": 10177, "important": 27364, "in": 203, "ina": 2950, "inate": 10973, "inaudible": 30587, "inc": 17605, "inch": 4751, "include": 22706, "including": 6211, "income": 25052, "incomprehensible": 31729, "increasing": 30337, "inder": 18360, "index": 26169, "induced": 20547, "industrial": 29319, "ine": 1319, "iness": 7085, "inflammatory": 20880, "info": 12597, "information": 28166, "informed": 27856, "ing": 49, "ington": 9764, "ini": 4353, "ink": 9494, "inn": 17738, "inner": 18762, "ino": 4140, "inous": 23565, "ins": 5277, "inski": 27984, "insky": 21761, "inspired": 29009, "inspiring": 28665, "insta": 24882, "instagram": 30119, "install": 18139, "installed": 27497, "int": 6394, "integration": 31992, "intensive": 28667, "inter": 7541, "interest": 18750, "interoperability": 30720, "introduc": 20965, "invest": 28681, "io": 2154, "iodegradable": 29540, "ion": 713, "ional": 14807, "ionic": 27355, "ions": 4032, "ios": 12636, "ious": 3700, "ip": 4608, "ipped": 20732, "ipping": 17366, "iq": 19664, "ique": 8290, "ir": 1902, "ira": 6552, "iri": 15287, "iro": 10648, "iron": 18196, "is": 972, "isa": 15313, "isation": 6914, "ische": 25472, "isco": 17345, "ise": 2444, "ised": 4176, "iser": 19692, "ish": 2288, "isha": 18953, "ished": 12574, "ishi": 19244, "isi": 16356, "ising": 7872, "isk": 19785, "ism": 981, "iso": 12749, "ison": 10656, "issa": 20193, "isse": 21383, "issue": 20297, "ist": 1066, "ista": 12955, "ister": 6606, "istic": 4406, "isto": 24616, "ists": 2492, "it": 916, "ita": 4839, "ital": 14057, "itar": 21942, "itate": 23285, "itch": 11604, "ite": 2775, "iter": 15424, "ites": 4211, "ith": 12379, "iti": 8973, "itic": 19069, "ities": 3032, "ition": 9375, "itis": 9281, "itive": 17177, "ito": 10386, "itor": 13073, "its": 9523, "itted": 20015, "itter": 15359, "ituated": 7503, "itude": 15162, "ity": 708, "itz": 13779, "iu": 14905, "ium": 2869, "ius": 4922, "iv": 3948, "iva": 10541, "ival": 19058, "ive": 1153, "iver": 17282, "ivi": 20088, "ivity": 8501, "ivo": 17526, "ivud": 11405, "iwa": 16521, "ix": 4904, "iya": 8521, "iye": 28800, "iz": 5633, "iza": 18201, "izable": 22204, "ization": 1623, "ize": 2034, "ized": 1330, "izen": 22093, "izer": 7668, "izing": 2645, "izo": 24789, "izu": 21978, "izza": 31558, "j": 1702, "ja": 2406, "jack": 18127, "jah": 15994, "jan": 12165, "jang": 23751, "japanese": 27841, "jar": 16889, "je": 4959, "ject": 13436, "jeong": 23897, "jet": 14703, "ji": 2480, "jiang": 13131, "jima": 14950, "jin": 8326, "jo": 2934, "job": 12536, "jong": 26128, "jour": 22226, "jp": 17597, "jpg": 17568, "js": 15308, "ju": 3777, "juku": 29282, "jun": 16883, "jung": 26288, "jur": 16859, "just": 9442, "justice": 31402, "k": 450, "kHz": 18976, "kV": 25215, "kVA": 29153, "kW": 17277, "ka": 1513, "kai": 12102, "kaku": 25650, "kan": 7225, "kar": 10369, "kara": 27374, "kata": 16887, "kawa": 10558, "ke": 2281, "ked": 9714, "keep": 22104, "keeper": 12177, "keeping": 18768, "kel": 8464, "ken": 5429, "ker": 4263, "kes": 12785, "ket": 14707, "key": 6229, "kg": 2960, "kgs": 18931, "kh": 7654, "kha": 15174, "khan": 27831, "ki": 2282, "kid": 20479, "kill": 16525, "kilometer": 27999, "kin": 4477, "kind": 13462, "kindness": 16407, "king": 3701, "kins": 13382, "kirche": 31069, "kit": 11631, "kk": 15973, "kka": 16817, "kko": 25658, "kle": 16808, "km": 4714, "kn": 17385, "know": 20600, "knowing": 21158, "knowledge": 24444, "known": 5438, "ko": 1962, "kon": 14367, "kong": 25021, "korea": 24271, "kou": 18308, "kov": 9370, "kova": 27807, "kr": 8910, "kra": 16578, "ks": 6358, "ku": 4880, "kun": 20663, "kura": 19801, "kurang": 28822, "kv": 25305, "kva": 24309, "kw": 6992, "ky": 4297, "kyo": 19896, "l": 472, "la": 1351, "lab": 16025, "label": 22728, "labor": 21754, "lac": 14275, "lace": 23645, "laden": 27505, "lady": 28100, "lag": 12826, "lah": 8756, "lai": 17456, "laid": 27806, "lake": 20637, "lam": 7848, "lamp": 27377, "lan": 3419, "lance": 18670, "land": 1380, "lands": 9058, "lane": 20645, "lang": 12233, "language": 14743, "lapping": 23378, "lapse": 20838, "lar": 5442, "large": 19072, "largest": 27515, "las": 7902, "last": 10588, "lasting": 20483, "lat": 8085, "late": 6677, "later": 26170, "lateral": 22497, "latin": 23608, "lation": 9516, "lau": 16324, "laughs": 24990, "laughter": 22703, "launch": 29512, "laundry": 15444, "lav": 10471, "law": 4613, "lay": 7795, "layer": 11202, "lb": 14745, "lco": 25491, "ld": 7346, "le": 788, "lea": 9373, "lead": 18711, "leading": 18270, "lean": 21844, "learn": 19756, "learning": 26643, "lecommunications": 17680, "lect": 9336, "led": 2496, "lee": 8713, "left": 12872, "leg": 13621, "legal": 27459, "lei": 21632, "leigh": 21614, "lem": 12549, "len": 6040, "lena": 22958, "lene": 20519, "length": 18841, "lent": 9962, "ler": 2523, "les": 2731, "less": 828, "lessly": 13371, "lessness": 12276, "let": 3250, "lets": 13126, "lette": 26444, "letter": 26282, "letting": 12829, "level": 5483, "leveraging": 26871, "lex": 12042, "ley": 2011, "lf": 8603, "lg": 17537, "li": 1493, "lia": 7291, "lian": 13870, "lib": 11260, "lic": 4195, "lica": 24109, "lice": 16241, "license": 27514, "lich": 25183, "lick": 19066, "lid": 15962, "lide": 16809, "lie": 6439, "lier": 13961, "lies": 14951, "liest": 20995, "life": 5452, "lift": 12310, "lig": 9129, "light": 2968, "lik": 18314, "like": 3181, "lim": 8301, "limit": 20626, "lin": 2354, "lina": 17956, "linda": 28028, "line": 1517, "linear": 21363, "liner": 24155, "lines": 13248, "liness": 11802, "ling": 1316, "lings": 15288, "lingual": 21937, "lining": 18427, "link": 5052, "lio": 11526, "lion": 20417, "lip": 10159, "lipper": 27479, "lips": 10938, "lique": 20394, "liquid": 29674, "lis": 9803, "lish": 12993, "list": 4804, "listen": 28993, "lit": 6710, "lite": 17356, "liter": 20514, "little": 19572, "litz": 21874, "live": 13187, "lived": 20094, "liver": 17955, "living": 20728, "lix": 19008, "lk": 13526, "ll": 182, "lla": 9498, "lle": 9563, "lli": 11557, "llo": 13866, "lm": 7727, "lo": 2235, "load": 7028, "loaded": 22614, "loc": 14553, "local": 18490, "located": 22595, "location": 13380, "loch": 27050, "lock": 6417, "lod": 19012, "loft": 16544, "log": 5209, "logged": 28327, "logging": 31243, "logic": 15538, "logical": 18238, "logist": 15015, "logy": 8784, "lom": 16334, "lon": 4578, "lone": 15386, "long": 4447, "look": 15413, "looking": 12539, "loom": 17110, "loop": 25210, "lop": 15210, "lor": 7255, "lord": 21705, "lore": 16304, "los": 13123, "loss": 14422, "lost": 24786, "lot": 7600, "lou": 18501, "lough": 26922, "lounge": 31422, "lov": 11676, "lova": 25953, "love": 7279, "loving": 23779, "low": 5069, "loy": 20124, "lp": 15163, "ls": 10431, "lt": 8136, "ltd": 21734, "lton": 14414, "lu": 2216, "luck": 27204, "lum": 7258, "lun": 23371, "lung": 21332, "lush": 11915, "lust": 19804, "lute": 13992, "lux": 13239, "lv": 18684, "lva": 23075, "lves": 12637, "ly": 116, "lyn": 16381, "lynn": 27324, "l\u00e9": 19779, "m": 93, "mA": 11993, "mAh": 11103, "mL": 23269, "ma": 1483, "mac": 11887, "machi": 11161, "machine": 24016, "mad": 20201, "made": 5993, "mae": 19879, "mag": 14513, "magic": 23870, "magnetic": 24592, "mah": 13561, "mai": 15104, "maid": 18285, "mail": 2865, "main": 12267, "major": 30013, "make": 12925, "maker": 9981, "makers": 10508, "making": 6805, "mal": 7616, "male": 22562, "malware": 25657, "man": 545, "managed": 29169, "management": 27842, "mann": 8155, "manufactu": 26650, "manufacturers": 30012, "many": 21416, "map": 10430, "mar": 4342, "mara": 19753, "mari": 16087, "marine": 29315, "marital": 8561, "mark": 5217, "market": 10192, "marriage": 31707, "married": 31408, "mart": 14581, "mas": 9597, "mask": 25842, "mass": 14020, "master": 7993, "mat": 5343, "match": 21687, "mate": 6146, "material": 16749, "matic": 7580, "matsu": 20208, "mature": 21605, "max": 9298, "may": 12326, "maybe": 30665, "mb": 6961, "mbi": 23523, "mbo": 13074, "mbra": 26165, "mbre": 21735, "mcg": 28139, "me": 1538, "mean": 22060, "meaning": 25067, "measure": 26909, "med": 4829, "medi": 18972, "media": 12534, "medium": 30810, "mega": 28821, "mei": 21854, "mel": 7528, "member": 15175, "memory": 29854, "men": 1581, "ment": 940, "mentioned": 31580, "ments": 6683, "menu": 23524, "mer": 3350, "merciful": 30647, "mercy": 29688, "mes": 7100, "mesh": 27306, "met": 10512, "meta": 26474, "metal": 14371, "meter": 7317, "meters": 16752, "methyl": 13923, "metre": 22679, "metric": 18681, "metry": 17852, "mg": 6327, "mi": 2738, "mic": 7325, "micro": 25839, "micron": 29521, "microsoft": 30662, "mid": 14256, "middle": 30014, "mie": 13488, "mighty": 30497, "migration": 29503, "mil": 10013, "mile": 12964, "milf": 29187, "mill": 17357, "millennial": 25802, "million": 19580, "min": 1347, "mina": 13356, "minated": 19053, "mination": 16792, "minded": 14019, "mine": 10682, "ming": 4074, "mini": 11124, "miniatur": 30666, "minimizing": 23936, "minute": 898, "mir": 9200, "mira": 23617, "mis": 13861, "miss": 11228, "mission": 13202, "misunderstanding": 17892, "mit": 5226, "mite": 19595, "mix": 13432, "ml": 4460, "mm": 295, "mma": 13447, "mmer": 9440, "mo": 1851, "mobil": 19596, "mobile": 21039, "mod": 11962, "mode": 16098, "model": 13122, "modern": 22844, "module": 30966, "mol": 17270, "mom": 24013, "mon": 4087, "mond": 9103, "money": 24432, "monitor": 31101, "mono": 24269, "mont": 8190, "month": 6285, "moon": 18807, "mor": 9631, "moral": 23116, "more": 4308, "mori": 24072, "morph": 12061, "morrow": 19436, "mos": 13548, "most": 6908, "mote": 13864, "moth": 18325, "mother": 17776, "motion": 15035, "moto": 14321, "motor": 25176, "mount": 13487, "mounted": 24246, "mous": 20200, "mouth": 16985, "mov": 16202, "movie": 29691, "moving": 22341, "mozilla": 26563, "mp": 3654, "mper": 14242, "mplified": 27391, "mu": 9189, "much": 18631, "mul": 17742, "multi": 22214, "mun": 9758, "mur": 16875, "mura": 20766, "mus": 7518, "music": 26778, "mut": 14561, "my": 3697, "n": 229, "nRAR": 30785, "na": 863, "nah": 12902, "nai": 17607, "nail": 21570, "nal": 5179, "naldin": 1203, "nam": 10121, "name": 2944, "nan": 6921, "nar": 8852, "nard": 23273, "natal": 25971, "nate": 9559, "nation": 11170, "national": 17760, "natural": 16746, "nature": 29025, "nau": 26607, "naval": 19908, "naya": 21037, "nbsp": 30416, "nc": 9285, "ncapsula": 29843, "nce": 7384, "nch": 6493, "ncy": 12435, "nd": 1642, "nda": 10870, "nde": 16333, "nder": 10365, "ndigenous": 29029, "ndra": 18970, "ne": 1094, "near": 26497, "necessary": 30175, "neck": 17771, "ned": 3962, "need": 19480, "negative": 31263, "nel": 12461, "nell": 15508, "nen": 20064, "ner": 2177, "nes": 4450, "ness": 649, "net": 1947, "netsh": 26119, "network": 24010, "neu": 15310, "new": 4680, "next": 22328, "ney": 4825, "ng": 5158, "nge": 18589, "ni": 2367, "nia": 9638, "nibal": 27817, "nic": 5368, "nica": 18331, "nice": 24139, "nick": 17754, "nie": 5728, "nier": 24612, "nig": 19558, "night": 10359, "nik": 12486, "nikov": 30515, "nim": 17875, "nin": 15806, "nine": 18207, "ning": 2733, "nip": 24275, "nis": 9473, "nit": 8411, "nite": 21915, "nix": 25378, "nk": 11219, "nm": 5649, "nn": 11706, "nna": 10668, "nne": 9084, "nni": 15730, "nny": 7571, "no": 791, "node": 17860, "nomic": 17209, "nomiya": 24974, "nomy": 21986, "non": 6158, "nor": 11290, "normal": 14445, "not": 3115, "note": 14337, "nothing": 29355, "nov": 12752, "nova": 14969, "now": 9411, "ns": 4361, "nt": 3836, "nta": 17663, "ntal": 23636, "ntegrating": 31845, "nterlocking": 31401, "ntetsu": 31240, "nti": 17412, "nto": 17351, "nu": 6167, "nuclear": 30342, "nucleotide": 30362, "num": 12741, "number": 16849, "nut": 10515, "ny": 4109, "nz": 14049, "nzo": 19597, "o": 224, "oC": 18934, "oa": 16115, "ob": 6024, "oba": 19784, "obi": 19409, "object": 30189, "obo": 14244, "oc": 3516, "ocating": 28001, "occupied": 31987, "och": 9570, "ock": 9697, "ocracy": 23079, "ocratic": 16805, "oct": 23397, "ocular": 26149, "ocyte": 28447, "od": 4155, "oda": 16615, "ode": 10984, "odi": 15957, "oe": 8638, "of": 1636, "off": 2983, "offering": 16676, "office": 25199, "official": 26907, "often": 26438, "og": 5784, "ogen": 13991, "ogenic": 17269, "ogging": 23083, "ogram": 14972, "ograph": 25545, "ographer": 18660, "ographic": 16468, "ography": 8059, "ogue": 13770, "oh": 9995, "oi": 13318, "oid": 6840, "oil": 12628, "oire": 20716, "ois": 11640, "oji": 17127, "ok": 3337, "oka": 10963, "oke": 12912, "oki": 21979, "okie": 18494, "oko": 15900, "oku": 9080, "ol": 1539, "ola": 4855, "old": 1449, "ole": 7869, "oli": 8740, "olin": 22988, "olino": 31237, "ollegiate": 31028, "ollywood": 27393, "olo": 7405, "ological": 5298, "ologies": 17187, "ologist": 13481, "ologists": 11924, "ology": 2842, "om": 3630, "oma": 7502, "omb": 11434, "ome": 8883, "omer": 23620, "ometer": 11900, "ometric": 22997, "omi": 11244, "omo": 14757, "omplimentary": 20717, "on": 397, "ona": 5146, "once": 23406, "one": 1199, "ong": 2907, "oni": 7893, "onia": 14159, "onian": 24581, "onic": 7736, "onite": 22085, "only": 7707, "ons": 4738, "ontrary": 29186, "ony": 8422, "oo": 4698, "ood": 15749, "oodle": 24621, "ooh": 27354, "ook": 9827, "oon": 6792, "oooo": 24603, "oops": 26682, "op": 2959, "opathic": 30788, "opathy": 30513, "ope": 8724, "open": 8575, "oper": 11818, "operation": 19214, "operative": 18839, "opia": 26267, "oplasty": 31405, "opo": 22366, "opp": 24925, "optic": 25638, "optimum": 19281, "option": 23221, "optional": 20410, "or": 263, "ora": 6236, "order": 11465, "ordinate": 21617, "ordination": 27464, "ore": 9225, "org": 3761, "organ": 11185, "organized": 28701, "ori": 6419, "orial": 19348, "orie": 22818, "oriented": 12428, "ories": 15299, "origin": 27672, "original": 27858, "orn": 12913, "oro": 12903, "ory": 7484, "os": 2045, "osa": 9706, "osaurus": 27953, "ose": 5530, "osh": 15853, "oshi": 17701, "osi": 19336, "osis": 9625, "oso": 12728, "oste": 26764, "oster": 15273, "ot": 4007, "otPorn": 2427, "ota": 13236, "ote": 12531, "otel": 19362, "oth": 9490, "other": 8819, "oti": 17363, "otic": 21417, "otropic": 30672, "otto": 15859, "ou": 3856, "ouch": 15507, "ough": 11516, "ought": 14315, "oun": 13090, "ounce": 9664, "our": 3545, "ous": 1881, "ously": 15078, "out": 1253, "outs": 15088, "ov": 3872, "ova": 7942, "over": 2963, "ovi": 23398, "ovic": 29379, "ovich": 21179, "ovo": 20534, "ovsk": 27695, "ovskaya": 28996, "ovsky": 20099, "ow": 4179, "owitz": 26892, "own": 10216, "owned": 16190, "owner": 19529, "owski": 23498, "ox": 7656, "oxidant": 31113, "oxide": 22070, "oxy": 10718, "oy": 8867, "oya": 21159, "oz": 5870, "p": 559, "pa": 2587, "pac": 14152, "pack": 8688, "pad": 8620, "page": 8502, "paid": 17469, "pain": 19523, "painted": 28854, "pair": 19236, "pal": 11049, "pan": 7509, "panel": 19399, "papal": 30021, "paper": 20114, "par": 6157, "para": 12429, "parent": 15884, "park": 8546, "part": 5192, "partisan": 26089, "party": 4842, "pas": 16869, "pass": 11884, "passion": 26146, "password": 31716, "pat": 10594, "path": 10044, "pati": 18610, "patient": 27236, "patriot": 27250, "pay": 12823, "payment": 23510, "pc": 11816, "pcs": 4956, "pdf": 14935, "pe": 1760, "peace": 17736, "pearl": 30956, "pect": 10091, "pectrophotometer": 28195, "ped": 3344, "pel": 13033, "pen": 7660, "pens": 14008, "people": 12469, "peptide": 31250, "per": 1884, "percent": 24893, "perfect": 21155, "performance": 11307, "perhaps": 25821, "period": 30967, "pers": 10372, "person": 10513, "personal": 13351, "pet": 11476, "petit": 24447, "pg": 23135, "ph": 4208, "pha": 8192, "phar": 27986, "phase": 18606, "phe": 10838, "phen": 17253, "phenyl": 29089, "pher": 16943, "phi": 9669, "phil": 12357, "pho": 12709, "phobia": 25895, "phobic": 26955, "phon": 11921, "phone": 6740, "phosphate": 23693, "photo": 14961, "php": 17658, "phrase": 26621, "phthal": 24513, "phy": 11195, "physi": 25079, "physical": 25350, "physics": 28169, "pi": 2788, "pic": 8336, "pick": 25523, "picture": 29515, "pid": 15453, "pie": 14740, "piece": 8173, "pil": 16114, "pilot": 28867, "pin": 5418, "pine": 16023, "ping": 2904, "pinning": 29535, "pipe": 25496, "pira": 23410, "pit": 13594, "pixel": 18573, "pl": 6684, "pla": 19350, "place": 5988, "plain": 21568, "plan": 12936, "plane": 16725, "plant": 18329, "plastic": 18276, "plate": 19212, "plated": 26632, "platform": 23981, "platz": 23438, "play": 6063, "player": 18933, "ple": 4901, "please": 15823, "plex": 16771, "pli": 11877, "plicat": 24556, "plication": 16603, "plug": 20486, "plus": 12569, "ply": 14309, "pm": 5539, "png": 24305, "po": 2453, "pocalypse": 28046, "pocket": 31832, "pod": 20706, "point": 4786, "pol": 11781, "polar": 29520, "pole": 19152, "poli": 12262, "polis": 12550, "political": 28473, "polo": 24772, "poly": 18778, "polymer": 27221, "pon": 8931, "pong": 27686, "pool": 12992, "pop": 13768, "population": 30800, "porn": 8795, "pornia": 9798, "port": 2654, "pos": 8397, "pose": 18412, "posed": 13748, "position": 9110, "positive": 26469, "post": 8916, "postolic": 27547, "pot": 10183, "potent": 23110, "pound": 19220, "pour": 27964, "powder": 30008, "power": 7713, "powered": 16515, "powerful": 26328, "pp": 8390, "pped": 9185, "pper": 10004, "ppi": 22609, "pping": 10974, "ppl": 22074, "pplicable": 18593, "ppm": 21261, "ppo": 18232, "ppreciating": 30817, "ppy": 18003, "pr": 9645, "pra": 16600, "pray": 23773, "pre": 5262, "precision": 27662, "pregna": 31275, "prehensi": 27783, "premise": 19653, "present": 13204, "press": 5538, "pressure": 18845, "previous": 31997, "pri": 6998, "price": 17879, "print": 9048, "privacy": 29344, "private": 29160, "pro": 4183, "probably": 31258, "process": 19520, "processing": 24922, "produce": 29663, "produced": 24901, "producing": 30640, "product": 11796, "production": 17740, "professional": 31253, "profile": 27664, "profit": 13390, "program": 20067, "project": 23370, "promise": 27067, "pron": 22121, "proof": 5275, "prop": 15213, "propelled": 30163, "protect": 23473, "protected": 22092, "protein": 30500, "prove": 19894, "ps": 4115, "pseudo": 29340, "psy": 15562, "psychiatric": 26346, "pt": 5006, "pu": 9093, "pub": 17129, "public": 18466, "published": 26138, "pul": 11831, "pun": 22337, "pur": 9851, "purchase": 31421, "purpose": 19226, "pus": 13199, "push": 28637, "put": 6922, "py": 6217, "q": 3395, "qi": 17859, "qiao": 28476, "qq": 30167, "qu": 7920, "qua": 7195, "qual": 22691, "qualified": 19312, "quality": 5356, "quan": 25534, "quarter": 23485, "que": 2452, "quel": 25318, "quest": 17353, "question": 26480, "quette": 28819, "qui": 3672, "quiet": 28858, "quin": 12726, "quisition": 26017, "quit": 18226, "quo": 14303, "quote": 28321, "r": 235, "ra": 1183, "rac": 8319, "race": 10549, "racial": 30813, "rack": 20743, "rad": 11157, "rade": 12359, "radi": 14269, "radio": 29136, "raf": 22480, "rag": 11971, "rage": 18222, "rah": 7798, "rai": 11509, "rail": 11744, "rain": 12551, "raise": 20757, "raising": 29996, "raj": 27193, "rak": 16032, "ral": 8908, "ram": 7147, "ran": 3112, "rance": 16598, "rang": 8801, "range": 9834, "rank": 14182, "rap": 14502, "ras": 9479, "rat": 10181, "rate": 4326, "rated": 5266, "rating": 10845, "ration": 7023, "rator": 13229, "rau": 25370, "rav": 17897, "raw": 20318, "ray": 3544, "raz": 19049, "rb": 15044, "rc": 9961, "rch": 11223, "rchaeological": 18813, "rchitectural": 25847, "rd": 2554, "re": 98, "reach": 10538, "read": 6391, "ready": 19815, "real": 8175, "reason": 27353, "rec": 16670, "receive": 30656, "recognized": 29011, "red": 2665, "ree": 14714, "ref": 18887, "reference": 27644, "refundable": 15501, "reg": 7924, "region": 25226, "regular": 27847, "rel": 10568, "related": 5274, "release": 21713, "reliance": 24515, "religious": 30340, "remove": 30486, "ren": 5911, "rence": 22473, "renowned": 31268, "rent": 12180, "required": 30182, "requisite": 27541, "reservation": 21040, "resident": 25819, "resist": 29500, "resistance": 31269, "resistant": 12862, "resolution": 24431, "respect": 24754, "respective": 28335, "respond": 28841, "responsibilities": 8936, "responsive": 31705, "rest": 10675, "return": 27240, "review": 23137, "revolutionary": 30954, "rf": 20835, "rgan": 27225, "rge": 11386, "ri": 1158, "ria": 4359, "rian": 7433, "rib": 12900, "ric": 6927, "rica": 15961, "rice": 22229, "rich": 8388, "rick": 8134, "rid": 8365, "ride": 15086, "rider": 27671, "ridge": 9908, "ridien": 31547, "rie": 8969, "rier": 20091, "ries": 4059, "rig": 13396, "rigg": 23383, "right": 5208, "righteous": 31247, "righteousness": 30645, "rik": 18863, "rika": 25939, "ril": 14382, "rilla": 17117, "rim": 9974, "rin": 5123, "rina": 12361, "rine": 13439, "ring": 2622, "rington": 24308, "rino": 22594, "rio": 7721, "rip": 20106, "ris": 7583, "rise": 14324, "rish": 24577, "rising": 20312, "risk": 15958, "rist": 11840, "rite": 11554, "rito": 24735, "rium": 13053, "riya": 29334, "rk": 7008, "rl": 15090, "rm": 13704, "rma": 19697, "rmament": 25809, "rmored": 30332, "rn": 7539, "rna": 18805, "ro": 941, "road": 13543, "robe": 16699, "rock": 12106, "rocket": 23868, "rod": 11951, "roid": 12133, "rol": 11833, "roll": 6769, "rom": 15059, "ron": 2651, "rone": 23705, "rong": 18026, "room": 2795, "root": 16220, "rop": 9056, "ropylene": 31381, "ros": 6061, "rose": 18694, "ross": 16249, "rot": 12678, "rou": 16185, "rough": 21453, "round": 12815, "rous": 11000, "route": 26614, "rov": 10440, "row": 5070, "roy": 13482, "rp": 17610, "rpm": 15940, "rr": 9322, "rrell": 25643, "rri": 13214, "rry": 9916, "rs": 1205, "rse": 12918, "rt": 10187, "rthwestern": 29000, "rticulated": 30789, "rtificial": 12938, "ru": 3130, "rug": 13259, "rule": 19950, "rum": 6151, "run": 6497, "running": 29679, "rup": 12560, "rus": 8906, "rush": 22995, "russian": 31082, "rust": 20405, "ry": 1046, "ryl": 21193, "r\u00e9": 13314, "s": 6, "sa": 2857, "sacrificing": 22251, "safe": 14595, "saggy": 13537, "sai": 16033, "sail": 27228, "sale": 12230, "sales": 15286, "sample": 26919, "san": 4497, "sar": 10472, "satellite": 29342, "save": 19893, "saving": 13151, "saw": 17193, "say": 10366, "sburg": 11969, "sc": 8229, "scale": 5965, "scan": 17055, "scape": 14188, "sch": 6969, "schedule": 29504, "school": 11024, "science": 15970, "scientific": 30339, "scope": 17059, "scopic": 22137, "screen": 3887, "scribe": 10047, "scribing": 25291, "script": 11389, "se": 1860, "sea": 12237, "search": 11343, "season": 16977, "seat": 18800, "sec": 12140, "second": 12034, "secret": 27661, "section": 15194, "secure": 17254, "security": 15572, "see": 4543, "seed": 20107, "seeking": 25505, "sei": 20414, "sel": 7896, "select": 21507, "self": 10521, "sell": 19428, "selling": 16945, "sen": 3581, "sensitive": 19567, "sensor": 27089, "seo": 13901, "seong": 28656, "series": 18396, "serv": 13918, "servant": 20994, "serve": 22402, "served": 20751, "server": 19248, "service": 8429, "serving": 21191, "session": 20609, "set": 4459, "sets": 20233, "setting": 17781, "seven": 17761, "sex": 8300, "sexual": 17382, "sey": 12480, "sh": 2591, "sha": 5458, "shade": 29316, "shadow": 20606, "shaft": 25195, "shan": 8093, "shape": 28191, "shaped": 13079, "share": 15216, "sharing": 22850, "shaw": 23354, "she": 5543, "shed": 18235, "sheet": 16647, "shell": 17048, "shemale": 26140, "shi": 4787, "shield": 27213, "shift": 21966, "shiki": 26278, "shima": 9547, "shin": 12337, "shine": 25692, "shing": 12252, "shino": 28316, "ship": 2784, "shire": 13967, "shirt": 10956, "sho": 14679, "shock": 30812, "shoot": 15233, "shop": 14027, "shore": 17518, "short": 16288, "shot": 9458, "should": 22079, "show": 11947, "shu": 12490, "si": 3138, "sia": 9531, "side": 2372, "sided": 18240, "sie": 10978, "sign": 7717, "sil": 12084, "sim": 12028, "similar": 29012, "since": 23965, "single": 23638, "sion": 6941, "sis": 4884, "sisting": 31073, "site": 4733, "sitting": 31102, "situ": 28319, "six": 19111, "size": 5063, "sized": 9593, "sk": 5487, "ska": 8207, "skaya": 11886, "ski": 6837, "skilled": 29860, "skin": 16731, "skirt": 25810, "skiy": 18629, "sky": 6694, "slave": 20004, "sleep": 29108, "sleeve": 29865, "small": 20302, "smith": 17301, "smoker": 10019, "smoking": 6950, "so": 2289, "social": 18578, "soever": 20833, "soft": 11632, "software": 30805, "sol": 6816, "sole": 19772, "solicited": 31568, "solid": 20087, "soluble": 25980, "solution": 26883, "solving": 23331, "some": 5024, "something": 18275, "sometimes": 29162, "son": 1370, "sort": 16799, "soul": 21292, "sound": 19766, "source": 10905, "south": 30195, "sp": 6503, "space": 9800, "span": 12183, "speaking": 14444, "spec": 19780, "special": 19202, "specific": 11813, "speed": 5961, "sphere": 20330, "spheric": 31983, "spirit": 25656, "spiritual": 29857, "spoke": 18971, "sponsored": 31091, "spoon": 23748, "sports": 18090, "spot": 18671, "spread": 29516, "spring": 21487, "sqm": 15942, "square": 22845, "ssa": 14148, "sson": 14809, "ssorted": 30305, "st": 721, "sta": 6435, "stablish": 24164, "stadt": 22026, "stage": 12587, "stan": 10080, "stand": 13898, "standard": 16125, "standing": 13587, "star": 459, "stat": 11927, "state": 7777, "static": 12565, "station": 16520, "stay": 12690, "stead": 11477, "steel": 24289, "stein": 11478, "step": 9648, "ster": 2748, "sters": 16328, "sti": 11178, "stic": 8130, "stick": 11835, "still": 17780, "stitut": 9983, "stock": 11491, "stom": 27492, "ston": 9142, "stone": 5078, "stop": 9433, "store": 8598, "storey": 22236, "storm": 15337, "story": 5893, "str": 6903, "stra": 7963, "strasse": 20039, "strate": 19352, "stream": 11494, "street": 24427, "strength": 25494, "stress": 22584, "stricken": 27420, "strict": 16819, "strike": 30661, "string": 18706, "stroke": 23994, "strom": 25012, "strong": 11446, "stronomical": 31984, "structive": 29657, "structure": 21831, "structuring": 27583, "study": 31098, "stuff": 24923, "style": 3800, "styrene": 31114, "su": 4706, "sub": 10354, "subject": 28170, "success": 29676, "such": 7259, "suffering": 21259, "sufficiency": 30520, "sufficient": 26639, "suit": 16818, "suite": 13508, "suke": 28325, "sum": 11121, "sumption": 21172, "sun": 11650, "super": 16158, "support": 19161, "supported": 25520, "sur": 6695, "sure": 12874, "surface": 29164, "sustaining": 30516, "sweet": 28674, "symmetric": 29002, "sympat": 31701, "sync": 24391, "synchronous": 21662, "synthesis": 29507, "sys": 20735, "system": 14151, "t": 35, "ta": 1436, "tab": 20974, "table": 6169, "tag": 12306, "tai": 8923, "tail": 10701, "tain": 5383, "take": 8238, "taking": 18113, "tal": 5178, "tale": 19789, "talk": 14967, "tama": 20991, "tan": 4837, "tang": 18418, "tani": 19988, "tank": 28019, "tape": 23089, "tar": 8707, "target": 30972, "tas": 13527, "taste": 28189, "tation": 10539, "tax": 9295, "tch": 6513, "te": 969, "tea": 5423, "teacher": 28172, "team": 20701, "tec": 10274, "tech": 4522, "technical": 27202, "technology": 26298, "ted": 2009, "teen": 9833, "tek": 16111, "tel": 3795, "tell": 15795, "temp": 15645, "temperature": 22840, "tempered": 23090, "ten": 2312, "tention": 15269, "ter": 1510, "terdisciplinary": 27054, "terior": 26463, "term": 3540, "tern": 12300, "tero": 19346, "terra": 22688, "ters": 10364, "tes": 6812, "test": 5786, "tex": 12318, "text": 12057, "th": 219, "tha": 11059, "than": 12003, "thank": 22100, "that": 4262, "the": 406, "their": 18310, "them": 12533, "then": 12654, "ther": 7124, "therapist": 31427, "therapy": 13346, "there": 8739, "thermal": 26752, "these": 21413, "they": 8704, "thin": 21079, "think": 19977, "thinking": 22616, "third": 17002, "thirds": 19294, "this": 6078, "those": 19156, "though": 26448, "thought": 27277, "thousand": 31254, "threatening": 28008, "three": 13444, "through": 11960, "thumb": 31697, "thus": 23338, "thy": 11390, "ti": 2900, "tia": 10649, "tian": 11820, "tic": 2120, "tica": 20296, "tical": 12528, "ticket": 22457, "tie": 13962, "tier": 12676, "ties": 6403, "tight": 22295, "til": 10332, "tile": 9996, "tim": 9038, "time": 1030, "tin": 4315, "tina": 11129, "ting": 1394, "tino": 18421, "tion": 3085, "tip": 15482, "tis": 8137, "title": 17826, "titude": 15578, "tive": 12695, "tle": 3861, "to": 382, "together": 24590, "tolerance": 27365, "tolerant": 24394, "tomi": 24517, "ton": 979, "tone": 12104, "tong": 19810, "too": 19199, "took": 25398, "tool": 17350, "tooth": 27523, "top": 4501, "tor": 3074, "tori": 18881, "toria": 19112, "tory": 9682, "total": 23392, "touch": 18872, "tour": 14991, "town": 5934, "toxic": 14751, "tr": 8779, "tra": 2804, "track": 13688, "trade": 17302, "traditional": 31996, "train": 10783, "trained": 19871, "tral": 16144, "tran": 20867, "trans": 11019, "transfer": 30344, "trap": 17376, "traumatic": 22472, "travel": 20184, "treat": 21465, "treatment": 21521, "tree": 10466, "tress": 23971, "tri": 4013, "tributable": 29380, "tric": 11612, "trip": 12796, "tro": 3058, "tron": 13201, "tronic": 18532, "tropin": 25229, "tru": 8641, "truck": 27863, "truction": 31245, "trude": 22193, "true": 18754, "trust": 12995, "truth": 26148, "try": 8479, "tsu": 6398, "tta": 8335, "tte": 7313, "ttenberg": 31688, "tter": 8558, "tti": 8999, "tting": 11193, "tty": 16001, "tu": 4219, "tube": 8933, "tum": 13194, "tun": 14364, "tune": 22593, "tungst": 30496, "tur": 6892, "ture": 5597, "turn": 11425, "tus": 9055, "tweet": 31433, "twitter": 30958, "two": 9909, "txt": 24100, "ty": 1459, "type": 5932, "typical": 22211, "tz": 5256, "u": 738, "ua": 9557, "ual": 3988, "uan": 13198, "ub": 5206, "uba": 16294, "uber": 16663, "ubi": 20311, "ubmersible": 29242, "ubuntu": 23169, "uc": 6535, "ucci": 15574, "uce": 13764, "uch": 8434, "uchi": 21302, "uck": 5214, "uct": 17169, "uction": 23877, "ud": 4648, "uda": 10434, "udd": 17757, "ude": 8905, "udge": 12744, "udi": 15432, "ue": 5114, "uel": 11953, "uer": 13586, "uf": 13624, "uff": 4943, "uffle": 16659, "ug": 5372, "uga": 16454, "uge": 14129, "ugg": 18367, "ugged": 21762, "ugh": 19579, "uh": 15827, "ui": 6846, "uit": 16105, "uji": 18137, "uk": 3365, "uka": 12833, "uki": 14033, "uku": 15751, "ul": 1209, "ula": 8323, "ular": 7087, "ulate": 9965, "ulated": 13246, "ulating": 13917, "ulation": 6639, "ulator": 11229, "ule": 8129, "uli": 19376, "ulo": 16404, "ult": 8426, "ulu": 19452, "ulus": 19060, "um": 1291, "uma": 8895, "umber": 20659, "umberland": 30459, "umbling": 21957, "ume": 9246, "umerous": 23821, "umi": 12132, "ummer": 21645, "ummy": 17745, "ump": 8676, "un": 1344, "una": 8593, "und": 5439, "under": 7900, "understand": 23765, "une": 11036, "ung": 2396, "uni": 10710, "unit": 16873, "unk": 8496, "unny": 20289, "until": 24423, "uo": 16289, "uous": 13196, "up": 745, "uperintendent": 31851, "upon": 15139, "ups": 7981, "ur": 1598, "ura": 3826, "urable": 24443, "ural": 10436, "uration": 18496, "urban": 21512, "ure": 3937, "ured": 14665, "ures": 17675, "urgeon": 28981, "urgical": 30671, "uri": 5139, "uring": 5083, "uristic": 23491, "url": 10844, "uro": 8206, "uru": 14319, "ury": 14687, "us": 687, "usa": 13627, "use": 3690, "used": 14545, "user": 9154, "ushi": 19151, "using": 12750, "uspicious": 31286, "usually": 23703, "ut": 3655, "uta": 17681, "ute": 7508, "uter": 21227, "uth": 17951, "uti": 21708, "util": 23833, "uting": 20164, "ution": 16353, "uto": 22966, "utonomous": 26721, "utter": 11380, "utz": 28329, "uu": 24238, "uv": 14009, "ux": 5545, "uxiliary": 31406, "uz": 9331, "uzzle": 30318, "v": 631, "va": 2618, "vac": 20543, "val": 5181, "vale": 23272, "valent": 21566, "valuation": 21999, "value": 10739, "van": 7336, "vana": 27197, "vani": 29339, "vantage": 27602, "var": 6707, "vari": 14610, "vas": 15072, "vascular": 25400, "ve": 198, "ved": 8725, "vel": 8026, "ven": 7627, "vending": 19868, "venpick": 30780, "vent": 7240, "ver": 3038, "verb": 22441, "vers": 7538, "verse": 7991, "version": 12000, "versus": 14082, "vert": 6662, "vertebra": 28745, "very": 11860, "vey": 21082, "vi": 4005, "via": 7849, "vian": 15384, "vic": 13679, "vice": 19556, "vid": 7935, "video": 17065, "vie": 11321, "view": 5692, "vig": 21982, "vik": 21629, "vil": 16191, "villa": 24694, "ville": 3526, "vin": 4777, "vine": 15670, "ving": 6767, "vio": 14945, "violence": 29498, "vir": 13669, "virtual": 31420, "virus": 14053, "vis": 5742, "visible": 30130, "vision": 11156, "visit": 27348, "vista": 29022, "vit": 12327, "vita": 17665, "vite": 26315, "viv": 22321, "vo": 3577, "vocational": 29146, "voice": 22565, "vol": 17024, "volt": 25990, "voltage": 25500, "volume": 27844, "vor": 10737, "vu": 21809, "vy": 6177, "v\u00e1ros": 31852, "w": 694, "wa": 3485, "wai": 17180, "wait": 23884, "wal": 22851, "wald": 27630, "walk": 9970, "wall": 8921, "wan": 6072, "wang": 11292, "war": 6116, "wara": 25817, "ward": 3964, "ware": 3961, "was": 10260, "wash": 13793, "watch": 9717, "water": 4720, "watt": 18175, "wave": 17033, "way": 2134, "ways": 9576, "we": 2013, "wear": 8171, "weather": 25345, "web": 13441, "wed": 13308, "week": 9061, "wei": 19322, "weight": 14291, "wel": 15631, "welcome": 31719, "well": 4386, "wen": 16900, "went": 22877, "wer": 8067, "were": 22128, "west": 19906, "western": 21125, "wha": 24737, "what": 7347, "wheel": 13693, "when": 11276, "where": 12497, "whether": 23602, "which": 6592, "while": 20718, "white": 12264, "who": 7741, "why": 20406, "wi": 4793, "wich": 21365, "wick": 10979, "wide": 8520, "width": 24127, "wife": 18473, "wiki": 29529, "wikipedia": 27548, "wild": 26473, "will": 7111, "win": 5910, "wind": 12673, "window": 26760, "wine": 28349, "wing": 7666, "winning": 16058, "wir": 28497, "wire": 10872, "wise": 9990, "witch": 18462, "with": 3498, "without": 16422, "wl": 14254, "wo": 12908, "wolf": 25676, "woman": 13812, "women": 27638, "won": 7731, "woo": 13038, "wood": 3039, "word": 9945, "work": 4141, "workers": 19431, "working": 9328, "works": 16801, "world": 7389, "worm": 23103, "worship": 31710, "worth": 9252, "worthy": 16085, "would": 25346, "woven": 20607, "wp": 22613, "wrap": 29687, "write": 13742, "writer": 14106, "writing": 15765, "written": 13494, "wu": 25139, "www": 6353, "x": 330, "xi": 6750, "xia": 14099, "xial": 25204, "xiang": 25601, "xin": 16181, "xml": 24623, "xo": 15766, "xx": 14375, "xxx": 18586, "y": 160, "ySex": 4971, "ya": 2100, "yah": 20748, "yama": 8342, "yan": 6881, "yang": 7970, "yard": 13806, "ye": 5831, "year": 1248, "years": 15814, "yellow": 27216, "yen": 10985, "yeon": 17255, "yeong": 10143, "yer": 14251, "yes": 13119, "yet": 23702, "yi": 11188, "ying": 10724, "yl": 4346, "yle": 18687, "ymmetrical": 28152, "yn": 6697, "yna": 20592, "yne": 13760, "ynecomastia": 22631, "yo": 3929, "yon": 13056, "yong": 21403, "york": 30487, "yoshi": 23400, "you": 3871, "young": 11863, "your": 9861, "yp": 16751, "yr": 11171, "yu": 4721, "yuan": 13029, "yun": 19646, "z": 896, "za": 2699, "zai": 26005, "zaka": 27502, "zaki": 19227, "zan": 11511, "zar": 16774, "zawa": 18915, "ze": 2980, "zed": 21087, "zel": 11867, "zen": 8835, "zer": 6699, "zero": 19957, "zh": 12776, "zhen": 22969, "zhi": 24539, "zhong": 30782, "zhou": 10231, "zi": 5857, "zia": 20632, "zie": 21066, "zilla": 20915, "zin": 20530, "zing": 10853, "zio": 17962, "zip": 21918, "zl": 25208, "zo": 5741, "zon": 15770, "zone": 14906, "zu": 6193, "zuka": 29835, "zuki": 27670, "zumi": 27690, "zy": 8498, "zz": 6245, "zza": 15016, "zzar": 29173, "zzi": 15289, "zzy": 20769, "{": 8220, "{{": 24461, "}": 2426, "}}": 5230, "~": 1912, "~+": 23752, "~1": 16666, "\u00a2": 10661, "\u00a3": 20290, "\u00a5": 14209, "\u00a9": 7662, "\u00ab": 31093, "\u00ae": 1214, "\u00b0": 3393, "\u00b1": 10769, "\u00b110%": 29291, "\u00b7": 6240, "\u00bb": 7398, "\u00c2": 1029, "\u00c3": 4595, "\u00d7": 4729, "\u00d71": 16785, "\u00d72": 22762, "\u00e1": 5290, "\u00e1n": 12740, "\u00e2": 2254, "\u00e9": 2197, "\u00e9e": 18627, "\u00e9r": 19413, "\u00ed": 8021, "\u00eda": 18037, "\u00edn": 19146, "\u00f3": 9090, "\u00f3n": 11582, "\u00f6": 6377, "\u00f6r": 19402, "\u00fc": 7123, "\u00fcn": 24723, "\u2013": 1273, "\u201318": 27192, "\u201319": 13004, "\u20132": 20197, "\u2014": 468, "\u2018": 8630, "\u2019": 27, "\u201c": 5502, "\u201d": 152, "\u201d)": 8307, "\u201d.": 1811, "\u201d?": 4969, "\u2022": 20401, "\u2032": 21309, "\u2032\u2032": 14170, "\u203a": 25347, "\u20ac": 2610, "\u20ac\u00a2": 15468, "\u20ac\u201c": 3849, "\u20ac\u201d": 6018, "\u2192": 15971, "\u2264": 22841, "\u2581": 15, "\u2581!!": 20026, "\u2581\"": 50, "\u2581\"%1\"": 31440, "\u2581#": 894, "\u2581#1": 4712, "\u2581#2": 9720, "\u2581#3": 14029, "\u2581#4": 16717, "\u2581#5": 19317, "\u2581#6": 23889, "\u2581#9": 25674, "\u2581$": 1333, "\u2581$0": 15896, "\u2581$1": 3597, "\u2581$1,000": 25174, "\u2581$10": 9784, "\u2581$10,000": 27531, "\u2581$100": 11194, "\u2581$100,000": 29871, "\u2581$11": 26500, "\u2581$12": 22043, "\u2581$14": 26587, "\u2581$15": 18521, "\u2581$18": 28299, "\u2581$19": 28027, "\u2581$2": 4846, "\u2581$20": 14949, "\u2581$200": 20863, "\u2581$25": 18306, "\u2581$3": 5517, "\u2581$30": 20317, "\u2581$300": 27084, "\u2581$4": 9612, "\u2581$40": 23598, "\u2581$5": 8505, "\u2581$50": 15950, "\u2581$500": 21744, "\u2581$6": 14558, "\u2581$60": 27331, "\u2581$7": 14329, "\u2581$8": 15953, "\u2581$9": 18611, "\u2581%": 2420, "\u2581%(": 23112, "\u2581%1": 6526, "\u2581%1$": 18126, "\u2581%2": 15051, "\u2581&": 202, "\u2581'": 273, "\u2581'%1": 27673, "\u2581(": 29, "\u2581(\"": 7101, "\u2581($": 14768, "\u2581(+": 16753, "\u2581(0": 13261, "\u2581(0)": 14887, "\u2581(1": 933, "\u2581(1)": 2825, "\u2581(10": 5000, "\u2581(10)": 14016, "\u2581(100": 17954, "\u2581(107": 25478, "\u2581(109": 25475, "\u2581(11": 8991, "\u2581(11)": 16405, "\u2581(110": 24637, "\u2581(113": 25635, "\u2581(12": 7831, "\u2581(12)": 16567, "\u2581(13": 10736, "\u2581(13)": 19426, "\u2581(14": 9994, "\u2581(14)": 19250, "\u2581(15": 7650, "\u2581(15)": 18923, "\u2581(16": 8553, "\u2581(16)": 21029, "\u2581(17": 9555, "\u2581(17)": 23009, "\u2581(18": 5774, "\u2581(18)": 22223, "\u2581(18+)": 884, "\u2581(18+)275": 30139, "\u2581(19": 1595, "\u2581(1998)": 31218, "\u2581(1999)": 30457, "\u2581(2": 1621, "\u2581(2)": 3578, "\u2581(20": 8978, "\u2581(20)": 21515, "\u2581(2000)": 31216, "\u2581(2002)": 31200, "\u2581(2003)": 27131, "\u2581(2004)": 29082, "\u2581(2005)": 27750, "\u2581(2006)": 27283, "\u2581(2007)": 25123, "\u2581(2008)": 25742, "\u2581(2009)": 25433, "\u2581(2010)": 25275, "\u2581(2011)": 24068, "\u2581(2012)": 24835, "\u2581(2013)": 21791, "\u2581(2014)": 24066, "\u2581(2015)": 24217, "\u2581(2016)": 23443, "\u2581(2017)": 27934, "\u2581(2018)": 26223, "\u2581(2019)": 30920, "\u2581(21": 16587, "\u2581(21)": 23846, "\u2581(22": 17499, "\u2581(22)": 23226, "\u2581(23": 18384, "\u2581(23)": 23721, "\u2581(24": 15188, "\u2581(24)": 24744, "\u2581(25": 13875, "\u2581(27": 16502, "\u2581(28": 20834, "\u2581(28)": 24639, "\u2581(3": 3156, "\u2581(3)": 5435, "\u2581(30": 11832, "\u2581(32": 14509, "\u2581(35": 17296, "\u2581(4": 3716, "\u2581(4)": 6509, "\u2581(40": 16847, "\u2581(5": 3839, "\u2581(5)": 9006, "\u2581(50": 17520, "\u2581(6": 5261, "\u2581(6)": 9952, "\u2581(60": 19695, "\u2581(7": 6579, "\u2581(7)": 11501, "\u2581(8": 6993, "\u2581(8)": 11130, "\u2581(9": 9835, "\u2581(9)": 13110, "\u2581(90": 21571, "\u2581(\u201c": 9665, "\u2581)": 283, "\u2581*": 892, "\u2581**": 8452, "\u2581***": 9910, "\u2581****": 9270, "\u2581*****": 15164, "\u2581+": 888, "\u2581+/-": 26877, "\u2581+1": 11748, "\u2581+81-": 28423, "\u2581+82": 21616, "\u2581+82-": 21755, "\u2581+82-2-": 21356, "\u2581+86": 12382, "\u2581,": 32, "\u2581-": 51, "\u2581--": 509, "\u2581----": 24912, "\u2581-20\u00b0": 27125, "\u2581->": 15869, "\u2581...": 325, "\u2581...\"": 16113, "\u2581/": 178, "\u2581//": 12258, "\u25810": 769, "\u25810%": 14847, "\u25810.00": 14562, "\u25810.01": 15933, "\u25810.02": 23961, "\u25810.03": 27388, "\u25810.05": 19984, "\u25810.1": 4964, "\u25810.15": 27245, "\u25810.2": 5528, "\u25810.25": 23256, "\u25810.3": 5556, "\u25810.4": 7729, "\u25810.5": 4640, "\u25810.5%": 29125, "\u25810.6": 7359, "\u25810.7": 8380, "\u25810.8": 8439, "\u25810.9": 8621, "\u258100": 2846, "\u2581000": 7236, "\u25810086": 26857, "\u258101": 1355, "\u258101:01": 30482, "\u258101:02": 30481, "\u258101:04": 29636, "\u258101:06": 29795, "\u258101:09": 30148, "\u258102": 1435, "\u258102:00": 16929, "\u258102:5": 21265, "\u258103": 1506, "\u258103:00": 14180, "\u258104": 1752, "\u258104:25": 25155, "\u258104:26": 19955, "\u258104:5": 19406, "\u258104:55": 27462, "\u258104:56": 22938, "\u258105": 1940, "\u258105:00": 3191, "\u258105:01": 14835, "\u258105:02": 20160, "\u258105:03": 23329, "\u258105:04": 24993, "\u258105:05": 22928, "\u258105:08": 22280, "\u258105:09": 22796, "\u258105:10": 18835, "\u258105:12": 29304, "\u258105:13": 28120, "\u258105:14": 27169, "\u258105:17": 23573, "\u258105:19": 29827, "\u258105:2": 23022, "\u258105:28": 28630, "\u258105:3": 17058, "\u258105:30": 15014, "\u258105:40": 27456, "\u258105:41": 28281, "\u258105:52": 28798, "\u258105:54": 29980, "\u258105:56": 29122, "\u258105:57": 27452, "\u258105:58": 24996, "\u258106": 1756, "\u258106:0": 17877, "\u258106:00": 5856, "\u258106:01": 20383, "\u258106:02": 27021, "\u258106:04": 24715, "\u258106:08": 30154, "\u258106:09": 24239, "\u258106:11": 26869, "\u258106:12": 24090, "\u258106:15": 8298, "\u258106:20": 29985, "\u258106:22": 29825, "\u258106:30": 19755, "\u258106:4": 18216, "\u258106:5": 16499, "\u258106:50": 29480, "\u258106:56": 30307, "\u258106:57": 27008, "\u258106:59": 25153, "\u258107": 1678, "\u258107:00": 4444, "\u258107:01": 13511, "\u258107:02": 25763, "\u258107:05": 30636, "\u258107:3": 18871, "\u258107:30": 9349, "\u258107:49": 30480, "\u258107:5": 13152, "\u258107:50": 24547, "\u258107:53": 28465, "\u258107:59": 14361, "\u258108": 1686, "\u258108:0": 14094, "\u258108:00": 2038, "\u258108:02": 19565, "\u258108:20": 29647, "\u258108:30": 16153, "\u258108:5": 22826, "\u258109": 2432, "\u258109:0": 22049, "\u258109:00": 11859, "\u258109:2": 30488, "\u258109:30": 28972, "\u258109:58": 29469, "\u25810~": 25818, "\u25811": 71, "\u25811%": 13629, "\u25811)": 4619, "\u25811,000": 5252, "\u25811,200": 20123, "\u25811,500": 15634, "\u25811-": 10244, "\u25811-2": 16874, "\u25811-3": 19203, "\u25811-800-": 31375, "\u25811.": 1456, "\u25811.0": 6686, "\u25811.00": 25388, "\u25811.1": 7297, "\u25811.2": 5805, "\u25811.25": 19129, "\u25811.3": 8371, "\u25811.4": 8706, "\u25811.5": 3928, "\u25811.6": 6289, "\u25811.7": 8865, "\u25811.8": 7226, "\u25811.9": 11345, "\u25811/2": 9100, "\u25811/2\"": 26129, "\u25811/3": 19247, "\u25811/4": 13417, "\u25811/8": 23759, "\u258110": 165, "\u258110%": 4937, "\u258110)": 18876, "\u258110,000": 6339, "\u258110-": 2913, "\u258110-15": 23521, "\u258110.0": 20996, "\u258110.1": 17690, "\u258110.4": 27345, "\u258110.5": 24937, "\u2581100": 608, "\u2581100%": 1737, "\u2581100,000": 9266, "\u25811000": 2973, "\u258110000": 17182, "\u2581101": 7278, "\u2581102": 9496, "\u25811024": 24008, "\u2581103": 12969, "\u2581104": 10226, "\u2581105": 10334, "\u25811050": 15872, "\u2581106": 11972, "\u2581107": 12317, "\u2581108": 12959, "\u25811080": 9209, "\u2581109": 14147, "\u258110:00": 3373, "\u258110:05": 26296, "\u258110:07": 22329, "\u258110:10": 12736, "\u258110:11": 24714, "\u258110:12": 25059, "\u258110:13": 22871, "\u258110:14": 24635, "\u258110:15": 24471, "\u258110:16": 23141, "\u258110:17": 24632, "\u258110:22": 25689, "\u258110:24": 24158, "\u258110:30": 17294, "\u258111": 320, "\u258111,": 8671, "\u2581110": 4559, "\u25811100": 12362, "\u2581111": 14499, "\u2581112": 11325, "\u2581113": 15324, "\u2581114": 14796, "\u2581115": 9769, "\u25811150": 21296, "\u2581116": 14334, "\u2581117": 18317, "\u2581118": 13113, "\u2581119": 9899, "\u258111:00": 11837, "\u258111:1": 22815, "\u258111:13": 26903, "\u258111:14": 26151, "\u258111:15": 27210, "\u258111:18": 24440, "\u258111:2": 24641, "\u258111:28": 26131, "\u258111:3": 23232, "\u258111:30": 19674, "\u258112": 275, "\u258112%": 24019, "\u258112,": 9291, "\u258112,000": 21377, "\u258112-": 13906, "\u258112.5": 24583, "\u2581120": 2985, "\u25811200": 7324, "\u2581121": 16924, "\u2581122": 15548, "\u2581123": 12984, "\u2581124": 16665, "\u2581125": 7658, "\u25811250": 18458, "\u2581126": 13583, "\u2581127": 13304, "\u2581128": 7837, "\u2581129": 18961, "\u258112:00": 7021, "\u258112:1": 18764, "\u258112:10": 25685, "\u258112:12": 22411, "\u258112:13": 24613, "\u258112:15": 24448, "\u258112:17": 23500, "\u258112:2": 21580, "\u258112:27": 25816, "\u258112:29": 26609, "\u258112:30": 22326, "\u258112:9": 26335, "\u258113": 477, "\u258113,": 8424, "\u258113.": 9920, "\u2581130": 6423, "\u25811300": 13467, "\u2581131": 18743, "\u2581132": 17604, "\u2581133": 16942, "\u2581134": 18829, "\u2581135": 11606, "\u25811350": 24738, "\u2581136": 16925, "\u2581137": 19251, "\u2581138": 14667, "\u2581139": 14043, "\u258113:00": 21824, "\u258113:1": 15475, "\u258113:10": 27495, "\u258113:20": 26443, "\u258113:4": 21258, "\u258114": 467, "\u258114,": 8539, "\u258114.": 12731, "\u2581140": 6959, "\u25811400": 16737, "\u2581141": 22404, "\u2581142": 19570, "\u2581143": 21052, "\u2581144": 13998, "\u2581144,000": 23951, "\u2581145": 13260, "\u25811450": 26789, "\u2581146": 17471, "\u2581147": 20217, "\u2581148": 18613, "\u2581149": 18955, "\u258114:00": 17674, "\u258114:1": 17031, "\u258114:30": 25958, "\u258114:6": 25807, "\u258115": 303, "\u258115%": 10268, "\u258115,": 9303, "\u258115,000": 17866, "\u258115-": 3352, "\u258115-20": 25056, "\u2581150": 2529, "\u2581150,000": 22978, "\u25811500": 7932, "\u2581151": 21272, "\u2581152": 19590, "\u2581153": 20001, "\u2581154": 21334, "\u2581155": 14451, "\u2581156": 19872, "\u2581157": 19341, "\u2581158": 21355, "\u2581159": 23076, "\u258115:00": 18495, "\u258115:1": 22872, "\u258115:20": 27360, "\u258116": 409, "\u258116,": 8589, "\u2581160": 6424, "\u25811600": 13730, "\u2581162": 20736, "\u2581163": 21396, "\u2581164": 21160, "\u2581165": 14627, "\u2581166": 22586, "\u2581167": 21929, "\u2581168": 17432, "\u258116:00": 22701, "\u258116:1": 24704, "\u258116:13": 27198, "\u258116:9": 28126, "\u258117": 488, "\u258117,": 10712, "\u2581170": 9348, "\u25811700": 21718, "\u2581171": 23271, "\u2581172": 21731, "\u2581175": 14042, "\u2581176": 18082, "\u2581177": 21468, "\u2581178": 21760, "\u2581179": 21252, "\u258117:00": 18286, "\u258117:17": 28148, "\u258117:3": 20958, "\u258117:30": 28313, "\u258118": 294, "\u258118,": 10328, "\u2581180": 4802, "\u25811800": 11196, "\u2581182": 20391, "\u25811830": 26319, "\u2581185": 20644, "\u25811850": 23525, "\u2581186": 16957, "\u25811870": 26159, "\u25811880": 21285, "\u2581189": 20229, "\u25811890": 23991, "\u25811893": 27238, "\u25811894": 28160, "\u25811895": 26648, "\u25811896": 24281, "\u25811897": 26768, "\u25811899": 27533, "\u258118:00": 16383, "\u258119": 623, "\u258119,": 9160, "\u258119.": 14970, "\u2581190": 14134, "\u25811900": 12033, "\u25811901": 22123, "\u25811902": 25078, "\u25811903": 23974, "\u25811904": 25481, "\u25811905": 20520, "\u25811906": 21391, "\u25811907": 25506, "\u25811908": 22999, "\u25811909": 25646, "\u2581191": 23756, "\u25811910": 21275, "\u25811911": 23616, "\u25811912": 21997, "\u25811913": 22300, "\u25811914": 9553, "\u25811915": 25587, "\u25811916": 23623, "\u25811917": 16604, "\u25811918": 15182, "\u25811919": 14197, "\u2581192": 20098, "\u25811920": 8463, "\u25811921": 22748, "\u25811922": 21711, "\u25811923": 20666, "\u25811924": 23248, "\u25811925": 22859, "\u25811926": 23087, "\u25811927": 22601, "\u25811928": 20605, "\u25811929": 19045, "\u25811930": 10111, "\u25811931": 18115, "\u25811932": 21739, "\u25811933": 17584, "\u25811934": 21511, "\u25811935": 16960, "\u25811936": 18017, "\u25811937": 19913, "\u25811938": 18708, "\u25811939": 13245, "\u25811940": 10246, "\u25811941": 13945, "\u25811942": 15274, "\u25811943": 16178, "\u25811944": 15064, "\u25811945": 8782, "\u25811946": 17022, "\u25811947": 15759, "\u25811948": 15037, "\u25811949": 16042, "\u2581195": 22683, "\u25811950": 7041, "\u25811951": 17271, "\u25811952": 17492, "\u25811953": 16226, "\u25811954": 19319, "\u25811955": 15691, "\u25811956": 15873, "\u25811957": 15867, "\u25811958": 15092, "\u25811959": 17445, "\u2581196": 25541, "\u25811960": 6007, "\u25811961": 13752, "\u25811962": 15099, "\u25811963": 12787, "\u25811964": 13578, "\u25811965": 13590, "\u25811966": 13959, "\u25811967": 14003, "\u25811968": 11712, "\u25811969": 10529, "\u25811970": 5657, "\u25811971": 11283, "\u25811972": 9472, "\u25811973": 10408, "\u25811974": 11467, "\u25811975": 11561, "\u25811976": 10498, "\u25811977": 12368, "\u25811978": 11309, "\u25811979": 10194, "\u25811980": 5671, "\u25811981": 12219, "\u25811982": 10925, "\u25811983": 10467, "\u25811984": 9966, "\u25811985": 9506, "\u25811986": 9596, "\u25811987": 9838, "\u25811988": 8684, "\u25811989": 7054, "\u2581199": 24742, "\u25811990": 4617, "\u25811991": 6737, "\u25811992": 6858, "\u25811993": 7245, "\u25811994": 7026, "\u25811995": 6396, "\u25811996": 6399, "\u25811997": 6421, "\u25811998": 6356, "\u25811998,": 17185, "\u25811999": 5422, "\u258119:00": 24112, "\u258119:1": 21946, "\u25811:": 6742, "\u25811:00": 19685, "\u25811:1": 10706, "\u25811:10": 22477, "\u25811:13": 23384, "\u25811:14": 22600, "\u25811:15": 22853, "\u25811:18": 24260, "\u25811:2": 21746, "\u25811:20": 23387, "\u25811:26": 24250, "\u25811:27": 22410, "\u25811:3": 23279, "\u25811:5": 22097, "\u25811:7": 24576, "\u25811:8": 22098, "\u25811:9": 22245, "\u25812": 86, "\u25812%": 16782, "\u25812)": 4272, "\u25812*": 15314, "\u25812,000": 7489, "\u25812,500": 20636, "\u25812-": 1937, "\u25812-3": 13778, "\u25812.": 1573, "\u25812.0": 4892, "\u25812.1": 8123, "\u25812.2": 8249, "\u25812.3": 10500, "\u25812.4": 7948, "\u25812.5": 4585, "\u25812.6": 11891, "\u25812.7": 14872, "\u25812.8": 12236, "\u25812.9": 14990, "\u25812/3": 21167, "\u258120": 265, "\u258120%": 6066, "\u258120,000": 11141, "\u258120-": 7477, "\u258120-30": 28298, "\u2581200": 1477, "\u2581200,000": 20624, "\u25812000": 2675, "\u25812000,": 14919, "\u258120000": 24405, "\u25812001": 7808, "\u25812001,": 16535, "\u25812001.": 16300, "\u25812002": 5377, "\u25812002,": 16948, "\u25812003": 4206, "\u25812003,": 13039, "\u25812004": 4158, "\u25812004.": 15746, "\u25812005": 4618, "\u25812005,": 11040, "\u25812005.": 12986, "\u25812006": 4337, "\u25812006,": 11158, "\u25812006.": 13251, "\u25812007": 2504, "\u25812007-11-": 18994, "\u25812007.": 11642, "\u25812008": 3023, "\u25812008,": 9356, "\u25812008.": 9374, "\u25812009": 2856, "\u25812009,": 9583, "\u25812009.": 9821, "\u2581201": 15484, "\u25812010": 2040, "\u25812010,": 8674, "\u25812010.": 8663, "\u25812011": 2229, "\u25812011,": 9337, "\u25812011.": 8461, "\u25812012": 1928, "\u25812012,": 9527, "\u25812012.": 8475, "\u25812013": 1999, "\u25812013,": 9789, "\u25812013.": 11963, "\u25812014": 1728, "\u25812014,": 8751, "\u25812014.": 10263, "\u25812015": 1338, "\u25812015,": 8126, "\u25812015-05-0": 12554, "\u25812015.": 10519, "\u25812016": 1100, "\u25812016,": 9167, "\u25812016.": 10086, "\u25812017": 917, "\u25812017,": 9217, "\u25812017.": 10191, "\u25812018": 706, "\u25812018,": 11842, "\u25812018.": 10383, "\u25812019": 886, "\u25812019,": 13568, "\u25812019.": 12229, "\u2581202": 19077, "\u25812020": 2143, "\u25812021": 22496, "\u25812022": 24007, "\u25812025": 24024, "\u25812030": 15820, "\u25812050": 23896, "\u2581206": 21576, "\u2581208": 23196, "\u258120:00": 17857, "\u258121": 670, "\u258121,": 9620, "\u2581210": 12311, "\u2581215": 21846, "\u258121:00": 27471, "\u258121:1": 21611, "\u258121:3": 21089, "\u258121:4": 26231, "\u258122": 653, "\u258122,": 7321, "\u2581220": 5464, "\u2581225": 21851, "\u258122:00": 23718, "\u258123": 958, "\u258123,": 10567, "\u2581230": 12025, "\u258123:": 9629, "\u258123:00": 27656, "\u258123:59": 25933, "\u258123]": 20299, "\u258124": 501, "\u258124,": 12314, "\u258124-": 2678, "\u258124/7": 10913, "\u2581240": 8649, "\u25812400": 25342, "\u258124:14": 16719, "\u258124:15": 27344, "\u258124:3": 19466, "\u258125": 546, "\u258125%": 9733, "\u258125,": 11419, "\u258125,000": 23459, "\u258125-": 15369, "\u2581250": 3613, "\u25812500": 16208, "\u2581255": 22610, "\u2581256": 12852, "\u258126": 948, "\u258126,": 10273, "\u2581260": 15257, "\u258127": 1073, "\u258127,": 10653, "\u2581270": 17023, "\u258127500": 26498, "\u258128": 980, "\u258128,": 8837, "\u2581280": 14448, "\u258129": 1217, "\u258129,": 10323, "\u25812:": 6609, "\u25812:00": 20387, "\u25812:1": 13851, "\u25812:10": 22110, "\u25812:11": 22830, "\u25812:12": 22712, "\u25812:13": 24607, "\u25812:14": 23972, "\u25812:15": 21064, "\u25812:16": 23254, "\u25812:17": 23250, "\u25812:2": 20426, "\u25812:21": 25322, "\u25812:3": 19587, "\u25812:4": 19799, "\u25812:5": 23735, "\u25812:7": 21947, "\u25812:8": 24174, "\u25812:9": 19145, "\u25813": 95, "\u25813%": 18506, "\u25813)": 6304, "\u25813*": 8053, "\u25813,000": 9534, "\u25813,500": 25077, "\u25813-": 1246, "\u25813-4": 21757, "\u25813-5": 16537, "\u25813.": 1960, "\u25813.0": 6373, "\u25813.1": 10321, "\u25813.2": 12191, "\u25813.3": 14983, "\u25813.4": 18523, "\u25813.5": 5766, "\u25813.6": 14963, "\u25813.7": 14956, "\u25813.8": 16772, "\u25813.9": 21175, "\u25813/4": 15355, "\u25813/8": 25509, "\u258130": 351, "\u258130%": 5712, "\u258130,000": 13360, "\u258130-": 9480, "\u2581300": 1866, "\u2581300,000": 24279, "\u25813000": 6800, "\u2581304": 7620, "\u258131": 1388, "\u258131,": 10241, "\u2581310": 18332, "\u2581316": 10448, "\u258132": 1363, "\u258132-": 14424, "\u2581320": 11034, "\u2581325": 23515, "\u258133": 1890, "\u2581330": 16491, "\u258133:24": 29644, "\u258134": 2215, "\u2581340": 23219, "\u258135": 1372, "\u258135%": 21404, "\u2581350": 6306, "\u25813500": 24627, "\u258136": 1819, "\u2581360": 5336, "\u2581360\u00b0": 25171, "\u2581365": 7189, "\u258137": 2247, "\u258138": 2274, "\u2581380": 9329, "\u258139": 2722, "\u2581390": 20953, "\u25813:": 10465, "\u25813:00": 25027, "\u25813:1": 12782, "\u25813:1-5": 27944, "\u25813:10": 19763, "\u25813:11": 23621, "\u25813:12": 24398, "\u25813:13": 17111, "\u25813:14": 25088, "\u25813:15": 18691, "\u25813:16": 12400, "\u25813:17": 22494, "\u25813:2": 20533, "\u25813:3": 25510, "\u25813:5": 21607, "\u25813:6": 26088, "\u25813:7": 21702, "\u25813:8": 23599, "\u25813:9": 23114, "\u25814": 126, "\u25814%": 22327, "\u25814)": 8584, "\u25814*": 9353, "\u25814+": 18672, "\u25814,000": 13612, "\u25814-": 1540, "\u25814.": 2407, "\u25814.0": 7889, "\u25814.1": 13982, "\u25814.2": 14138, "\u25814.3": 15312, "\u25814.4": 17763, "\u25814.5": 9420, "\u25814.6": 21877, "\u25814.7": 19478, "\u25814.8": 18397, "\u258140": 809, "\u258140%": 10556, "\u258140,000": 18511, "\u2581400": 2893, "\u2581400,000": 27248, "\u25814000": 10837, "\u2581401": 22863, "\u2581404": 16990, "\u258141": 3354, "\u258142": 2577, "\u2581420": 19460, "\u258143": 3340, "\u2581430": 22599, "\u258144": 3643, "\u2581440": 23471, "\u258145": 1703, "\u258145%": 26481, "\u2581450": 8953, "\u258146": 3604, "\u258147": 4250, "\u258148": 2323, "\u2581480": 15647, "\u258149": 3973, "\u25814:": 10716, "\u25814:1": 15966, "\u25814:11": 24859, "\u25814:12": 25283, "\u25814:13": 23740, "\u25814:16": 23445, "\u25814:2": 23582, "\u25814:3": 19786, "\u25814:4": 18939, "\u25814:5": 23632, "\u25814:6": 20308, "\u25814:7": 21650, "\u25814:8": 15701, "\u25815": 139, "\u25815%": 8428, "\u25815)": 10409, "\u25815*": 18848, "\u25815,000": 9804, "\u25815-": 2403, "\u25815-7": 23466, "\u25815.": 3283, "\u25815.0": 9315, "\u25815.1": 14302, "\u25815.2": 22485, "\u25815.3": 23389, "\u25815.5": 12525, "\u25815.6": 24162, "\u25815.8": 21395, "\u258150": 595, "\u258150%": 4499, "\u258150,000": 12834, "\u258150/60": 26706, "\u2581500": 1662, "\u2581500,000": 23356, "\u25815000": 8645, "\u258151": 4260, "\u2581510": 20823, "\u2581512": 15040, "\u258152": 3935, "\u258153": 4769, "\u2581530": 23834, "\u258154": 4931, "\u258155": 3000, "\u2581550": 12370, "\u258156": 4911, "\u258157": 5688, "\u258158": 4992, "\u258159": 6228, "\u25815:00": 13919, "\u25815:1": 14706, "\u25815:12": 18682, "\u25815:14": 20640, "\u25815:22": 24710, "\u25815:28": 25864, "\u25815:3": 21709, "\u25815:5": 25799, "\u25815:8": 22042, "\u25816": 204, "\u25816)": 14670, "\u25816,000": 14554, "\u25816-": 12894, "\u25816.": 4066, "\u25816.0": 14050, "\u25816.2": 22880, "\u25816.5": 15742, "\u258160": 1012, "\u258160%": 11994, "\u258160,000": 22464, "\u2581600": 3542, "\u25816000": 11872, "\u25816061": 26268, "\u25816063": 28975, "\u258161": 7078, "\u258162": 6689, "\u2581620": 25045, "\u258163": 6780, "\u2581630": 22874, "\u258164": 3954, "\u258164-": 12174, "\u258165": 3703, "\u258165%": 26447, "\u2581650": 11892, "\u258166": 6475, "\u2581660": 24599, "\u258167": 8535, "\u258168": 6517, "\u258169": 4298, "\u25816:00": 17280, "\u25816:1": 14792, "\u25816:10": 21386, "\u25816:2": 26425, "\u25816:3": 23405, "\u25816:30": 27074, "\u25816:4": 19866, "\u25816:6": 24347, "\u25816:7": 25998, "\u25816:9": 14146, "\u25817": 242, "\u25817%": 23262, "\u25817)": 14116, "\u25817,": 6489, "\u25817,000": 19404, "\u25817-": 14572, "\u25817.": 5973, "\u25817.0": 18086, "\u25817.1": 19698, "\u25817.2": 23082, "\u25817.4": 23749, "\u25817.5": 15725, "\u25817.6": 18041, "\u25817.8": 16238, "\u258170": 2033, "\u258170%": 8628, "\u2581700": 6144, "\u25817000": 23520, "\u258171": 8718, "\u258172": 4759, "\u2581720": 12946, "\u258173": 8264, "\u258174": 8928, "\u258175": 2866, "\u258175%": 13745, "\u2581750": 9936, "\u258176": 8430, "\u258177": 8269, "\u258178": 8767, "\u258179": 9391, "\u25817:00": 18867, "\u25817:1": 17670, "\u25817:13": 25833, "\u25817:30": 27211, "\u25817:9": 22855, "\u25817]": 21094, "\u25818": 237, "\u25818%": 21380, "\u25818,": 5039, "\u25818,000": 20854, "\u25818-": 13550, "\u25818.0": 11673, "\u25818.1": 8889, "\u25818.2": 14749, "\u25818.3": 20274, "\u25818.4": 14249, "\u25818.5": 16675, "\u25818.6": 18099, "\u25818.7": 22976, "\u25818.8": 17908, "\u25818.9": 20337, "\u258180": 1624, "\u258180%": 7472, "\u2581800": 4114, "\u25818000": 22751, "\u2581802.11": 25089, "\u2581808": 23764, "\u258181": 8672, "\u258182": 7726, "\u258183": 9633, "\u258184": 7556, "\u2581840": 22597, "\u258185": 5975, "\u258185%": 20507, "\u2581850": 15361, "\u258186": 7514, "\u258186-": 10122, "\u258187": 10785, "\u258188": 8117, "\u258189": 8467, "\u25818:00": 14274, "\u25818:1": 22333, "\u25818:30": 24142, "\u25819": 301, "\u25819,": 9173, "\u25819.0": 15228, "\u25819.1": 17988, "\u25819.2": 18697, "\u25819.3": 21714, "\u25819.4": 24326, "\u25819.5": 22752, "\u25819.6": 23265, "\u25819.7": 25144, "\u25819/11": 18366, "\u258190": 1782, "\u258190%": 7526, "\u2581900": 7790, "\u25819000": 23372, "\u25819001": 13949, "\u258191": 10504, "\u2581911": 14848, "\u258192": 8191, "\u258192%": 27987, "\u258193": 8708, "\u258193%": 25947, "\u258194": 7781, "\u258195": 5871, "\u258195%": 11574, "\u2581950": 22696, "\u258196": 7206, "\u258196%": 25945, "\u258197": 7782, "\u258197%": 26586, "\u258198": 7285, "\u258198%": 14369, "\u258199": 5724, "\u258199%": 10020, "\u258199.9": 25087, "\u258199.9%": 27141, "\u25819:00": 13051, "\u25819:1": 21293, "\u25819:30": 21497, "\u25819:5": 25354, "\u25819:6": 26601, "\u2581:": 305, "\u2581:)": 10314, "\u2581::": 12205, "\u2581:::": 17794, "\u2581<": 1574, "\u2581=": 2186, "\u2581==": 22045, "\u2581====": 28031, "\u2581>": 497, "\u2581>>": 6539, "\u2581@": 3044, "\u2581A": 66, "\u2581AA": 14310, "\u2581AAA": 18320, "\u2581AAC": 23628, "\u2581AB": 12338, "\u2581ABB": 24140, "\u2581ABC": 16024, "\u2581ABOUT": 15246, "\u2581ABS": 8244, "\u2581AC": 2530, "\u2581ACC": 19498, "\u2581ACCESS": 31955, "\u2581ACER": 27971, "\u2581ACT": 18834, "\u2581AD": 6824, "\u2581ADAM": 30289, "\u2581ADD": 25975, "\u2581ADDRESS": 31592, "\u2581ADHD": 17821, "\u2581ADV": 27329, "\u2581AES": 24093, "\u2581AF": 16739, "\u2581AFTER": 31206, "\u2581AG": 10637, "\u2581AGAIN": 30873, "\u2581AGREE": 28906, "\u2581AI": 4709, "\u2581AIDS": 9151, "\u2581AIR": 18128, "\u2581AISI": 25751, "\u2581AL": 8457, "\u2581ALL": 4607, "\u2581ALSO": 31974, "\u2581ALWAYS": 30818, "\u2581AM": 4100, "\u2581AMD": 10171, "\u2581AMERICA": 29701, "\u2581AMP": 18092, "\u2581AN": 11440, "\u2581AND": 3370, "\u2581ANKO": 18447, "\u2581ANSI": 22394, "\u2581ANSWER": 24643, "\u2581ANY": 12465, "\u2581AP": 7992, "\u2581APARTMENT": 28707, "\u2581API": 4535, "\u2581APIs": 18883, "\u2581APK": 6939, "\u2581APP": 12532, "\u2581AR": 7305, "\u2581ARE": 13312, "\u2581ARM": 19703, "\u2581ART": 22116, "\u2581AS": 6603, "\u2581ASCII": 27092, "\u2581ASEAN": 25896, "\u2581ASIC": 29371, "\u2581ASME": 24527, "\u2581ASP": 15563, "\u2581ASS": 20224, "\u2581ASTM": 6380, "\u2581ASUS": 28101, "\u2581AShemale": 4819, "\u2581AT": 6845, "\u2581ATM": 11069, "\u2581ATP": 24161, "\u2581AU": 15492, "\u2581AUD": 15893, "\u2581AUTO": 23818, "\u2581AV": 11326, "\u2581AVG": 23468, "\u2581AVI": 9345, "\u2581AWAKE": 28047, "\u2581AWS": 10497, "\u2581AXIS": 23165, "\u2581Aaron": 4966, "\u2581Ab": 5673, "\u2581Ababa": 30452, "\u2581Abandon": 31657, "\u2581Abba": 25960, "\u2581Abbey": 20342, "\u2581Abby": 27040, "\u2581Abd": 27243, "\u2581Abdul": 22650, "\u2581Abel": 15097, "\u2581Aberdeen": 25090, "\u2581Abi": 17156, "\u2581Abigail": 29230, "\u2581Ability": 14305, "\u2581Abimelech": 22003, "\u2581Abkhazia": 28520, "\u2581Able": 22359, "\u2581Abner": 23819, "\u2581Aboriginal": 28918, "\u2581Abortion": 31487, "\u2581About": 852, "\u2581Above": 10882, "\u2581Abraham": 2062, "\u2581Abram": 13889, "\u2581Abroad": 25126, "\u2581Absalom": 18980, "\u2581Absolut": 20651, "\u2581Absolute": 17580, "\u2581Absolutely": 18927, "\u2581Absorber": 28812, "\u2581Abstract": 15183, "\u2581Abu": 9826, "\u2581Abuse": 19424, "\u2581Ac": 7116, "\u2581Academic": 14921, "\u2581Academy": 4428, "\u2581Accelerate": 26179, "\u2581Accelerator": 31730, "\u2581Accent": 28427, "\u2581Accept": 8874, "\u2581Access": 3193, "\u2581Accessibility": 24073, "\u2581Accessories": 7070, "\u2581Accessory": 26705, "\u2581Accident": 16827, "\u2581Accommodation": 9567, "\u2581AccorHotels": 27251, "\u2581Accord": 28868, "\u2581According": 1298, "\u2581Accordingly": 15733, "\u2581Account": 4237, "\u2581Accounting": 20212, "\u2581Accreditation": 27394, "\u2581Accu": 23733, "\u2581Accuracy": 15387, "\u2581Accurate": 22778, "\u2581Ace": 13283, "\u2581Acer": 26449, "\u2581Acetate": 19082, "\u2581Achieve": 25863, "\u2581Achievement": 28442, "\u2581Achille": 31511, "\u2581Acid": 10618, "\u2581Acknowledg": 28864, "\u2581Acne": 28614, "\u2581Acoustic": 26791, "\u2581Acquire": 19836, "\u2581Acquisition": 24501, "\u2581Acrobat": 24940, "\u2581Acronis": 15901, "\u2581Acropolis": 27395, "\u2581Across": 20186, "\u2581Acrylic": 15388, "\u2581Act": 3055, "\u2581Action": 4755, "\u2581Activ": 25968, "\u2581Activate": 20163, "\u2581Activation": 24224, "\u2581Active": 6195, "\u2581Activities": 11782, "\u2581Activity": 13942, "\u2581Actor": 21934, "\u2581Actress": 28920, "\u2581Acts": 7554, "\u2581Actual": 24792, "\u2581Actually": 5091, "\u2581Actuator": 31731, "\u2581Acupuncture": 27870, "\u2581Ad": 3775, "\u2581Adagio": 30233, "\u2581Adam": 2283, "\u2581Adams": 16106, "\u2581Adapt": 22747, "\u2581Adapter": 8474, "\u2581Adaptive": 30279, "\u2581Add": 1976, "\u2581Added": 3784, "\u2581Addiction": 29274, "\u2581Adding": 16860, "\u2581Addison": 29280, "\u2581Additional": 7852, "\u2581Additionally": 6754, "\u2581Additive": 28944, "\u2581Address": 3905, "\u2581Adelaide": 22507, "\u2581Adele": 28778, "\u2581Adhesive": 13879, "\u2581Adjust": 22320, "\u2581Adjustable": 14410, "\u2581Adjuster": 16173, "\u2581Adjustment": 27450, "\u2581Admin": 19757, "\u2581Administration": 6785, "\u2581Administrative": 23147, "\u2581Administrator": 13599, "\u2581Admiral": 17389, "\u2581Admission": 15003, "\u2581Admit": 28986, "\u2581Adobe": 5130, "\u2581Adolf": 26529, "\u2581Adopt": 19162, "\u2581Adoption": 27955, "\u2581Adorable": 29584, "\u2581Adrian": 17727, "\u2581Adriatic": 31593, "\u2581Ads": 10746, "\u2581Adult": 6711, "\u2581Adults": 8110, "\u2581Adv": 19681, "\u2581Advance": 14683, "\u2581Advanced": 4645, "\u2581Advantage": 18307, "\u2581Advantages": 17594, "\u2581Advent": 23940, "\u2581Adventure": 8447, "\u2581Adventures": 21083, "\u2581Advertise": 28875, "\u2581Advertisement": 24368, "\u2581Advertising": 7761, "\u2581Advice": 19735, "\u2581Advisor": 20021, "\u2581Advisory": 13934, "\u2581Advocate": 30363, "\u2581Aero": 13938, "\u2581Aeroflot": 28196, "\u2581Aerospace": 23677, "\u2581Aesthetic": 31594, "\u2581Af": 12068, "\u2581Affair": 30949, "\u2581Affairs": 11576, "\u2581Affect": 21495, "\u2581Affiliate": 14276, "\u2581Affordable": 27252, "\u2581Afghan": 16711, "\u2581Afghanistan": 8131, "\u2581Afraid": 27396, "\u2581Africa": 1471, "\u2581African": 2483, "\u2581After": 448, "\u2581Afternoon": 22524, "\u2581Afterward": 16935, "\u2581Ag": 8288, "\u2581Aga": 22550, "\u2581Agadir": 31030, "\u2581Again": 3567, "\u2581Age": 4867, "\u2581Aged": 24452, "\u2581Agency": 7570, "\u2581Agenda": 31543, "\u2581Agent": 7281, "\u2581Ages": 15553, "\u2581Agile": 29837, "\u2581Aging": 21295, "\u2581Agnes": 30483, "\u2581Agree": 27035, "\u2581Agreement": 5586, "\u2581Agricultural": 17545, "\u2581Agriculture": 14107, "\u2581Ah": 3801, "\u2581Ahab": 17590, "\u2581Ahmad": 31052, "\u2581Ahmed": 24699, "\u2581Ai": 14566, "\u2581Aid": 12745, "\u2581Aim": 22623, "\u2581Air": 985, "\u2581Airbnb": 21768, "\u2581Airbus": 27318, "\u2581Aircraft": 17328, "\u2581Aires": 12263, "\u2581Airline": 22352, "\u2581Airlines": 8914, "\u2581Airplane": 30624, "\u2581Airport": 955, "\u2581Airways": 17733, "\u2581Airwheel": 5498, "\u2581Ajax": 31952, "\u2581Ak": 11261, "\u2581Aka": 19147, "\u2581Akamai": 7709, "\u2581Akasaka": 30676, "\u2581Akihabara": 30819, "\u2581Akita": 30109, "\u2581Al": 1118, "\u2581Alabama": 18246, "\u2581Aladdin": 29883, "\u2581Alamo": 26853, "\u2581Alan": 10160, "\u2581Alaris": 29773, "\u2581Alarm": 12807, "\u2581Alas": 24119, "\u2581Alaska": 15275, "\u2581Alba": 17062, "\u2581Albania": 17057, "\u2581Albanian": 23073, "\u2581Albany": 26974, "\u2581Albergo": 31165, "\u2581Albert": 8062, "\u2581Alberta": 21510, "\u2581Albufeira": 19268, "\u2581Album": 11584, "\u2581Alc": 23587, "\u2581Alcatraz": 23415, "\u2581Alcohol": 12840, "\u2581Ale": 16014, "\u2581Alert": 22062, "\u2581Alerts": 17466, "\u2581Alex": 5991, "\u2581Alexa": 19825, "\u2581Alexander": 6679, "\u2581Alexandr": 27378, "\u2581Alexandra": 27164, "\u2581Alexandria": 16511, "\u2581Alexis": 17493, "\u2581Alfa": 23585, "\u2581Alfred": 16477, "\u2581Algeria": 18910, "\u2581Algorithm": 29030, "\u2581Alhambra": 30820, "\u2581Ali": 6960, "\u2581Alibaba": 20131, "\u2581Alicante": 23900, "\u2581Alice": 8393, "\u2581Alicia": 26979, "\u2581Alien": 12090, "\u2581Alison": 26720, "\u2581Alive": 25391, "\u2581All": 205, "\u2581Allah": 795, "\u2581Alldatasheet": 17710, "\u2581Allen": 11090, "\u2581Alliance": 7860, "\u2581Allied": 17343, "\u2581Allies": 22047, "\u2581Allison": 25464, "\u2581Allow": 6297, "\u2581Alloy": 5102, "\u2581Alma": 15495, "\u2581Almighty": 7351, "\u2581Almost": 7072, "\u2581Alone": 15811, "\u2581Along": 9735, "\u2581AlotPorn": 9399, "\u2581Alpha": 4279, "\u2581Alpine": 23188, "\u2581Alps": 17653, "\u2581Already": 11550, "\u2581Alright": 23210, "\u2581Also": 1210, "\u2581Alt": 10564, "\u2581Alta": 24436, "\u2581Alternate": 30555, "\u2581Alternative": 13165, "\u2581Alternatively": 14366, "\u2581Alternator": 31853, "\u2581Although": 1754, "\u2581Altitude": 28600, "\u2581Alto": 19031, "\u2581Aluminium": 9601, "\u2581Aluminum": 3235, "\u2581Alumni": 30067, "\u2581Always": 4293, "\u2581Alzheimer": 13600, "\u2581Am": 1845, "\u2581Amalek": 25883, "\u2581Amanda": 23323, "\u2581Amar": 19513, "\u2581Amateur": 2345, "\u2581Amazing": 9016, "\u2581Amazon": 3770, "\u2581Ambassador": 12973, "\u2581Amber": 17865, "\u2581Ambient": 29922, "\u2581Ambulance": 29702, "\u2581Amelia": 29611, "\u2581Amen": 20298, "\u2581Amendment": 19716, "\u2581Amenities": 12020, "\u2581Ameri": 30171, "\u2581America": 801, "\u2581American": 570, "\u2581Americans": 2984, "\u2581Americas": 17007, "\u2581Amino": 30201, "\u2581Ammon": 12218, "\u2581Amnesty": 23901, "\u2581Among": 4625, "\u2581Amor": 24454, "\u2581Amorites": 24509, "\u2581Amos": 20961, "\u2581Amount": 25184, "\u2581Amp": 18620, "\u2581Amplifier": 28197, "\u2581Amsterdam": 6519, "\u2581Amusement": 25231, "\u2581Amy": 11952, "\u2581An": 520, "\u2581Ana": 10742, "\u2581Anabolic": 17074, "\u2581Anadrol": 28521, "\u2581Anaheim": 27281, "\u2581Anal": 2805, "\u2581Analog": 15265, "\u2581Analysis": 8167, "\u2581Analyst": 24669, "\u2581Analytic": 23852, "\u2581Analytics": 9358, "\u2581Analyze": 30025, "\u2581Analyzer": 17242, "\u2581Anastasia": 30206, "\u2581Anatomy": 30978, "\u2581Anavar": 25623, "\u2581Anchor": 15404, "\u2581Ancient": 7608, "\u2581And": 57, "\u2581Anderson": 13944, "\u2581Andorra": 30942, "\u2581Andrea": 14485, "\u2581Andrew": 6013, "\u2581Android": 1232, "\u2581AndroidFreeApks": 30713, "\u2581Andy": 13997, "\u2581Ang": 17788, "\u2581Angel": 6136, "\u2581Angela": 20702, "\u2581Angeles": 2303, "\u2581Angelina": 27445, "\u2581Angels": 11330, "\u2581Anger": 20860, "\u2581Angkor": 27702, "\u2581Angle": 10103, "\u2581Anglican": 27703, "\u2581Anglo": 26259, "\u2581Angola": 26702, "\u2581Angry": 17092, "\u2581Anguilla": 29381, "\u2581Angular": 27919, "\u2581Animal": 8504, "\u2581Animals": 11547, "\u2581Animate": 29462, "\u2581Animation": 14224, "\u2581Anime": 13183, "\u2581Anita": 27810, "\u2581Ankara": 25908, "\u2581Ann": 9615, "\u2581Anna": 6227, "\u2581Anne": 9683, "\u2581Annex": 22347, "\u2581Annie": 20713, "\u2581Anniversary": 13095, "\u2581Announce": 18973, "\u2581Announcement": 19190, "\u2581Annual": 9213, "\u2581Anonymous": 20999, "\u2581Another": 1733, "\u2581Answer": 6883, "\u2581Answers": 18321, "\u2581Ant": 15282, "\u2581Antalya": 16194, "\u2581Antarctic": 29376, "\u2581Antarctica": 27159, "\u2581Antenna": 13134, "\u2581Anthony": 12605, "\u2581Anti": 3028, "\u2581Antigua": 23577, "\u2581Antioch": 25906, "\u2581Antique": 20824, "\u2581Antivirus": 25133, "\u2581Anton": 12141, "\u2581Antonio": 7941, "\u2581Antwerp": 18732, "\u2581Anxiety": 27704, "\u2581Any": 1679, "\u2581Anybody": 19382, "\u2581Anyone": 5612, "\u2581Anything": 9565, "\u2581Anyway": 8280, "\u2581Anywhere": 21678, "\u2581Ap": 9856, "\u2581Apache": 10909, "\u2581Apart": 7105, "\u2581Apartament": 28347, "\u2581Apartamento": 21577, "\u2581Aparthotel": 10490, "\u2581Apartment": 1787, "\u2581Apartments": 2072, "\u2581Aperture": 29060, "\u2581Apk": 9698, "\u2581Apollo": 11588, "\u2581Apostle": 10696, "\u2581App": 2398, "\u2581Apparel": 28880, "\u2581Apparently": 11977, "\u2581Appart": 30302, "\u2581Appartement": 31790, "\u2581Appeal": 21676, "\u2581Appear": 24994, "\u2581Appearance": 15325, "\u2581Apple": 1438, "\u2581Appliance": 16979, "\u2581Applicant": 23027, "\u2581Application": 3121, "\u2581Applications": 7633, "\u2581Applied": 13139, "\u2581Apply": 8016, "\u2581Approach": 16754, "\u2581Appropriate": 29190, "\u2581Approval": 20239, "\u2581Approved": 15582, "\u2581Approx": 14926, "\u2581Approximately": 14238, "\u2581Apps": 6044, "\u2581Apr": 12618, "\u2581April": 1257, "\u2581Apt": 12058, "\u2581Aqua": 9475, "\u2581Aquarium": 9622, "\u2581Aquatic": 29994, "\u2581Ar": 2732, "\u2581Arab": 3067, "\u2581Arabia": 10632, "\u2581Arabian": 19035, "\u2581Arabic": 7495, "\u2581Aragon": 31219, "\u2581Aram": 23126, "\u2581Arbitration": 19372, "\u2581Arbor": 28603, "\u2581Arc": 11598, "\u2581Arcade": 18167, "\u2581Arcadia": 31560, "\u2581Arch": 11931, "\u2581Archbishop": 26655, "\u2581Archer": 24130, "\u2581Archi": 26487, "\u2581Architect": 19576, "\u2581Architecture": 11175, "\u2581Archive": 8945, "\u2581Archives": 9963, "\u2581Arctic": 17237, "\u2581Arduino": 24941, "\u2581Are": 615, "\u2581Area": 2405, "\u2581Aren": 14292, "\u2581Arena": 8564, "\u2581Argentina": 6870, "\u2581Argentine": 26347, "\u2581Argentinian": 30360, "\u2581Argo": 25069, "\u2581Ari": 12346, "\u2581Aria": 23111, "\u2581Ariel": 26004, "\u2581Arise": 24122, "\u2581Aristo": 28324, "\u2581Aristotle": 23175, "\u2581Arizona": 11454, "\u2581Ark": 14493, "\u2581Arkansas": 25698, "\u2581Arlington": 25699, "\u2581Arm": 7878, "\u2581Armageddon": 22632, "\u2581Armed": 19897, "\u2581Armenia": 19820, "\u2581Armenian": 22415, "\u2581Armies": 28272, "\u2581Armor": 19710, "\u2581Armour": 31223, "\u2581Armpit": 29775, "\u2581Arms": 20510, "\u2581Armstrong": 26973, "\u2581Army": 3743, "\u2581Arnold": 18049, "\u2581Aroma": 20933, "\u2581Around": 5425, "\u2581Arrange": 22916, "\u2581Array": 23947, "\u2581Arrest": 25588, "\u2581Arrival": 14692, "\u2581Arrive": 21668, "\u2581Arrow": 16426, "\u2581Arsenal": 24798, "\u2581Art": 1237, "\u2581Artec": 9836, "\u2581Arthur": 11237, "\u2581Article": 4620, "\u2581Articles": 11808, "\u2581Artist": 10776, "\u2581Artists": 18591, "\u2581Arts": 4843, "\u2581Aruba": 26227, "\u2581As": 247, "\u2581Asahi": 24982, "\u2581Asakusa": 21535, "\u2581Ascend": 24836, "\u2581Ascension": 30677, "\u2581Ash": 7177, "\u2581Ashley": 18171, "\u2581Asia": 1495, "\u2581Asian": 1404, "\u2581Aside": 22235, "\u2581Ask": 2752, "\u2581Asked": 17501, "\u2581Aspect": 28988, "\u2581Asphalt": 25546, "\u2581Aspire": 25424, "\u2581Ass": 6351, "\u2581Assad": 28283, "\u2581Assassin": 25880, "\u2581Assault": 31204, "\u2581Assay": 27023, "\u2581Assemble": 29574, "\u2581Assembly": 5120, "\u2581Assess": 29954, "\u2581Assessment": 17560, "\u2581Asset": 13573, "\u2581Assist": 24594, "\u2581Assistance": 20691, "\u2581Assistant": 14827, "\u2581Associate": 14210, "\u2581Associated": 27823, "\u2581Association": 2565, "\u2581Assuming": 27911, "\u2581Assurance": 23657, "\u2581Assyria": 15112, "\u2581Assyrian": 21700, "\u2581Astana": 27924, "\u2581Aston": 24170, "\u2581Astoria": 23953, "\u2581Astro": 20924, "\u2581Astronomy": 29423, "\u2581At": 368, "\u2581Athena": 31047, "\u2581Athenian": 30254, "\u2581Athens": 4423, "\u2581Athletes": 30979, "\u2581Athletic": 17624, "\u2581Atlanta": 9412, "\u2581Atlantic": 8402, "\u2581Atlantik": 28360, "\u2581Atlantis": 24478, "\u2581Atlas": 15604, "\u2581Atmospheric": 31290, "\u2581Atom": 24113, "\u2581Atomic": 19853, "\u2581Atonement": 30575, "\u2581Attach": 26379, "\u2581Attachment": 24703, "\u2581Attack": 9413, "\u2581Attempt": 23172, "\u2581Attend": 20262, "\u2581Attendance": 30276, "\u2581Attention": 17413, "\u2581Attitude": 28113, "\u2581Attorney": 19717, "\u2581Attract": 26851, "\u2581Attractions": 15070, "\u2581Attractive": 29271, "\u2581Attribution": 30714, "\u2581Au": 9107, "\u2581Auckland": 13880, "\u2581Auction": 26872, "\u2581Audi": 13953, "\u2581Audience": 21794, "\u2581Audio": 5595, "\u2581Audit": 19987, "\u2581Audition": 17993, "\u2581Audrey": 29191, "\u2581Aug": 9150, "\u2581August": 1373, "\u2581Augustine": 22695, "\u2581Augustus": 27046, "\u2581Aunt": 11215, "\u2581Aurora": 18822, "\u2581Auschwitz": 31595, "\u2581Austin": 11693, "\u2581Australia": 1464, "\u2581Australian": 4345, "\u2581Austria": 6034, "\u2581Austrian": 12537, "\u2581Austro": 31660, "\u2581Authentic": 23578, "\u2581Authentication": 21337, "\u2581Author": 4783, "\u2581Authorities": 28440, "\u2581Authority": 9117, "\u2581Authorized": 26257, "\u2581Auto": 2588, "\u2581AutoCAD": 28585, "\u2581AutoForm": 25440, "\u2581AutoMK": 31923, "\u2581Autodesk": 27142, "\u2581Autograph": 31089, "\u2581Automat": 31242, "\u2581Automated": 19192, "\u2581Automatic": 4204, "\u2581Automatically": 24998, "\u2581Automation": 11099, "\u2581Automobile": 18554, "\u2581Automotive": 8030, "\u2581Autumn": 18336, "\u2581Av": 9126, "\u2581Ava": 16156, "\u2581Availability": 21196, "\u2581Available": 3442, "\u2581Avalon": 30107, "\u2581Avast": 26408, "\u2581Avatar": 28412, "\u2581Ave": 7951, "\u2581Avengers": 28048, "\u2581Avenida": 19718, "\u2581Avenue": 2739, "\u2581Average": 6273, "\u2581Avi": 16950, "\u2581Aviation": 14530, "\u2581Avignon": 31488, "\u2581Aviv": 11678, "\u2581Avoid": 6293, "\u2581Awake": 8562, "\u2581Awakening": 25583, "\u2581Award": 3986, "\u2581Awards": 6646, "\u2581Awareness": 24823, "\u2581Away": 16038, "\u2581Awesome": 15902, "\u2581Axe": 28336, "\u2581Axis": 12117, "\u2581Axle": 26985, "\u2581Ay": 14842, "\u2581Aya": 25395, "\u2581Az": 10614, "\u2581Azariah": 31291, "\u2581Azerbaijan": 16980, "\u2581Aztec": 29433, "\u2581Azure": 10948, "\u2581B": 245, "\u2581BA": 7121, "\u2581BACK": 25779, "\u2581BAR": 20627, "\u2581BB": 16059, "\u2581BBC": 8263, "\u2581BBQ": 15664, "\u2581BBW": 14838, "\u2581BC": 6428, "\u2581BD": 18709, "\u2581BDSM": 23178, "\u2581BE": 5090, "\u2581BEFORE": 31596, "\u2581BEN": 22982, "\u2581BEST": 15437, "\u2581BF": 22056, "\u2581BI": 10523, "\u2581BIBLE": 19538, "\u2581BIG": 21236, "\u2581BIOS": 19777, "\u2581BL": 17957, "\u2581BLACK": 22903, "\u2581BLUE": 30439, "\u2581BMI": 26589, "\u2581BMW": 10375, "\u2581BO": 9032, "\u2581BOOK": 13660, "\u2581BOPP": 30754, "\u2581BP": 17505, "\u2581BR": 9387, "\u2581BRAND": 30271, "\u2581BS": 9135, "\u2581BSD": 25037, "\u2581BT": 15760, "\u2581BTC": 10803, "\u2581BTS": 22993, "\u2581BU": 18699, "\u2581BUS": 25852, "\u2581BUSINESS": 23290, "\u2581BUT": 18208, "\u2581BUY": 23187, "\u2581BW": 20221, "\u2581BY": 9286, "\u2581Ba": 3400, "\u2581Baal": 11645, "\u2581Baan": 27470, "\u2581Baba": 25954, "\u2581Babe": 4739, "\u2581Babies": 24056, "\u2581Baby": 4446, "\u2581Babylon": 5296, "\u2581Babylonian": 18288, "\u2581Babysitter": 29923, "\u2581Bac": 18609, "\u2581Bach": 22091, "\u2581Bachelor": 12974, "\u2581Back": 1616, "\u2581Background": 13463, "\u2581Backpack": 21995, "\u2581Backpacker": 24913, "\u2581Backpackers": 13087, "\u2581Backroom": 28457, "\u2581Backup": 7737, "\u2581Bacteria": 30609, "\u2581Bad": 5308, "\u2581Badge": 25637, "\u2581Badminton": 31597, "\u2581Bag": 5935, "\u2581Baggage": 27549, "\u2581Baghdad": 28361, "\u2581Bags": 11540, "\u2581Bah": 18218, "\u2581Baha": 29177, "\u2581Bahamas": 23044, "\u2581Bahia": 28831, "\u2581Bahrain": 23546, "\u2581Bai": 9210, "\u2581Bailey": 15137, "\u2581Baiyu": 31567, "\u2581Bak": 16174, "\u2581Baker": 14616, "\u2581Bakery": 28301, "\u2581Baku": 23003, "\u2581Bal": 7289, "\u2581Bala": 25647, "\u2581Balaam": 24686, "\u2581Balak": 30151, "\u2581Balance": 10279, "\u2581Balancing": 30032, "\u2581Balcony": 26022, "\u2581Baldwin": 31441, "\u2581Bali": 7422, "\u2581Balkan": 29443, "\u2581Ball": 3328, "\u2581Ballet": 25993, "\u2581Balloon": 18169, "\u2581Baltic": 24377, "\u2581Baltimore": 16620, "\u2581Bamboo": 23660, "\u2581Ban": 6675, "\u2581Banana": 24847, "\u2581Band": 6166, "\u2581Banff": 28094, "\u2581Bang": 7290, "\u2581Bangalore": 23782, "\u2581Bangkok": 3297, "\u2581Bangladesh": 13881, "\u2581Bank": 2683, "\u2581Banking": 16892, "\u2581Banks": 17806, "\u2581Banner": 22034, "\u2581Banquet": 23542, "\u2581Bao": 16822, "\u2581Baptism": 30821, "\u2581Baptist": 12713, "\u2581Bar": 1406, "\u2581Barack": 23200, "\u2581Barb": 15605, "\u2581Barbados": 27574, "\u2581Barbara": 12521, "\u2581Barber": 24771, "\u2581Barbie": 14130, "\u2581Barcelona": 3119, "\u2581Barclay": 29192, "\u2581Barco": 25537, "\u2581Barcode": 21569, "\u2581Bareback": 26684, "\u2581Bark": 24888, "\u2581Barn": 16392, "\u2581Barnabas": 24329, "\u2581Baron": 23253, "\u2581Baroque": 30068, "\u2581Barra": 24763, "\u2581Barrel": 28105, "\u2581Barrier": 14408, "\u2581Barry": 15082, "\u2581Bart": 19314, "\u2581Baruch": 29109, "\u2581Bas": 12027, "\u2581Base": 5964, "\u2581Baseball": 11549, "\u2581Based": 4663, "\u2581Basel": 19564, "\u2581Bash": 29995, "\u2581Bashan": 28963, "\u2581Basic": 5687, "\u2581Basically": 12934, "\u2581Basil": 26439, "\u2581Basilica": 12376, "\u2581Basin": 24475, "\u2581Basket": 17219, "\u2581Basketball": 13270, "\u2581Basque": 29452, "\u2581Bass": 14729, "\u2581Bat": 8857, "\u2581Batch": 24858, "\u2581Bath": 6422, "\u2581Bathroom": 7119, "\u2581Bathrooms": 8602, "\u2581Bathtub": 30865, "\u2581Batman": 16561, "\u2581Batteries": 22633, "\u2581Battery": 3421, "\u2581Battle": 4718, "\u2581Battlefield": 22542, "\u2581Bavaria": 24350, "\u2581Bay": 1572, "\u2581Bazaar": 29884, "\u2581Bbw": 20798, "\u2581Bdsm": 29420, "\u2581Be": 733, "\u2581BeFuck": 23783, "\u2581Beach": 814, "\u2581Beacon": 25731, "\u2581Bead": 25529, "\u2581Beam": 12232, "\u2581Bean": 19582, "\u2581Bear": 5611, "\u2581Bearing": 8281, "\u2581Bearings": 20341, "\u2581Beast": 18665, "\u2581Beat": 13114, "\u2581Beatles": 16279, "\u2581Beau": 16109, "\u2581Beautiful": 4896, "\u2581Beauty": 5037, "\u2581Beaver": 29757, "\u2581Because": 760, "\u2581Beck": 14456, "\u2581Beckham": 24218, "\u2581Become": 11589, "\u2581Becoming": 26855, "\u2581Bed": 1458, "\u2581Bedroom": 3824, "\u2581Bee": 13580, "\u2581Beef": 21038, "\u2581Beeg": 7576, "\u2581Been": 16146, "\u2581Beer": 7767, "\u2581Beethoven": 26653, "\u2581Before": 2041, "\u2581Begin": 16148, "\u2581Beginner": 24978, "\u2581Beginning": 14405, "\u2581Behavior": 18634, "\u2581Behind": 11393, "\u2581Behold": 4917, "\u2581Bei": 20475, "\u2581Beijing": 2603, "\u2581Being": 3805, "\u2581Beirut": 25700, "\u2581Bel": 7615, "\u2581Belarus": 21793, "\u2581Belfast": 23679, "\u2581Belgian": 16066, "\u2581Belgium": 7238, "\u2581Belgrade": 26544, "\u2581Belief": 26506, "\u2581Believe": 7835, "\u2581Believers": 18070, "\u2581Believing": 29594, "\u2581Belize": 17823, "\u2581Bell": 6529, "\u2581Bella": 11770, "\u2581Belle": 20650, "\u2581Bellevue": 28522, "\u2581Beloved": 23433, "\u2581Below": 8992, "\u2581Belt": 8856, "\u2581Belvedere": 30033, "\u2581Ben": 2470, "\u2581Bench": 19956, "\u2581Bend": 16669, "\u2581Bending": 22989, "\u2581Benedict": 23028, "\u2581Benefit": 20771, "\u2581Benefits": 9955, "\u2581Bengal": 20374, "\u2581Benidorm": 28708, "\u2581Benjamin": 8180, "\u2581Bennett": 28562, "\u2581Bentley": 12608, "\u2581Benz": 16962, "\u2581Beppu": 26656, "\u2581Ber": 6933, "\u2581Berg": 16044, "\u2581Bergamo": 31357, "\u2581Bergen": 27970, "\u2581Berkeley": 16677, "\u2581Berlin": 2721, "\u2581Bermuda": 27253, "\u2581Bern": 10726, "\u2581Bernard": 13852, "\u2581Bernie": 28017, "\u2581Berry": 19015, "\u2581Bert": 23014, "\u2581Besides": 6197, "\u2581Best": 913, "\u2581Bet": 11416, "\u2581Beta": 13143, "\u2581Beth": 12430, "\u2581Bethany": 27424, "\u2581Bethel": 12254, "\u2581Bethlehem": 16981, "\u2581Better": 5263, "\u2581Betting": 27798, "\u2581Betty": 24374, "\u2581Between": 6761, "\u2581Beverage": 17474, "\u2581Beverly": 21105, "\u2581Beware": 15342, "\u2581Beyond": 10345, "\u2581Bi": 3611, "\u2581Bible": 402, "\u2581Bibli": 29789, "\u2581Biblical": 13140, "\u2581Bicycle": 11899, "\u2581Bieber": 30721, "\u2581Biennale": 29193, "\u2581Big": 1410, "\u2581Biggest": 22399, "\u2581Bike": 8097, "\u2581Bikini": 24059, "\u2581Bil": 18758, "\u2581Bill": 3889, "\u2581Billboard": 18566, "\u2581Billie": 28629, "\u2581Billion": 18869, "\u2581Billy": 11473, "\u2581Bin": 8960, "\u2581Binance": 27149, "\u2581Binary": 15852, "\u2581Binding": 28431, "\u2581Bingo": 27309, "\u2581Bio": 4676, "\u2581Biological": 22793, "\u2581Biology": 21800, "\u2581Biotech": 30293, "\u2581Biotechnology": 31367, "\u2581Birch": 31058, "\u2581Bird": 10478, "\u2581Birds": 13904, "\u2581Birmingham": 18247, "\u2581Birth": 13315, "\u2581Birthday": 11270, "\u2581Bisexual": 15593, "\u2581Bishop": 12332, "\u2581Bistro": 27586, "\u2581Bit": 5339, "\u2581Bitch": 28176, "\u2581Bitcoin": 3722, "\u2581Bitter": 29140, "\u2581Biz": 27090, "\u2581Bizarre": 29885, "\u2581Bla": 10782, "\u2581Black": 905, "\u2581BlackBerry": 20132, "\u2581Blackberry": 28109, "\u2581Blackjack": 25752, "\u2581Blade": 12151, "\u2581Blair": 24077, "\u2581Blake": 19971, "\u2581Blanc": 14604, "\u2581Blank": 20471, "\u2581Blast": 17348, "\u2581Blaze": 29320, "\u2581Bldg": 18149, "\u2581Bleach": 31517, "\u2581Blend": 20821, "\u2581Blessed": 10051, "\u2581Blessing": 16274, "\u2581Bleu": 30612, "\u2581Blind": 15781, "\u2581Bliss": 25738, "\u2581Blister": 31786, "\u2581BlizzCon": 25701, "\u2581Blizzard": 19440, "\u2581Blo": 17290, "\u2581Block": 4735, "\u2581Blockchain": 9464, "\u2581Blog": 5510, "\u2581Blogger": 28276, "\u2581Blogging": 28108, "\u2581Blond": 23639, "\u2581Blonde": 6239, "\u2581Blood": 5030, "\u2581Bloom": 16927, "\u2581Bloomberg": 23049, "\u2581Blossom": 26792, "\u2581Blow": 11403, "\u2581Blower": 27654, "\u2581Blowjob": 8567, "\u2581Blu": 7254, "\u2581Blue": 1633, "\u2581Bluetooth": 6120, "\u2581Blvd": 10691, "\u2581Bo": 3057, "\u2581Board": 2239, "\u2581Boat": 7796, "\u2581Boaz": 30770, "\u2581Bob": 6126, "\u2581Bobby": 19748, "\u2581Bod": 17692, "\u2581Body": 4009, "\u2581Bodybuilding": 24687, "\u2581Boeing": 17080, "\u2581Bog": 22191, "\u2581Bogota": 30584, "\u2581Bohemia": 24207, "\u2581Boil": 28853, "\u2581Boiler": 15792, "\u2581Bol": 11563, "\u2581Bold": 21627, "\u2581Boldenone": 27705, "\u2581Bolivia": 18735, "\u2581Bologna": 20451, "\u2581Bolshevik": 18814, "\u2581Bolt": 11639, "\u2581Bomb": 12131, "\u2581Bon": 8004, "\u2581Bond": 10555, "\u2581Bondage": 18655, "\u2581Bone": 20077, "\u2581Bonn": 22617, "\u2581Bonus": 7661, "\u2581Boo": 17660, "\u2581Boobs": 22248, "\u2581Book": 879, "\u2581Booking": 4666, "\u2581BookingSuite": 29432, "\u2581Bookmark": 17649, "\u2581Books": 9294, "\u2581Boom": 15809, "\u2581Boost": 20871, "\u2581Booster": 26112, "\u2581Boot": 13514, "\u2581Booth": 14164, "\u2581Boots": 16606, "\u2581Bor": 6882, "\u2581Boracay": 27706, "\u2581Bordeaux": 18815, "\u2581Border": 13726, "\u2581Bore": 24885, "\u2581Boris": 26271, "\u2581Born": 10735, "\u2581Borough": 29793, "\u2581Borrow": 29614, "\u2581Bosch": 18567, "\u2581Bosnia": 14521, "\u2581Boss": 12240, "\u2581Boston": 5048, "\u2581Bot": 14323, "\u2581Botanic": 26015, "\u2581Botanical": 17411, "\u2581Both": 2395, "\u2581Botswana": 27093, "\u2581Bottle": 6149, "\u2581Bottom": 14227, "\u2581Bou": 11858, "\u2581Boulder": 30364, "\u2581Boulevard": 8577, "\u2581Bound": 24852, "\u2581Bounty": 29382, "\u2581Bourbon": 30521, "\u2581Bourg": 30493, "\u2581Bournemouth": 24667, "\u2581Boutique": 3721, "\u2581Bow": 11573, "\u2581Bowie": 29465, "\u2581Bowl": 11383, "\u2581Box": 2841, "\u2581Boxes": 16386, "\u2581Boxing": 20527, "\u2581Boy": 5002, "\u2581Boyfriend": 27759, "\u2581Boys": 12822, "\u2581Bra": 5694, "\u2581Bracelet": 24644, "\u2581Bracket": 24645, "\u2581Brad": 12905, "\u2581Bradford": 28935, "\u2581Bradley": 26395, "\u2581Brahma": 31554, "\u2581Braid": 22339, "\u2581Brain": 9762, "\u2581Brake": 18916, "\u2581Bran": 22296, "\u2581Branch": 8142, "\u2581Brand": 2937, "\u2581Brandenburg": 30751, "\u2581Brandon": 26749, "\u2581Brandy": 25530, "\u2581Branson": 28767, "\u2581Brasil": 29483, "\u2581Brass": 15543, "\u2581Bratislava": 27094, "\u2581Braun": 25474, "\u2581Brave": 23121, "\u2581Bravo": 1952, "\u2581Braz": 29307, "\u2581Brazil": 3585, "\u2581Brazilian": 9284, "\u2581Bre": 6015, "\u2581Bread": 15290, "\u2581Break": 9410, "\u2581Breaker": 17368, "\u2581Breakfast": 2886, "\u2581Breakfasts": 11733, "\u2581Breaking": 22869, "\u2581Breast": 18446, "\u2581Breath": 16810, "\u2581Breathable": 29628, "\u2581Breathe": 26881, "\u2581Breeze": 27095, "\u2581Brent": 24601, "\u2581Brew": 18284, "\u2581Brewery": 28245, "\u2581Brexit": 18535, "\u2581Bri": 8699, "\u2581Brian": 8313, "\u2581Brick": 16012, "\u2581Bridal": 30749, "\u2581Bride": 12172, "\u2581Bridge": 3041, "\u2581Brief": 15987, "\u2581Brigade": 25232, "\u2581Bright": 9096, "\u2581Brightcove": 23781, "\u2581Brightness": 13723, "\u2581Brighton": 14120, "\u2581Brilliant": 27096, "\u2581Bring": 5591, "\u2581Brisbane": 13601, "\u2581Bristol": 18635, "\u2581Brit": 18404, "\u2581Britain": 4841, "\u2581Britannica": 24646, "\u2581British": 1659, "\u2581Britney": 29261, "\u2581Brittany": 29541, "\u2581Bro": 6333, "\u2581Broad": 15531, "\u2581Broadcast": 18029, "\u2581Broadcasting": 22076, "\u2581Broadway": 10602, "\u2581Brochure": 18733, "\u2581Broken": 20693, "\u2581Broker": 17822, "\u2581Bronx": 26526, "\u2581Bronze": 16621, "\u2581Brook": 20638, "\u2581Brooke": 28826, "\u2581Brooklyn": 7183, "\u2581Brooks": 21120, "\u2581Brother": 6657, "\u2581Brotherhood": 30110, "\u2581Brothers": 12123, "\u2581Brown": 4455, "\u2581Browse": 12459, "\u2581Browser": 11665, "\u2581Browsing": 27550, "\u2581Bru": 13331, "\u2581Bruce": 14478, "\u2581Bruges": 30079, "\u2581Brun": 19475, "\u2581Brunei": 31385, "\u2581Brunette": 9725, "\u2581Bruno": 24384, "\u2581Brunswick": 27551, "\u2581Brush": 10306, "\u2581Brushless": 28611, "\u2581Brussels": 10059, "\u2581Brutal": 26549, "\u2581Bryan": 25212, "\u2581Bryant": 26747, "\u2581Bryce": 31649, "\u2581Bu": 5720, "\u2581Bubble": 15589, "\u2581Bucharest": 14108, "\u2581Buck": 19359, "\u2581Bucket": 21913, "\u2581Buckingham": 30678, "\u2581Buckle": 26125, "\u2581Bud": 16096, "\u2581Budapest": 4288, "\u2581Buddha": 12841, "\u2581Buddhism": 25091, "\u2581Buddhist": 13824, "\u2581Buddy": 28258, "\u2581Budget": 7907, "\u2581Buena": 26981, "\u2581Bueno": 11938, "\u2581Buffalo": 18150, "\u2581Buffer": 31683, "\u2581Buffet": 19370, "\u2581Bug": 12600, "\u2581Build": 7442, "\u2581Builder": 19329, "\u2581Building": 2374, "\u2581Built": 5874, "\u2581Buk": 22654, "\u2581Bulb": 18695, "\u2581Bulgaria": 10024, "\u2581Bulgarian": 16712, "\u2581Bulk": 14113, "\u2581Bull": 10846, "\u2581Bullet": 16765, "\u2581Bun": 11734, "\u2581Bund": 15607, "\u2581Bundle": 23823, "\u2581Bungalow": 20671, "\u2581Bur": 5760, "\u2581Burberry": 26837, "\u2581Bureau": 9892, "\u2581Burg": 20075, "\u2581Burger": 23600, "\u2581Burgundy": 31442, "\u2581Buried": 30927, "\u2581Burke": 23239, "\u2581Burma": 26651, "\u2581Burn": 9575, "\u2581Burning": 19062, "\u2581Burton": 29132, "\u2581Burundi": 31356, "\u2581Bus": 2319, "\u2581Busan": 9269, "\u2581Bush": 6658, "\u2581Business": 901, "\u2581Businesses": 19414, "\u2581Busty": 9957, "\u2581But": 106, "\u2581Butler": 22084, "\u2581Butterfly": 19083, "\u2581Button": 9121, "\u2581Buy": 4019, "\u2581Buyer": 18106, "\u2581Buying": 17698, "\u2581Buzz": 20589, "\u2581By": 440, "\u2581Bye": 19487, "\u2581Byron": 26441, "\u2581Byzantine": 25233, "\u2581C": 270, "\u2581CA": 3991, "\u2581CAD": 8125, "\u2581CALL": 28825, "\u2581CAM": 20621, "\u2581CAN": 8423, "\u2581CAP": 22504, "\u2581CAPTCHA": 30980, "\u2581CAR": 12460, "\u2581CARE": 26297, "\u2581CAS": 4336, "\u2581CAT": 13797, "\u2581CB": 12753, "\u2581CBD": 15818, "\u2581CBS": 23005, "\u2581CC": 9359, "\u2581CCC": 25856, "\u2581CCD": 24015, "\u2581CCTV": 14931, "\u2581CD": 3034, "\u2581CDN": 21143, "\u2581CE": 2998, "\u2581CEJN": 29542, "\u2581CENTER": 26370, "\u2581CENTRAL": 29194, "\u2581CEO": 3677, "\u2581CF": 11191, "\u2581CFD": 19507, "\u2581CFR": 26935, "\u2581CG": 20754, "\u2581CGI": 25974, "\u2581CH": 8772, "\u2581CHA": 18531, "\u2581CHANGE": 28263, "\u2581CHE": 22663, "\u2581CHF": 22843, "\u2581CHI": 24720, "\u2581CHINA": 26221, "\u2581CHRIST": 30359, "\u2581CI": 8790, "\u2581CIA": 16060, "\u2581CITY": 20484, "\u2581CJ": 16773, "\u2581CL": 12378, "\u2581CLEAN": 31963, "\u2581CLI": 23878, "\u2581CLICK": 29425, "\u2581CLOSE": 31350, "\u2581CLUB": 29771, "\u2581CM": 12100, "\u2581CMOS": 20366, "\u2581CMS": 23071, "\u2581CMYK": 23029, "\u2581CN": 15529, "\u2581CNC": 4614, "\u2581CNN": 17744, "\u2581CNY": 21804, "\u2581CO": 2158, "\u2581COB": 23653, "\u2581CODE": 21384, "\u2581COLOR": 28398, "\u2581COM": 12283, "\u2581COMP": 18480, "\u2581COMPANY": 19269, "\u2581CON": 10262, "\u2581CONNECT": 27707, "\u2581CONTACT": 27871, "\u2581CONTENT": 29543, "\u2581CONTROL": 30822, "\u2581COO": 26925, "\u2581COP": 19130, "\u2581COPYRIGHT": 13602, "\u2581COUNTRIES": 31292, "\u2581COUNTRY": 31489, "\u2581COVER": 26090, "\u2581COVID": 31293, "\u2581CP": 8226, "\u2581CPR": 27538, "\u2581CPU": 7052, "\u2581CR": 8465, "\u2581CRC": 27518, "\u2581CREE": 27628, "\u2581CRI": 24861, "\u2581CRM": 21817, "\u2581CS": 6649, "\u2581CSR": 25845, "\u2581CSS": 13732, "\u2581CSV": 27643, "\u2581CT": 9649, "\u2581CU": 15056, "\u2581CUSTOMER": 29069, "\u2581CV": 10747, "\u2581CW": 13994, "\u2581CX": 23627, "\u2581CY": 22421, "\u2581CZK": 26527, "\u2581Ca": 6054, "\u2581Cab": 15816, "\u2581Cabin": 14079, "\u2581Cabinet": 8533, "\u2581Cable": 3208, "\u2581Cabo": 23464, "\u2581Cache": 17863, "\u2581Cad": 17305, "\u2581Caesar": 9866, "\u2581Cafe": 7151, "\u2581Caf\u00e9": 17475, "\u2581Cage": 19900, "\u2581Cai": 23002, "\u2581Cain": 15817, "\u2581Cairns": 23784, "\u2581Cairo": 14474, "\u2581Cake": 14368, "\u2581Cal": 6311, "\u2581Cala": 16713, "\u2581Calc": 22822, "\u2581Calcium": 27139, "\u2581Calculate": 25925, "\u2581Calculator": 22387, "\u2581Caleb": 22785, "\u2581Calendar": 8828, "\u2581Calgary": 21197, "\u2581Cali": 16564, "\u2581Calib": 30511, "\u2581Calibration": 19933, "\u2581California": 1880, "\u2581Call": 3080, "\u2581Calle": 15295, "\u2581Called": 22414, "\u2581Calling": 22325, "\u2581Calm": 22963, "\u2581Calvin": 16205, "\u2581Cam": 4918, "\u2581Cambodia": 11918, "\u2581Cambodian": 28838, "\u2581Cambria": 26381, "\u2581Cambridge": 8636, "\u2581Camden": 29115, "\u2581Came": 19256, "\u2581Camel": 25932, "\u2581Camera": 3687, "\u2581Cameron": 18740, "\u2581Cameroon": 30715, "\u2581Camino": 28266, "\u2581Camp": 5589, "\u2581Campaign": 11132, "\u2581Campbell": 20809, "\u2581Camping": 17927, "\u2581Campo": 22175, "\u2581Campus": 10178, "\u2581Can": 436, "\u2581Cana": 19807, "\u2581Canaan": 15576, "\u2581Canaanite": 18755, "\u2581Canada": 1314, "\u2581Canadian": 4281, "\u2581Canadians": 19243, "\u2581Canal": 12824, "\u2581Canary": 26470, "\u2581Canberra": 24057, "\u2581Cancel": 9779, "\u2581Cancellation": 20149, "\u2581Cancer": 7690, "\u2581Cancun": 13929, "\u2581Candidate": 26180, "\u2581Candle": 15429, "\u2581Candy": 14039, "\u2581Cannes": 11792, "\u2581Cannot": 12778, "\u2581Canon": 11402, "\u2581Canterbury": 26657, "\u2581Canton": 25214, "\u2581Cantonese": 31799, "\u2581Canvas": 15917, "\u2581Canyon": 13145, "\u2581Cap": 3830, "\u2581Capacitive": 26023, "\u2581Capacitor": 30679, "\u2581Capacity": 4690, "\u2581Cape": 8020, "\u2581Capernaum": 29886, "\u2581Capital": 5880, "\u2581Capitan": 28566, "\u2581Capitol": 17230, "\u2581Capri": 22740, "\u2581Capsule": 14024, "\u2581Captain": 7264, "\u2581Capture": 15469, "\u2581Car": 880, "\u2581Carbide": 21769, "\u2581Carbon": 6798, "\u2581Card": 2175, "\u2581Cardboard": 23826, "\u2581Cardiff": 26239, "\u2581Cardinal": 18903, "\u2581Cards": 11829, "\u2581Care": 4113, "\u2581Career": 10755, "\u2581Careful": 22842, "\u2581Cargo": 15738, "\u2581Caribbean": 12108, "\u2581Carl": 9013, "\u2581Carlo": 21642, "\u2581Carlos": 15834, "\u2581Carlton": 21847, "\u2581Carmel": 22805, "\u2581Carmen": 13792, "\u2581Carnations": 26060, "\u2581Carnegie": 21770, "\u2581Carnival": 28709, "\u2581Carol": 15695, "\u2581Carolina": 10062, "\u2581Caroline": 24693, "\u2581Carpenter": 31732, "\u2581Carpet": 23064, "\u2581Carr": 21063, "\u2581Carrer": 23342, "\u2581Carriage": 31166, "\u2581Carrie": 25040, "\u2581Carrier": 17106, "\u2581Carroll": 29639, "\u2581Carry": 16456, "\u2581Cars": 13542, "\u2581Carson": 26891, "\u2581Cart": 11166, "\u2581Cartagena": 23148, "\u2581Carter": 14208, "\u2581Carton": 14495, "\u2581Cartoon": 13829, "\u2581Cartridge": 15464, "\u2581Cas": 7088, "\u2581Casa": 4369, "\u2581Casablanca": 26348, "\u2581Cascade": 30905, "\u2581Case": 4556, "\u2581Casey": 25660, "\u2581Cash": 7921, "\u2581Casino": 2836, "\u2581Cassette": 25564, "\u2581Cassi": 18492, "\u2581Cast": 8094, "\u2581Castel": 23220, "\u2581Castell": 25938, "\u2581Castello": 28835, "\u2581Casting": 10292, "\u2581Castle": 4366, "\u2581Castro": 21879, "\u2581Casual": 15721, "\u2581Cat": 3362, "\u2581Catalan": 23931, "\u2581Catalina": 31294, "\u2581Catalog": 19715, "\u2581Catalogue": 25739, "\u2581Catalonia": 20796, "\u2581Catalunya": 31295, "\u2581Catalyst": 30207, "\u2581Catania": 31051, "\u2581Catch": 15833, "\u2581Categories": 7628, "\u2581Category": 3436, "\u2581Catering": 31062, "\u2581Caterpillar": 24031, "\u2581Cath": 23105, "\u2581Cathedral": 5967, "\u2581Catherine": 17711, "\u2581Catholic": 3290, "\u2581Catholicism": 28814, "\u2581Catholics": 15152, "\u2581Cats": 15887, "\u2581Cau": 20116, "\u2581Caucasian": 29195, "\u2581Caught": 18748, "\u2581Cause": 10717, "\u2581Causeway": 27441, "\u2581Caution": 30277, "\u2581Cava": 26735, "\u2581Cave": 12529, "\u2581Cay": 19667, "\u2581Cayman": 22919, "\u2581Cbd": 31815, "\u2581Ce": 9918, "\u2581Cebu": 11078, "\u2581Cecil": 24840, "\u2581Cedar": 21220, "\u2581Ceiling": 15399, "\u2581Cel": 13310, "\u2581Celebrate": 21310, "\u2581Celebration": 25402, "\u2581Celebrities": 31296, "\u2581Celebrity": 18717, "\u2581Cell": 4743, "\u2581Celsius": 21436, "\u2581Celtic": 27782, "\u2581Cement": 18932, "\u2581Cemetery": 22138, "\u2581Census": 26048, "\u2581Cent": 9755, "\u2581Center": 586, "\u2581Centers": 17251, "\u2581Central": 1387, "\u2581Centre": 1763, "\u2581Centro": 16893, "\u2581Centuries": 30030, "\u2581Century": 9024, "\u2581Cer": 8977, "\u2581Ceramic": 9948, "\u2581Ceremony": 21420, "\u2581Certain": 15445, "\u2581Certainly": 8187, "\u2581Certificate": 5270, "\u2581Certification": 6466, "\u2581Certified": 11936, "\u2581Cesar": 25319, "\u2581Cfnm": 31641, "\u2581Ch": 8612, "\u2581Cha": 4560, "\u2581Chad": 25222, "\u2581Chain": 7424, "\u2581Chair": 8046, "\u2581Chairman": 12616, "\u2581Chal": 18624, "\u2581Chaldeans": 24032, "\u2581Challenge": 7530, "\u2581Cham": 21646, "\u2581Chamber": 8311, "\u2581Champ": 20929, "\u2581Champagne": 20571, "\u2581Champion": 14202, "\u2581Champions": 13301, "\u2581Championship": 8040, "\u2581Championships": 15799, "\u2581Chan": 9671, "\u2581Chance": 18095, "\u2581Chancellor": 26658, "\u2581Chandler": 30893, "\u2581Chanel": 26894, "\u2581Chang": 7397, "\u2581Change": 3206, "\u2581Changed": 20715, "\u2581Changes": 11862, "\u2581Changing": 13170, "\u2581Changzhou": 30911, "\u2581Channel": 4431, "\u2581Chaos": 27230, "\u2581Chaoyang": 31854, "\u2581Chapel": 18165, "\u2581Chapman": 28391, "\u2581Chapter": 4770, "\u2581Char": 9678, "\u2581Character": 11623, "\u2581Characteristic": 30950, "\u2581Characteristics": 21524, "\u2581Charge": 10322, "\u2581Charger": 12421, "\u2581Charging": 14472, "\u2581Charity": 28801, "\u2581Charles": 3705, "\u2581Charlie": 9417, "\u2581Charlotte": 13099, "\u2581Charm": 21955, "\u2581Charming": 22068, "\u2581Chart": 10972, "\u2581Charter": 16303, "\u2581Chase": 19125, "\u2581Chassis": 28746, "\u2581Chat": 5085, "\u2581Chateau": 21792, "\u2581Chau": 23629, "\u2581Che": 4615, "\u2581Cheap": 5433, "\u2581Cheat": 22291, "\u2581Cheating": 20844, "\u2581Check": 1328, "\u2581Cheerleader": 26174, "\u2581Cheers": 26743, "\u2581Cheese": 18356, "\u2581Chef": 17018, "\u2581Chelsea": 11624, "\u2581Chem": 23590, "\u2581Chemical": 5863, "\u2581Chemistry": 18248, "\u2581Chen": 13005, "\u2581Cheng": 23361, "\u2581Chengdu": 21904, "\u2581Chennai": 26822, "\u2581Cheong": 24084, "\u2581Cher": 13483, "\u2581Cherng": 29268, "\u2581Cherokee": 30680, "\u2581Cherry": 14832, "\u2581Chess": 24110, "\u2581Chest": 24871, "\u2581Chester": 22423, "\u2581Chevrolet": 26175, "\u2581Chi": 2417, "\u2581Chiang": 11662, "\u2581Chic": 21192, "\u2581Chicago": 3129, "\u2581Chick": 22602, "\u2581Chicken": 11854, "\u2581Chief": 6836, "\u2581Child": 4824, "\u2581Childhood": 24980, "\u2581Children": 2112, "\u2581Chile": 7899, "\u2581Chill": 23139, "\u2581Chiller": 22825, "\u2581Chin": 23019, "\u2581China": 338, "\u2581Chinatown": 19962, "\u2581Chinese": 924, "\u2581Chip": 6793, "\u2581Chloe": 27120, "\u2581Chlor": 24372, "\u2581Cho": 5902, "\u2581Chocolate": 9186, "\u2581Choi": 16035, "\u2581Choice": 9344, "\u2581Chong": 28121, "\u2581Chongqing": 29383, "\u2581Choos": 16718, "\u2581Choose": 2815, "\u2581Chop": 27205, "\u2581Chor": 25380, "\u2581Chris": 6006, "\u2581Christ": 543, "\u2581Christchurch": 19842, "\u2581Christendom": 8935, "\u2581Christian": 937, "\u2581Christianity": 5283, "\u2581Christians": 1457, "\u2581Christina": 26744, "\u2581Christine": 23867, "\u2581Christmas": 1768, "\u2581Christophe": 24030, "\u2581Christopher": 12845, "\u2581Chroma": 30747, "\u2581Chrome": 5604, "\u2581Chromium": 31598, "\u2581Chron": 23344, "\u2581Chronic": 22876, "\u2581Chronicles": 15465, "\u2581Chrysler": 31197, "\u2581Chu": 9713, "\u2581Chubby": 13319, "\u2581Chuck": 15472, "\u2581Chun": 21872, "\u2581Chung": 20273, "\u2581Chuo": 24579, "\u2581Church": 1093, "\u2581Churches": 17923, "\u2581Churchill": 21108, "\u2581Ci": 5490, "\u2581Cigar": 28433, "\u2581Cigarette": 25117, "\u2581Cincinnati": 27872, "\u2581Cinderella": 28362, "\u2581Cindy": 28396, "\u2581Cinema": 7625, "\u2581Circ": 19528, "\u2581Circle": 9495, "\u2581Circuit": 7871, "\u2581Circular": 26967, "\u2581Circus": 25140, "\u2581Cisco": 8275, "\u2581Citadine": 31443, "\u2581Cities": 8859, "\u2581Citizen": 19501, "\u2581Citizens": 18940, "\u2581Citizenship": 23183, "\u2581Citrix": 14396, "\u2581City": 381, "\u2581Civic": 21674, "\u2581Civil": 7431, "\u2581Civilization": 27784, "\u2581Cl": 12011, "\u2581Cla": 13528, "\u2581Cladding": 24062, "\u2581Claim": 19100, "\u2581Claire": 17556, "\u2581Clamp": 17731, "\u2581Clan": 25858, "\u2581Clara": 20390, "\u2581Clare": 23591, "\u2581Clari": 29530, "\u2581Clarion": 30620, "\u2581Clark": 11429, "\u2581Clarke": 25948, "\u2581Clash": 27002, "\u2581Class": 4387, "\u2581Classes": 23845, "\u2581Classic": 6244, "\u2581Classical": 11545, "\u2581Classification": 28436, "\u2581Classroom": 29290, "\u2581Claude": 29599, "\u2581Claudi": 24677, "\u2581Claus": 20027, "\u2581Clause": 28455, "\u2581Clay": 20305, "\u2581Clayton": 30285, "\u2581Cle": 13433, "\u2581Clean": 5580, "\u2581Cleaner": 15428, "\u2581Cleaning": 9937, "\u2581Clear": 6041, "\u2581Clearly": 9402, "\u2581Clement": 22549, "\u2581Clenbuterol": 21536, "\u2581Clerk": 30468, "\u2581Cleveland": 15713, "\u2581Clever": 20041, "\u2581Click": 1924, "\u2581Client": 8056, "\u2581Clients": 19209, "\u2581Cliff": 16930, "\u2581Climate": 9323, "\u2581Climb": 27691, "\u2581Climbing": 27639, "\u2581Clinic": 13386, "\u2581Clinical": 16177, "\u2581Clinton": 11093, "\u2581Clip": 9530, "\u2581Clo": 14916, "\u2581Clock": 11151, "\u2581Close": 3679, "\u2581Closed": 12572, "\u2581Closer": 25629, "\u2581Closing": 21909, "\u2581Closure": 21439, "\u2581Cloth": 15974, "\u2581Clothes": 19555, "\u2581Clothing": 15158, "\u2581Cloud": 2612, "\u2581Clover": 30466, "\u2581Club": 1625, "\u2581Cluster": 26051, "\u2581Clutch": 31115, "\u2581Co": 516, "\u2581Coach": 10557, "\u2581Coal": 18015, "\u2581Coalition": 23174, "\u2581Coast": 5854, "\u2581Coastal": 27990, "\u2581Coat": 22606, "\u2581Coated": 13908, "\u2581Coating": 9250, "\u2581Coca": 22461, "\u2581Cock": 10096, "\u2581Cocktail": 25124, "\u2581Coco": 15080, "\u2581Coconut": 26535, "\u2581Coctail": 29887, "\u2581Code": 2119, "\u2581Codes": 14750, "\u2581Coding": 27647, "\u2581Coffee": 3798, "\u2581Cognac": 30208, "\u2581Cognitive": 31855, "\u2581Cohen": 24376, "\u2581Coil": 9179, "\u2581Coin": 7010, "\u2581Col": 7950, "\u2581Cold": 5255, "\u2581Cole": 16963, "\u2581Colin": 22363, "\u2581Coll": 13817, "\u2581Collaboration": 20343, "\u2581Collagen": 31297, "\u2581Collapse": 31804, "\u2581Collar": 25931, "\u2581Collect": 13765, "\u2581Collection": 4329, "\u2581Collective": 30768, "\u2581Collector": 25003, "\u2581College": 1695, "\u2581Collins": 12766, "\u2581Cologne": 16131, "\u2581Colombia": 9944, "\u2581Colombian": 23973, "\u2581Colombo": 23291, "\u2581Colon": 18390, "\u2581Colonel": 19026, "\u2581Colonial": 27429, "\u2581Colony": 28293, "\u2581Color": 1140, "\u2581Colorado": 12983, "\u2581Colorful": 18512, "\u2581Colors": 10929, "\u2581Colosseum": 25547, "\u2581Colossians": 21086, "\u2581Colour": 10403, "\u2581Columbia": 7906, "\u2581Columbus": 13454, "\u2581Column": 16132, "\u2581Com": 8786, "\u2581Comb": 27827, "\u2581Combat": 22834, "\u2581Combin": 27209, "\u2581Combination": 24696, "\u2581Combine": 25075, "\u2581Combined": 17428, "\u2581Combo": 26308, "\u2581Come": 1484, "\u2581Comedy": 23212, "\u2581Comfort": 6885, "\u2581Comfortable": 22418, "\u2581Comic": 17034, "\u2581Coming": 10787, "\u2581Comm": 13358, "\u2581Command": 6916, "\u2581Commander": 15560, "\u2581Commandments": 22782, "\u2581Comment": 7862, "\u2581Comments": 5825, "\u2581Commerce": 13633, "\u2581Commercial": 5674, "\u2581Commission": 4432, "\u2581Commissioner": 19687, "\u2581Commit": 22244, "\u2581Committee": 3190, "\u2581Commodity": 31444, "\u2581Commodore": 31733, "\u2581Common": 6225, "\u2581Commons": 18802, "\u2581Commonwealth": 22634, "\u2581Communicate": 31977, "\u2581Communication": 7809, "\u2581Communications": 8909, "\u2581Communion": 31856, "\u2581Communism": 27552, "\u2581Communist": 8366, "\u2581Communities": 23902, "\u2581Community": 3465, "\u2581Como": 24889, "\u2581Comp": 10201, "\u2581Compact": 10337, "\u2581Companies": 8073, "\u2581Companion": 21886, "\u2581Company": 1366, "\u2581Compar": 21486, "\u2581Compare": 5855, "\u2581Compared": 14641, "\u2581Comparison": 24500, "\u2581Compass": 25230, "\u2581Compassion": 26845, "\u2581Compatibility": 21537, "\u2581Compatible": 10692, "\u2581Compensation": 28363, "\u2581Compet": 21504, "\u2581Competition": 9868, "\u2581Competitive": 18823, "\u2581Compilation": 14168, "\u2581Complain": 22644, "\u2581Complete": 7156, "\u2581Completed": 22334, "\u2581Completion": 30209, "\u2581Complex": 10601, "\u2581Compliance": 16478, "\u2581Compliant": 31298, "\u2581Component": 19420, "\u2581Components": 6905, "\u2581Compos": 20767, "\u2581Composite": 18457, "\u2581Composition": 24067, "\u2581Compound": 23312, "\u2581Comprehensive": 24799, "\u2581Compress": 30977, "\u2581Compressed": 24242, "\u2581Compression": 22912, "\u2581Compressor": 10485, "\u2581Compute": 31723, "\u2581Computer": 3828, "\u2581Computing": 20252, "\u2581Con": 2447, "\u2581Conc": 19660, "\u2581Concept": 13437, "\u2581Concern": 12519, "\u2581Concert": 8844, "\u2581Concierge": 27254, "\u2581Conclusion": 29384, "\u2581Concord": 22537, "\u2581Concrete": 20466, "\u2581Condens": 20355, "\u2581Condition": 13878, "\u2581Conditioner": 25966, "\u2581Conditions": 9509, "\u2581Condo": 7061, "\u2581Condominium": 15776, "\u2581Conduct": 13706, "\u2581Conductor": 25614, "\u2581Conf": 16070, "\u2581Confederate": 31116, "\u2581Confederation": 27873, "\u2581Conference": 3415, "\u2581Confession": 29544, "\u2581Confidence": 27909, "\u2581Configuration": 13096, "\u2581Configure": 16913, "\u2581Confirm": 18977, "\u2581Confirmation": 30135, "\u2581Conflict": 21311, "\u2581Conform": 27993, "\u2581Congo": 15077, "\u2581Congrats": 31857, "\u2581Congratulations": 9487, "\u2581Congregation": 22139, "\u2581Congress": 3759, "\u2581Congressional": 29442, "\u2581Connect": 6031, "\u2581Connected": 22619, "\u2581Connecticut": 24181, "\u2581Connecting": 17105, "\u2581Connection": 8205, "\u2581Connectivity": 28939, "\u2581Connector": 5535, "\u2581Conquer": 27736, "\u2581Conrad": 25479, "\u2581Cons": 8258, "\u2581Consciousness": 27761, "\u2581Consequently": 13264, "\u2581Conservation": 23149, "\u2581Conservative": 23903, "\u2581Conservatory": 30365, "\u2581Consider": 4420, "\u2581Consistent": 30234, "\u2581Console": 18355, "\u2581Consortium": 27874, "\u2581Constant": 14272, "\u2581Constantine": 26236, "\u2581Constantinople": 29196, "\u2581Constitution": 8343, "\u2581Construct": 27201, "\u2581Construction": 6483, "\u2581Consulate": 13409, "\u2581Consult": 20209, "\u2581Consultant": 25919, "\u2581Consultation": 28967, "\u2581Consulting": 15201, "\u2581Consumer": 9766, "\u2581Consumption": 17084, "\u2581Cont": 19313, "\u2581Contact": 1716, "\u2581Contacts": 7425, "\u2581Contain": 18692, "\u2581Container": 10185, "\u2581Contemporary": 11587, "\u2581Content": 4311, "\u2581Contents": 19684, "\u2581Contest": 11600, "\u2581Context": 27437, "\u2581Continent": 29696, "\u2581Continental": 13510, "\u2581Continue": 8415, "\u2581Continuing": 26939, "\u2581Continuous": 16067, "\u2581Contra": 23746, "\u2581Contract": 10474, "\u2581Contrast": 26402, "\u2581Contribution": 26507, "\u2581Contributor": 29703, "\u2581Control": 1769, "\u2581Controller": 6826, "\u2581Conv": 27540, "\u2581Convenience": 29197, "\u2581Convenient": 23286, "\u2581Conveniently": 23572, "\u2581Convent": 30673, "\u2581Convention": 3317, "\u2581Conversation": 18536, "\u2581Conversely": 26349, "\u2581Conversion": 16076, "\u2581Convert": 8644, "\u2581Converter": 7445, "\u2581Conveyor": 22368, "\u2581Cook": 8537, "\u2581Cookie": 5782, "\u2581Cookies": 8077, "\u2581Cooking": 12552, "\u2581Cool": 8099, "\u2581Cooled": 25516, "\u2581Cooler": 25854, "\u2581Cooling": 10537, "\u2581Cooper": 13887, "\u2581Cooperation": 17648, "\u2581Cooperative": 29629, "\u2581Coordinat": 17669, "\u2581Cop": 8929, "\u2581Copacabana": 24033, "\u2581Copenhagen": 13224, "\u2581Copper": 7417, "\u2581Copy": 8283, "\u2581Copyright": 1989, "\u2581Cor": 2840, "\u2581Coral": 18486, "\u2581Cord": 10420, "\u2581Cordoba": 31663, "\u2581Core": 4449, "\u2581Corfu": 20695, "\u2581Corinth": 17887, "\u2581Corinthians": 3574, "\u2581Cork": 24388, "\u2581Corn": 14786, "\u2581Cornelius": 30823, "\u2581Cornell": 24841, "\u2581Corner": 12742, "\u2581Corning": 25192, "\u2581Cornwall": 28752, "\u2581Coron": 20210, "\u2581Corp": 11029, "\u2581Corporate": 7566, "\u2581Corporation": 4480, "\u2581Corps": 14203, "\u2581Correct": 24026, "\u2581Correction": 20952, "\u2581Corridor": 29031, "\u2581Corrosion": 24034, "\u2581Corrugat": 19730, "\u2581Corrupt": 28193, "\u2581Corruption": 28089, "\u2581Cortana": 29416, "\u2581Corte": 22125, "\u2581Cosmetic": 11777, "\u2581Cosmo": 18943, "\u2581Cosplay": 15847, "\u2581Cost": 7063, "\u2581Costa": 6907, "\u2581Costume": 16421, "\u2581Cottage": 9640, "\u2581Cotton": 10946, "\u2581Cougar": 23416, "\u2581Could": 2763, "\u2581Couldn": 26323, "\u2581Council": 2792, "\u2581Counsel": 16824, "\u2581Counselor": 27795, "\u2581Count": 8382, "\u2581Counter": 10849, "\u2581Countertop": 28422, "\u2581Countries": 14071, "\u2581Country": 3804, "\u2581County": 3627, "\u2581Couple": 6370, "\u2581Coupling": 26817, "\u2581Coupon": 10293, "\u2581Coupons": 21490, "\u2581Cour": 24153, "\u2581Courage": 21014, "\u2581Course": 6001, "\u2581Courses": 17850, "\u2581Court": 2582, "\u2581Courtyard": 10761, "\u2581Cousin": 24352, "\u2581Cove": 18031, "\u2581Covenant": 14338, "\u2581Cover": 6450, "\u2581Coverage": 26255, "\u2581Covers": 15038, "\u2581Cow": 14063, "\u2581Cowboy": 23047, "\u2581Cozy": 22801, "\u2581Cr": 9199, "\u2581Cra": 15110, "\u2581Crab": 26593, "\u2581Crack": 15921, "\u2581Craft": 11730, "\u2581Craig": 18066, "\u2581Cran": 23596, "\u2581Crane": 12266, "\u2581Crash": 21807, "\u2581Crawler": 31299, "\u2581Crazy": 12555, "\u2581Crea": 31259, "\u2581Cream": 9628, "\u2581Creampie": 14930, "\u2581Create": 3791, "\u2581Created": 15083, "\u2581Creating": 10483, "\u2581Creation": 8775, "\u2581Creative": 7887, "\u2581Creativity": 24800, "\u2581Creator": 3233, "\u2581Creature": 23046, "\u2581Credit": 5691, "\u2581Credits": 20012, "\u2581Cree": 23998, "\u2581Creed": 26578, "\u2581Creek": 10170, "\u2581Crescent": 26214, "\u2581Crest": 28645, "\u2581Crete": 23448, "\u2581Crew": 24243, "\u2581Cricket": 17546, "\u2581Crime": 10830, "\u2581Criminal": 19165, "\u2581Crimp": 31680, "\u2581Cris": 13160, "\u2581Crisis": 15998, "\u2581Cristina": 20577, "\u2581Cristo": 28976, "\u2581Critic": 25364, "\u2581Critical": 20195, "\u2581Cro": 10351, "\u2581Croatia": 11431, "\u2581Croatian": 21467, "\u2581Croce": 27777, "\u2581Croco": 20046, "\u2581Crop": 22002, "\u2581Cross": 3592, "\u2581Crossdresser": 23661, "\u2581Crow": 21724, "\u2581Crowd": 23374, "\u2581Crown": 9089, "\u2581Crowne": 21478, "\u2581Cru": 10994, "\u2581Cruise": 11443, "\u2581Crusade": 21785, "\u2581Crush": 22699, "\u2581Cruz": 12482, "\u2581Cry": 14770, "\u2581Crypto": 11743, "\u2581Cryptocurrency": 22525, "\u2581Crystal": 6367, "\u2581Ctr": 29097, "\u2581Ctrl": 24526, "\u2581Cu": 7303, "\u2581Cub": 24638, "\u2581Cuba": 11119, "\u2581Cuban": 13910, "\u2581Cube": 17274, "\u2581Cubic": 30311, "\u2581Cuckold": 23150, "\u2581Cuisine": 20452, "\u2581Cul": 19666, "\u2581Culinary": 31117, "\u2581Cultivat": 30556, "\u2581Cultural": 7326, "\u2581Culture": 5335, "\u2581Cum": 11496, "\u2581Cummins": 27122, "\u2581Cumshot": 19455, "\u2581Cup": 2761, "\u2581Cur": 6426, "\u2581Curators": 25129, "\u2581Cure": 18132, "\u2581Curiosity": 31734, "\u2581Curious": 29459, "\u2581Currency": 12655, "\u2581Current": 4397, "\u2581Currently": 6884, "\u2581Curry": 25295, "\u2581Curtain": 22027, "\u2581Curtis": 26547, "\u2581Curvature": 25867, "\u2581Curved": 27430, "\u2581Cusco": 24502, "\u2581Cush": 29998, "\u2581Cushion": 29957, "\u2581Custom": 3562, "\u2581Customer": 3025, "\u2581Customers": 9632, "\u2581Customize": 19255, "\u2581Customized": 6890, "\u2581Customs": 14976, "\u2581Cut": 6505, "\u2581Cute": 7647, "\u2581Cutter": 13842, "\u2581Cutting": 6279, "\u2581Cy": 9461, "\u2581Cyber": 10962, "\u2581Cybersecurity": 31364, "\u2581Cycle": 12627, "\u2581Cycling": 14397, "\u2581Cyclo": 30908, "\u2581Cylinder": 9443, "\u2581Cylindrical": 28523, "\u2581Cyprus": 13265, "\u2581Cyril": 29259, "\u2581Cyrus": 21219, "\u2581Czech": 3230, "\u2581Czechoslovakia": 28198, "\u2581D": 395, "\u2581DA": 7762, "\u2581DAE": 29838, "\u2581DATA": 24241, "\u2581DAY": 15643, "\u2581DB": 10102, "\u2581DC": 2522, "\u2581DDR": 22420, "\u2581DDoS": 18902, "\u2581DE": 5475, "\u2581DEC": 24403, "\u2581DEL": 21965, "\u2581DELIVERY": 7926, "\u2581DELL": 29845, "\u2581DESIGN": 28881, "\u2581DF": 20284, "\u2581DH": 18785, "\u2581DHA": 28041, "\u2581DHCP": 29428, "\u2581DHL": 10952, "\u2581DI": 12724, "\u2581DIN": 8490, "\u2581DIP": 26287, "\u2581DIRECT": 25548, "\u2581DIS": 19186, "\u2581DIY": 14531, "\u2581DJ": 9288, "\u2581DKK": 31185, "\u2581DL": 18187, "\u2581DLC": 24263, "\u2581DLL": 26317, "\u2581DM": 12047, "\u2581DMCA": 30910, "\u2581DMX": 20377, "\u2581DN": 14867, "\u2581DNA": 4473, "\u2581DNS": 9860, "\u2581DO": 5747, "\u2581DOC": 19304, "\u2581DOES": 29802, "\u2581DOM": 24278, "\u2581DON": 23610, "\u2581DOS": 21263, "\u2581DOWNLOAD": 27708, "\u2581DP": 15087, "\u2581DPI": 24261, "\u2581DPRK": 31924, "\u2581DR": 10861, "\u2581DREAM": 28710, "\u2581DRM": 25784, "\u2581DS": 8410, "\u2581DSLR": 30034, "\u2581DT": 15478, "\u2581DU": 16529, "\u2581DVB": 15397, "\u2581DVD": 3420, "\u2581DVI": 28652, "\u2581DVR": 17741, "\u2581DW": 19655, "\u2581DX": 17700, "\u2581Da": 2163, "\u2581Dad": 4364, "\u2581Daddy": 8089, "\u2581Dae": 15256, "\u2581Daegu": 23937, "\u2581Daejeon": 28132, "\u2581Dai": 12631, "\u2581Daily": 5801, "\u2581Dairy": 28439, "\u2581Daisy": 25273, "\u2581Dakota": 22140, "\u2581Dal": 11811, "\u2581Dale": 20926, "\u2581Dali": 27865, "\u2581Dallas": 10457, "\u2581Dam": 11633, "\u2581Damage": 14425, "\u2581Damascus": 20563, "\u2581Dame": 21144, "\u2581Damn": 11750, "\u2581Dan": 4174, "\u2581Dana": 22820, "\u2581Dance": 4983, "\u2581Dancing": 14074, "\u2581Danfoss": 30035, "\u2581Danger": 21305, "\u2581Dangerous": 24381, "\u2581Daniel": 3455, "\u2581Danish": 9019, "\u2581Danny": 17906, "\u2581Dansk": 25608, "\u2581Danube": 27397, "\u2581Dar": 6461, "\u2581Darius": 27775, "\u2581Dark": 5534, "\u2581Darkness": 22287, "\u2581Darling": 20916, "\u2581Darren": 30478, "\u2581Darwin": 10225, "\u2581Dash": 18080, "\u2581Dashboard": 23935, "\u2581Data": 1145, "\u2581Database": 10010, "\u2581Datasheet": 1914, "\u2581Date": 2111, "\u2581Dating": 17774, "\u2581Daughter": 7712, "\u2581Dave": 11530, "\u2581David": 840, "\u2581Davies": 29588, "\u2581Davis": 13891, "\u2581Dawn": 16920, "\u2581Dawson": 31015, "\u2581Day": 817, "\u2581Days": 4435, "\u2581De": 823, "\u2581Dead": 5518, "\u2581Deal": 11505, "\u2581Dealer": 24732, "\u2581Deals": 13853, "\u2581Dean": 14089, "\u2581Dear": 7202, "\u2581Death": 4139, "\u2581Deb": 17778, "\u2581Debate": 31230, "\u2581Debbie": 29798, "\u2581Debian": 18463, "\u2581Deborah": 28199, "\u2581Debt": 20199, "\u2581Debug": 26253, "\u2581Dec": 6216, "\u2581Deca": 17503, "\u2581Decade": 27649, "\u2581Decan": 23772, "\u2581Decanoate": 31735, "\u2581Decatur": 29942, "\u2581December": 1375, "\u2581Decide": 20697, "\u2581Decision": 15136, "\u2581Deck": 13756, "\u2581Declaration": 14219, "\u2581Declare": 31976, "\u2581Deco": 18302, "\u2581Decor": 20919, "\u2581Decoration": 13721, "\u2581Decorative": 19937, "\u2581Decree": 31065, "\u2581Dedicated": 24942, "\u2581Dee": 18917, "\u2581Deep": 5546, "\u2581Deepthroat": 22635, "\u2581Def": 19527, "\u2581Default": 13338, "\u2581Defeat": 28615, "\u2581Defence": 22535, "\u2581Defend": 21647, "\u2581Defender": 25483, "\u2581Defense": 7436, "\u2581Defensive": 21421, "\u2581Define": 24400, "\u2581Definitely": 12109, "\u2581Definition": 12255, "\u2581Degree": 8294, "\u2581Dehumidifier": 31118, "\u2581Dei": 20449, "\u2581Deity": 19794, "\u2581Del": 4951, "\u2581Delaware": 28578, "\u2581Delay": 24392, "\u2581Delete": 7500, "\u2581Deleted": 18791, "\u2581Delhi": 9823, "\u2581Deli": 19132, "\u2581Delicious": 26793, "\u2581Delight": 17176, "\u2581Deliver": 12238, "\u2581Delivery": 2606, "\u2581Dell": 8413, "\u2581Deloitte": 31599, "\u2581Delphi": 29959, "\u2581Delta": 11146, "\u2581Deluxe": 6807, "\u2581Demand": 21440, "\u2581Demi": 28970, "\u2581Demo": 12530, "\u2581Democracy": 15126, "\u2581Democrat": 28179, "\u2581Democratic": 8406, "\u2581Democrats": 16359, "\u2581Demon": 16777, "\u2581Demonstration": 30981, "\u2581Den": 7106, "\u2581Denis": 22624, "\u2581Denmark": 7057, "\u2581Dennis": 20257, "\u2581Density": 13016, "\u2581Dental": 20271, "\u2581Denver": 14409, "\u2581Depart": 25609, "\u2581Department": 2539, "\u2581Departure": 21789, "\u2581Depend": 8352, "\u2581Deploy": 22761, "\u2581Deployment": 26849, "\u2581Deposit": 12007, "\u2581Depot": 27311, "\u2581Depression": 16678, "\u2581Depth": 23307, "\u2581Deputy": 20564, "\u2581Der": 15114, "\u2581Derby": 29275, "\u2581Derek": 16986, "\u2581Derma": 27160, "\u2581Des": 11159, "\u2581Descartes": 29545, "\u2581Describe": 22038, "\u2581Description": 2817, "\u2581Desert": 12485, "\u2581Desi": 19481, "\u2581Design": 1527, "\u2581Designed": 8907, "\u2581Designer": 10604, "\u2581Desire": 17364, "\u2581Desk": 15030, "\u2581Desktop": 6827, "\u2581Despite": 4498, "\u2581Dessert": 30716, "\u2581Destin": 26998, "\u2581Destination": 15785, "\u2581Destiny": 22929, "\u2581Destroy": 16068, "\u2581Destruction": 28747, "\u2581Detail": 8771, "\u2581Detailed": 17596, "\u2581Details": 3572, "\u2581Detection": 18428, "\u2581Detective": 20032, "\u2581Detector": 16335, "\u2581Determine": 22380, "\u2581Detroit": 15978, "\u2581Deuteronomy": 19163, "\u2581Deutsch": 20264, "\u2581Deutsche": 27389, "\u2581Dev": 12257, "\u2581DevOps": 30366, "\u2581Develop": 17522, "\u2581Developed": 18194, "\u2581Developer": 4319, "\u2581Developing": 22205, "\u2581Development": 2807, "\u2581Device": 5826, "\u2581Devices": 11319, "\u2581Devil": 5704, "\u2581Devon": 28451, "\u2581Devotion": 31490, "\u2581Dhabi": 15458, "\u2581Dhaka": 29063, "\u2581Di": 2008, "\u2581Dia": 10213, "\u2581Diabetes": 20565, "\u2581Diablo": 27278, "\u2581Diagnosis": 30036, "\u2581Diagnostic": 17634, "\u2581Dial": 22854, "\u2581Dialog": 30643, "\u2581Dialogue": 28406, "\u2581Diameter": 7430, "\u2581Diamond": 5908, "\u2581Diana": 18850, "\u2581Dianabol": 27129, "\u2581Diane": 25927, "\u2581Diaper": 24848, "\u2581Diaphragm": 30522, "\u2581Diary": 25787, "\u2581Dick": 10053, "\u2581Dickinson": 31600, "\u2581Dictionary": 12798, "\u2581Did": 1340, "\u2581Didn": 14370, "\u2581Die": 6345, "\u2581Diego": 7168, "\u2581Diesel": 12022, "\u2581Diet": 12732, "\u2581Diff": 28351, "\u2581Difference": 13882, "\u2581Different": 7387, "\u2581Differential": 30131, "\u2581Difficult": 20133, "\u2581Diffuser": 22154, "\u2581Digest": 28432, "\u2581Digi": 26901, "\u2581Digit": 25513, "\u2581Digital": 2346, "\u2581Dijon": 31777, "\u2581Dildo": 12410, "\u2581Dimension": 8887, "\u2581Dimensions": 14374, "\u2581Din": 11830, "\u2581Dining": 10749, "\u2581Dinner": 9587, "\u2581Dinosaur": 24479, "\u2581Dio": 21517, "\u2581Diode": 21922, "\u2581Dip": 25522, "\u2581Diploma": 16415, "\u2581Direct": 6073, "\u2581DirectX": 25929, "\u2581Directed": 24784, "\u2581Direction": 11701, "\u2581Directive": 17096, "\u2581Director": 3686, "\u2581Directory": 9429, "\u2581Dirt": 30815, "\u2581Dirty": 16145, "\u2581Dis": 4630, "\u2581Disability": 28964, "\u2581Disable": 16369, "\u2581Disappear": 30557, "\u2581Disaster": 17085, "\u2581Disc": 9787, "\u2581Discharge": 26838, "\u2581Disciples": 28200, "\u2581Discipline": 27875, "\u2581Disclaimer": 25702, "\u2581Disclosure": 26508, "\u2581Disco": 12704, "\u2581Disconnect": 30313, "\u2581Discount": 7974, "\u2581Discover": 6036, "\u2581Discovery": 11958, "\u2581Discuss": 24872, "\u2581Discussion": 20474, "\u2581Disease": 9236, "\u2581Dish": 20306, "\u2581Disk": 10127, "\u2581Disney": 6491, "\u2581Disneyland": 19386, "\u2581Disorder": 23442, "\u2581Dispenser": 27398, "\u2581Displacement": 29704, "\u2581Display": 2650, "\u2581Displays": 17702, "\u2581Disposable": 18046, "\u2581Dispute": 19175, "\u2581Disrupt": 31792, "\u2581Dist": 21306, "\u2581Distance": 10663, "\u2581Distinguish": 29385, "\u2581Distribute": 26350, "\u2581Distribution": 9842, "\u2581Distributor": 8146, "\u2581District": 2790, "\u2581DivX": 28711, "\u2581Dive": 16545, "\u2581Diver": 18761, "\u2581Diversity": 22898, "\u2581Divi": 29165, "\u2581Divide": 21338, "\u2581Divine": 10576, "\u2581Diving": 19295, "\u2581Division": 6308, "\u2581Divorce": 17966, "\u2581Dj": 20973, "\u2581Django": 30681, "\u2581Do": 240, "\u2581Doc": 15637, "\u2581Dock": 16531, "\u2581Docker": 26127, "\u2581Doctor": 4072, "\u2581Doctors": 14196, "\u2581Document": 12671, "\u2581Documentary": 25137, "\u2581Documentation": 22037, "\u2581Documents": 18584, "\u2581Dodge": 22569, "\u2581Does": 1432, "\u2581Doesn": 12770, "\u2581Dog": 6371, "\u2581Dogs": 10415, "\u2581Doing": 11668, "\u2581Dolby": 26530, "\u2581Dolce": 29582, "\u2581Doll": 12119, "\u2581Dollar": 6612, "\u2581Dolphin": 20344, "\u2581Domain": 10578, "\u2581Dome": 13440, "\u2581Domestic": 12885, "\u2581Domination": 14415, "\u2581Domingo": 25886, "\u2581Dominica": 28341, "\u2581Dominican": 16165, "\u2581Domino": 27140, "\u2581Don": 651, "\u2581Donald": 9489, "\u2581Done": 15205, "\u2581Donetsk": 31822, "\u2581Dong": 7461, "\u2581Dongdaemun": 29705, "\u2581Dongguan": 24967, "\u2581Donna": 24025, "\u2581Door": 5148, "\u2581Doors": 18616, "\u2581Dor": 13966, "\u2581Dora": 20204, "\u2581Dorm": 11652, "\u2581Dormitory": 26181, "\u2581Dorothy": 28201, "\u2581Dorset": 31226, "\u2581Dosage": 30940, "\u2581Dot": 17793, "\u2581Double": 1949, "\u2581Doubletree": 23191, "\u2581Doubt": 22646, "\u2581Doug": 21084, "\u2581Douglas": 12295, "\u2581Dow": 20959, "\u2581Down": 5485, "\u2581Download": 1036, "\u2581Downloader": 23637, "\u2581Downloads": 7701, "\u2581Downtown": 5134, "\u2581Dozens": 31672, "\u2581Dr": 720, "\u2581Draft": 25892, "\u2581Drag": 17190, "\u2581Dragon": 6546, "\u2581Drake": 18570, "\u2581Drama": 18299, "\u2581Draw": 12178, "\u2581Drawer": 28471, "\u2581Drawing": 15810, "\u2581Dream": 4376, "\u2581Dreams": 14002, "\u2581Dresden": 16551, "\u2581Dress": 5804, "\u2581Dresses": 27484, "\u2581Drift": 27285, "\u2581Drill": 10897, "\u2581Drilling": 15293, "\u2581Drink": 8926, "\u2581Drinking": 13216, "\u2581Drinks": 7692, "\u2581Drive": 2023, "\u2581Driver": 5093, "\u2581Drivers": 13291, "\u2581Driving": 8273, "\u2581Drone": 21269, "\u2581Drop": 8358, "\u2581Dropbox": 7546, "\u2581Drug": 10888, "\u2581Drugs": 19437, "\u2581Drum": 13066, "\u2581Drunk": 13184, "\u2581Drupal": 31947, "\u2581Dry": 9401, "\u2581Dryer": 19343, "\u2581Drying": 21290, "\u2581Du": 3728, "\u2581DuPont": 31445, "\u2581Dual": 7492, "\u2581Dub": 22577, "\u2581Dubai": 3380, "\u2581Dublin": 6810, "\u2581Dubrovnik": 15903, "\u2581Duchess": 29070, "\u2581Duck": 20076, "\u2581Dude": 20393, "\u2581Due": 5849, "\u2581Duke": 10286, "\u2581Dumb": 26885, "\u2581Dump": 19798, "\u2581Dun": 9614, "\u2581Duncan": 29797, "\u2581Dungeon": 29888, "\u2581Duo": 23501, "\u2581Duomo": 23056, "\u2581Duplex": 17400, "\u2581Duplicate": 31341, "\u2581Dur": 18379, "\u2581Durability": 30451, "\u2581Durable": 15255, "\u2581Durabolin": 30037, "\u2581Duran": 25225, "\u2581Duration": 10303, "\u2581Durham": 30275, "\u2581During": 1674, "\u2581Dusit": 30099, "\u2581Dusseldorf": 26794, "\u2581Dust": 13535, "\u2581Dutch": 4067, "\u2581Duty": 9326, "\u2581Dwight": 30210, "\u2581Dy": 11203, "\u2581Dye": 25848, "\u2581Dylan": 20907, "\u2581Dyna": 22693, "\u2581Dynamic": 10634, "\u2581Dynasty": 23038, "\u2581D\u00fcsseldorf": 30824, "\u2581E": 329, "\u2581EA": 11025, "\u2581EAST": 23642, "\u2581EB": 12397, "\u2581EC": 7166, "\u2581ECO": 24021, "\u2581ECTS": 29277, "\u2581ECU": 14713, "\u2581ED": 13116, "\u2581EDM": 24266, "\u2581EEA": 28813, "\u2581EF": 17266, "\u2581EL": 11304, "\u2581EM": 10435, "\u2581EMAG": 31374, "\u2581EMC": 15628, "\u2581EMI": 25987, "\u2581EMS": 17943, "\u2581EN": 4989, "\u2581EOS": 16164, "\u2581EP": 9773, "\u2581EPA": 24022, "\u2581EPDM": 28250, "\u2581EPS": 21866, "\u2581EQ": 25521, "\u2581ERP": 21360, "\u2581ES": 6008, "\u2581ESL": 20975, "\u2581ESPN": 28064, "\u2581ESTA": 27814, "\u2581ESXi": 19363, "\u2581ET": 16102, "\u2581ETAS": 17895, "\u2581ETC": 28475, "\u2581ETF": 26454, "\u2581ETH": 19206, "\u2581EU": 2902, "\u2581EUR": 6141, "\u2581EV": 14546, "\u2581EVA": 13231, "\u2581EVENT": 29783, "\u2581EVERY": 23785, "\u2581EX": 6987, "\u2581EXP": 28030, "\u2581EXPERIENCE": 31446, "\u2581EXPO": 23615, "\u2581EXPRESS": 31518, "\u2581EZ": 21930, "\u2581Each": 1332, "\u2581Eagle": 12763, "\u2581Ear": 10100, "\u2581Earl": 19522, "\u2581Earlier": 17639, "\u2581Early": 5404, "\u2581Earn": 16015, "\u2581Earth": 1354, "\u2581Earthquake": 20345, "\u2581Ease": 25790, "\u2581Easily": 13172, "\u2581East": 1225, "\u2581Easter": 11893, "\u2581Eastern": 5552, "\u2581Easy": 3594, "\u2581Eat": 6947, "\u2581Eating": 12582, "\u2581Ebola": 26371, "\u2581Ebony": 12842, "\u2581Ec": 18787, "\u2581Ecclesiastes": 24472, "\u2581Echo": 21045, "\u2581Eclipse": 26024, "\u2581Eco": 7505, "\u2581Econo": 25936, "\u2581Economic": 6017, "\u2581Economics": 12737, "\u2581Economist": 26367, "\u2581Economy": 9951, "\u2581Ecosystem": 27920, "\u2581Ecuador": 17221, "\u2581Ed": 6789, "\u2581Eddie": 23440, "\u2581Eden": 7560, "\u2581Edgar": 26552, "\u2581Edge": 7969, "\u2581Edinburgh": 9767, "\u2581Edison": 20255, "\u2581Edit": 6045, "\u2581Edition": 5029, "\u2581Editor": 7366, "\u2581Edmonton": 17222, "\u2581Edmund": 30558, "\u2581Edo": 21283, "\u2581Edom": 19909, "\u2581Edu": 18525, "\u2581Education": 2709, "\u2581Educational": 13689, "\u2581Edward": 8904, "\u2581Edwards": 16120, "\u2581Edwin": 27144, "\u2581Effect": 12836, "\u2581Effective": 10605, "\u2581Effects": 13836, "\u2581Efficiency": 11394, "\u2581Efficient": 20346, "\u2581Effort": 24647, "\u2581Egg": 11641, "\u2581Egypt": 1925, "\u2581Egyptian": 7400, "\u2581Egyptians": 11523, "\u2581Ei": 18147, "\u2581Eiffel": 20134, "\u2581Eight": 8944, "\u2581Einstein": 12760, "\u2581Either": 8965, "\u2581El": 1507, "\u2581Elaine": 31945, "\u2581Elastic": 21095, "\u2581Elbow": 29270, "\u2581Elder": 14660, "\u2581Eleazar": 25092, "\u2581Election": 16259, "\u2581Elector": 30559, "\u2581Electr": 28837, "\u2581Electric": 2616, "\u2581Electrical": 7986, "\u2581Electricity": 24565, "\u2581Electro": 12202, "\u2581Electrode": 29826, "\u2581Electron": 26114, "\u2581Electronic": 3837, "\u2581Electronics": 7162, "\u2581Elegance": 31300, "\u2581Elegant": 20781, "\u2581Element": 16721, "\u2581Elementary": 18559, "\u2581Elements": 17796, "\u2581Elena": 26258, "\u2581Elephant": 13712, "\u2581Elevat": 28358, "\u2581Elevator": 18913, "\u2581Eleven": 23325, "\u2581Eli": 7331, "\u2581Elias": 26875, "\u2581Elijah": 8919, "\u2581Eliminat": 31824, "\u2581Eliminate": 26898, "\u2581Elisabeth": 29198, "\u2581Elisha": 14232, "\u2581Elite": 13112, "\u2581Elizabeth": 6474, "\u2581Ella": 28345, "\u2581Ellen": 23202, "\u2581Elliot": 18981, "\u2581Ellis": 22187, "\u2581Elohim": 27399, "\u2581Elsa": 20176, "\u2581Else": 28268, "\u2581Elvis": 23824,
[...]
